{
  "version": "1.0",
  "truncation": null,
  "padding": null,
  "added_tokens": [
    {
      "id": 0,
      "content": "[UNK]",
      "single_word": false,
      "lstrip": false,
      "rstrip": false,
      "normalized": false,
      "special": true
    },
    {
      "id": 1,
      "content": "[PAD]",
      "single_word": false,
      "lstrip": false,
      "rstrip": false,
      "normalized": false,
      "special": true
    },
    {
      "id": 2,
      "content": "[CLS]",
      "single_word": false,
      "lstrip": false,
      "rstrip": false,
      "normalized": false,
      "special": true
    },
    {
      "id": 3,
      "content": "[SEP]",
      "single_word": false,
      "lstrip": false,
      "rstrip": false,
      "normalized": false,
      "special": true
    },
    {
      "id": 4,
      "content": "[MASK]",
      "single_word": false,
      "lstrip": false,
      "rstrip": false,
      "normalized": false,
      "special": true
    }
  ],
  "normalizer": {
    "type": "Sequence",
    "normalizers": [
      {
        "type": "NFD"
      },
      {
        "type": "Lowercase"
      }
    ]
  },
  "pre_tokenizer": {
    "type": "WhitespaceSplit"
  },
  "post_processor": null,
  "decoder": null,
  "model": {
    "type": "WordPiece",
    "unk_token": "[UNK]",
    "continuing_subword_prefix": "##",
    "max_input_chars_per_word": 100,
    "vocab": {
      "[UNK]": 0,
      "[PAD]": 1,
      "[CLS]": 2,
      "[SEP]": 3,
      "[MASK]": 4,
      "!": 5,
      "\"": 6,
      "&": 7,
      "'": 8,
      "*": 9,
      "+": 10,
      "-": 11,
      ".": 12,
      "/": 13,
      "0": 14,
      "1": 15,
      "2": 16,
      "3": 17,
      "4": 18,
      "5": 19,
      "6": 20,
      "7": 21,
      "8": 22,
      "9": 23,
      ":": 24,
      ";": 25,
      "=": 26,
      ">": 27,
      "?": 28,
      "@": 29,
      "]": 30,
      "_": 31,
      "a": 32,
      "b": 33,
      "c": 34,
      "d": 35,
      "e": 36,
      "f": 37,
      "g": 38,
      "h": 39,
      "i": 40,
      "j": 41,
      "k": 42,
      "l": 43,
      "m": 44,
      "n": 45,
      "o": 46,
      "p": 47,
      "q": 48,
      "r": 49,
      "s": 50,
      "t": 51,
      "u": 52,
      "v": 53,
      "w": 54,
      "x": 55,
      "y": 56,
      "z": 57,
      "{": 58,
      "}": 59,
      "~": 60,
      "§": 61,
      "©": 62,
      "±": 63,
      "·": 64,
      "ε": 65,
      "π": 66,
      "—": 67,
      "―": 68,
      "“": 69,
      "”": 70,
      "…": 71,
      "℃": 72,
      "ⅰ": 73,
      "ⅱ": 74,
      "ⅲ": 75,
      "、": 76,
      "。": 77,
      "〇": 78,
      "《": 79,
      "》": 80,
      "「": 81,
      "」": 82,
      "㶷": 83,
      "一": 84,
      "丁": 85,
      "七": 86,
      "万": 87,
      "丈": 88,
      "三": 89,
      "上": 90,
      "下": 91,
      "不": 92,
      "与": 93,
      "丐": 94,
      "丑": 95,
      "专": 96,
      "且": 97,
      "世": 98,
      "丘": 99,
      "业": 100,
      "丛": 101,
      "东": 102,
      "丝": 103,
      "丢": 104,
      "两": 105,
      "严": 106,
      "丧": 107,
      "个": 108,
      "丫": 109,
      "中": 110,
      "丰": 111,
      "串": 112,
      "临": 113,
      "丸": 114,
      "丹": 115,
      "为": 116,
      "主": 117,
      "丽": 118,
      "举": 119,
      "乃": 120,
      "久": 121,
      "么": 122,
      "义": 123,
      "之": 124,
      "乌": 125,
      "乍": 126,
      "乎": 127,
      "乏": 128,
      "乐": 129,
      "乒": 130,
      "乓": 131,
      "乔": 132,
      "乖": 133,
      "乘": 134,
      "九": 135,
      "乞": 136,
      "也": 137,
      "习": 138,
      "乡": 139,
      "书": 140,
      "买": 141,
      "乱": 142,
      "乳": 143,
      "乾": 144,
      "了": 145,
      "予": 146,
      "争": 147,
      "事": 148,
      "二": 149,
      "于": 150,
      "亏": 151,
      "云": 152,
      "互": 153,
      "五": 154,
      "井": 155,
      "亘": 156,
      "亚": 157,
      "些": 158,
      "亟": 159,
      "亡": 160,
      "亢": 161,
      "交": 162,
      "亦": 163,
      "产": 164,
      "亨": 165,
      "亩": 166,
      "享": 167,
      "京": 168,
      "亭": 169,
      "亮": 170,
      "亲": 171,
      "人": 172,
      "亿": 173,
      "什": 174,
      "仁": 175,
      "仅": 176,
      "仆": 177,
      "仇": 178,
      "今": 179,
      "介": 180,
      "仍": 181,
      "从": 182,
      "仑": 183,
      "仓": 184,
      "仔": 185,
      "仕": 186,
      "他": 187,
      "仗": 188,
      "付": 189,
      "仙": 190,
      "仟": 191,
      "代": 192,
      "令": 193,
      "以": 194,
      "仨": 195,
      "仪": 196,
      "们": 197,
      "仰": 198,
      "仲": 199,
      "件": 200,
      "价": 201,
      "任": 202,
      "份": 203,
      "仿": 204,
      "企": 205,
      "伊": 206,
      "伍": 207,
      "伏": 208,
      "伐": 209,
      "休": 210,
      "众": 211,
      "优": 212,
      "伙": 213,
      "会": 214,
      "伞": 215,
      "伟": 216,
      "传": 217,
      "伤": 218,
      "伦": 219,
      "伪": 220,
      "伫": 221,
      "伯": 222,
      "估": 223,
      "伴": 224,
      "伶": 225,
      "伸": 226,
      "伺": 227,
      "似": 228,
      "伽": 229,
      "但": 230,
      "位": 231,
      "低": 232,
      "住": 233,
      "佐": 234,
      "佑": 235,
      "体": 236,
      "何": 237,
      "余": 238,
      "佛": 239,
      "作": 240,
      "佝": 241,
      "你": 242,
      "佩": 243,
      "佬": 244,
      "佳": 245,
      "佼": 246,
      "使": 247,
      "侃": 248,
      "侄": 249,
      "侈": 250,
      "例": 251,
      "侍": 252,
      "供": 253,
      "依": 254,
      "侠": 255,
      "侥": 256,
      "侦": 257,
      "侧": 258,
      "侬": 259,
      "侮": 260,
      "侯": 261,
      "侵": 262,
      "便": 263,
      "促": 264,
      "俄": 265,
      "俊": 266,
      "俏": 267,
      "俐": 268,
      "俑": 269,
      "俗": 270,
      "俘": 271,
      "保": 272,
      "俞": 273,
      "信": 274,
      "俨": 275,
      "俩": 276,
      "修": 277,
      "俯": 278,
      "俱": 279,
      "俸": 280,
      "俺": 281,
      "倍": 282,
      "倒": 283,
      "倔": 284,
      "倘": 285,
      "候": 286,
      "倚": 287,
      "借": 288,
      "倡": 289,
      "倦": 290,
      "倪": 291,
      "倭": 292,
      "债": 293,
      "值": 294,
      "倾": 295,
      "偃": 296,
      "假": 297,
      "偌": 298,
      "偎": 299,
      "偏": 300,
      "做": 301,
      "停": 302,
      "健": 303,
      "偶": 304,
      "偷": 305,
      "偻": 306,
      "偿": 307,
      "傅": 308,
      "傍": 309,
      "储": 310,
      "催": 311,
      "傲": 312,
      "傻": 313,
      "像": 314,
      "僚": 315,
      "僧": 316,
      "僵": 317,
      "僻": 318,
      "儒": 319,
      "儿": 320,
      "兀": 321,
      "允": 322,
      "元": 323,
      "兄": 324,
      "充": 325,
      "兆": 326,
      "先": 327,
      "光": 328,
      "克": 329,
      "免": 330,
      "兑": 331,
      "兔": 332,
      "党": 333,
      "兜": 334,
      "兢": 335,
      "入": 336,
      "全": 337,
      "八": 338,
      "公": 339,
      "六": 340,
      "兮": 341,
      "兰": 342,
      "共": 343,
      "关": 344,
      "兴": 345,
      "兵": 346,
      "其": 347,
      "具": 348,
      "典": 349,
      "兹": 350,
      "养": 351,
      "兼": 352,
      "兽": 353,
      "内": 354,
      "冈": 355,
      "册": 356,
      "再": 357,
      "冒": 358,
      "冕": 359,
      "冗": 360,
      "写": 361,
      "军": 362,
      "农": 363,
      "冠": 364,
      "冤": 365,
      "冥": 366,
      "冬": 367,
      "冯": 368,
      "冰": 369,
      "冲": 370,
      "决": 371,
      "况": 372,
      "冶": 373,
      "冷": 374,
      "冻": 375,
      "冽": 376,
      "净": 377,
      "凄": 378,
      "准": 379,
      "凉": 380,
      "凋": 381,
      "凌": 382,
      "减": 383,
      "凑": 384,
      "凛": 385,
      "凝": 386,
      "几": 387,
      "凡": 388,
      "凤": 389,
      "凭": 390,
      "凯": 391,
      "凳": 392,
      "凶": 393,
      "凸": 394,
      "凹": 395,
      "出": 396,
      "击": 397,
      "函": 398,
      "凿": 399,
      "刀": 400,
      "刁": 401,
      "刃": 402,
      "分": 403,
      "切": 404,
      "刊": 405,
      "刎": 406,
      "刑": 407,
      "划": 408,
      "列": 409,
      "刘": 410,
      "则": 411,
      "刚": 412,
      "创": 413,
      "初": 414,
      "删": 415,
      "判": 416,
      "刨": 417,
      "利": 418,
      "别": 419,
      "刮": 420,
      "到": 421,
      "制": 422,
      "刷": 423,
      "刹": 424,
      "刺": 425,
      "刻": 426,
      "剂": 427,
      "削": 428,
      "前": 429,
      "剐": 430,
      "剑": 431,
      "剔": 432,
      "剖": 433,
      "剥": 434,
      "剧": 435,
      "剩": 436,
      "剪": 437,
      "副": 438,
      "割": 439,
      "剿": 440,
      "力": 441,
      "劝": 442,
      "办": 443,
      "功": 444,
      "加": 445,
      "务": 446,
      "劣": 447,
      "动": 448,
      "助": 449,
      "努": 450,
      "劫": 451,
      "励": 452,
      "劲": 453,
      "劳": 454,
      "势": 455,
      "勃": 456,
      "勇": 457,
      "勉": 458,
      "勋": 459,
      "勒": 460,
      "勘": 461,
      "募": 462,
      "勤": 463,
      "勺": 464,
      "勾": 465,
      "勿": 466,
      "匀": 467,
      "包": 468,
      "匆": 469,
      "匕": 470,
      "化": 471,
      "北": 472,
      "匙": 473,
      "匠": 474,
      "匣": 475,
      "匪": 476,
      "匹": 477,
      "区": 478,
      "医": 479,
      "匿": 480,
      "十": 481,
      "千": 482,
      "升": 483,
      "午": 484,
      "卉": 485,
      "半": 486,
      "华": 487,
      "协": 488,
      "卑": 489,
      "卒": 490,
      "卓": 491,
      "单": 492,
      "卖": 493,
      "南": 494,
      "博": 495,
      "卜": 496,
      "占": 497,
      "卡": 498,
      "卢": 499,
      "卤": 500,
      "卦": 501,
      "卧": 502,
      "卫": 503,
      "印": 504,
      "危": 505,
      "即": 506,
      "却": 507,
      "卵": 508,
      "卷": 509,
      "卸": 510,
      "厂": 511,
      "厄": 512,
      "厅": 513,
      "历": 514,
      "厉": 515,
      "压": 516,
      "厌": 517,
      "厕": 518,
      "厘": 519,
      "厚": 520,
      "原": 521,
      "厢": 522,
      "厦": 523,
      "厨": 524,
      "厮": 525,
      "去": 526,
      "县": 527,
      "参": 528,
      "又": 529,
      "叉": 530,
      "及": 531,
      "友": 532,
      "双": 533,
      "反": 534,
      "发": 535,
      "叔": 536,
      "取": 537,
      "受": 538,
      "变": 539,
      "叙": 540,
      "叛": 541,
      "叠": 542,
      "口": 543,
      "古": 544,
      "句": 545,
      "另": 546,
      "叨": 547,
      "只": 548,
      "叫": 549,
      "召": 550,
      "叭": 551,
      "叮": 552,
      "可": 553,
      "台": 554,
      "叱": 555,
      "史": 556,
      "右": 557,
      "叶": 558,
      "号": 559,
      "司": 560,
      "叹": 561,
      "叼": 562,
      "叽": 563,
      "吁": 564,
      "吃": 565,
      "各": 566,
      "吆": 567,
      "合": 568,
      "吉": 569,
      "吊": 570,
      "吋": 571,
      "同": 572,
      "名": 573,
      "后": 574,
      "吏": 575,
      "吐": 576,
      "向": 577,
      "吓": 578,
      "吕": 579,
      "吗": 580,
      "君": 581,
      "吜": 582,
      "吝": 583,
      "吞": 584,
      "吟": 585,
      "否": 586,
      "吧": 587,
      "吨": 588,
      "吩": 589,
      "含": 590,
      "听": 591,
      "吭": 592,
      "吮": 593,
      "启": 594,
      "吱": 595,
      "吴": 596,
      "吵": 597,
      "吸": 598,
      "吹": 599,
      "吻": 600,
      "吼": 601,
      "吾": 602,
      "呀": 603,
      "呆": 604,
      "呈": 605,
      "告": 606,
      "呐": 607,
      "呓": 608,
      "呕": 609,
      "呗": 610,
      "员": 611,
      "呛": 612,
      "呜": 613,
      "呢": 614,
      "呦": 615,
      "周": 616,
      "呯": 617,
      "味": 618,
      "呵": 619,
      "呷": 620,
      "呸": 621,
      "呼": 622,
      "命": 623,
      "咀": 624,
      "咂": 625,
      "咋": 626,
      "和": 627,
      "咎": 628,
      "咐": 629,
      "咒": 630,
      "咔": 631,
      "咕": 632,
      "咖": 633,
      "咙": 634,
      "咚": 635,
      "咛": 636,
      "咝": 637,
      "咣": 638,
      "咤": 639,
      "咦": 640,
      "咧": 641,
      "咪": 642,
      "咫": 643,
      "咬": 644,
      "咯": 645,
      "咱": 646,
      "咳": 647,
      "咸": 648,
      "咽": 649,
      "咿": 650,
      "哀": 651,
      "品": 652,
      "哄": 653,
      "哆": 654,
      "哇": 655,
      "哈": 656,
      "哉": 657,
      "响": 658,
      "哎": 659,
      "哑": 660,
      "哒": 661,
      "哗": 662,
      "哝": 663,
      "哟": 664,
      "哥": 665,
      "哦": 666,
      "哨": 667,
      "哩": 668,
      "哪": 669,
      "哭": 670,
      "哲": 671,
      "哺": 672,
      "哼": 673,
      "哽": 674,
      "唆": 675,
      "唇": 676,
      "唉": 677,
      "唏": 678,
      "唐": 679,
      "唠": 680,
      "唤": 681,
      "唧": 682,
      "唬": 683,
      "售": 684,
      "唯": 685,
      "唱": 686,
      "唾": 687,
      "啃": 688,
      "啄": 689,
      "商": 690,
      "啊": 691,
      "啐": 692,
      "啕": 693,
      "啜": 694,
      "啡": 695,
      "啤": 696,
      "啥": 697,
      "啦": 698,
      "啧": 699,
      "啪": 700,
      "啬": 701,
      "啰": 702,
      "啷": 703,
      "啸": 704,
      "啻": 705,
      "啼": 706,
      "啾": 707,
      "喂": 708,
      "喃": 709,
      "善": 710,
      "喇": 711,
      "喉": 712,
      "喊": 713,
      "喏": 714,
      "喘": 715,
      "喜": 716,
      "喝": 717,
      "喧": 718,
      "喳": 719,
      "喵": 720,
      "喷": 721,
      "喻": 722,
      "喽": 723,
      "嗅": 724,
      "嗉": 725,
      "嗒": 726,
      "嗓": 727,
      "嗔": 728,
      "嗝": 729,
      "嗡": 730,
      "嗣": 731,
      "嗤": 732,
      "嗦": 733,
      "嗫": 734,
      "嗯": 735,
      "嗽": 736,
      "嘀": 737,
      "嘈": 738,
      "嘘": 739,
      "嘛": 740,
      "嘟": 741,
      "嘤": 742,
      "嘱": 743,
      "嘲": 744,
      "嘴": 745,
      "嘶": 746,
      "嘹": 747,
      "嘻": 748,
      "嘿": 749,
      "噔": 750,
      "噘": 751,
      "噙": 752,
      "噜": 753,
      "噢": 754,
      "噤": 755,
      "器": 756,
      "噩": 757,
      "噪": 758,
      "噬": 759,
      "噼": 760,
      "嚅": 761,
      "嚏": 762,
      "嚓": 763,
      "嚣": 764,
      "嚷": 765,
      "嚼": 766,
      "囊": 767,
      "囔": 768,
      "囚": 769,
      "四": 770,
      "回": 771,
      "因": 772,
      "囡": 773,
      "团": 774,
      "囤": 775,
      "园": 776,
      "困": 777,
      "囱": 778,
      "围": 779,
      "固": 780,
      "国": 781,
      "图": 782,
      "圆": 783,
      "圈": 784,
      "土": 785,
      "圣": 786,
      "在": 787,
      "地": 788,
      "场": 789,
      "圾": 790,
      "址": 791,
      "均": 792,
      "坊": 793,
      "坍": 794,
      "坎": 795,
      "坏": 796,
      "坐": 797,
      "坑": 798,
      "块": 799,
      "坚": 800,
      "坛": 801,
      "坝": 802,
      "坞": 803,
      "坟": 804,
      "坠": 805,
      "坡": 806,
      "坤": 807,
      "坦": 808,
      "坨": 809,
      "坪": 810,
      "坯": 811,
      "坷": 812,
      "垂": 813,
      "垃": 814,
      "垄": 815,
      "型": 816,
      "垒": 817,
      "垓": 818,
      "垛": 819,
      "垠": 820,
      "垣": 821,
      "垦": 822,
      "垩": 823,
      "垫": 824,
      "垮": 825,
      "埂": 826,
      "埃": 827,
      "埋": 828,
      "城": 829,
      "埔": 830,
      "域": 831,
      "培": 832,
      "基": 833,
      "堂": 834,
      "堆": 835,
      "堕": 836,
      "堡": 837,
      "堤": 838,
      "堪": 839,
      "堵": 840,
      "塌": 841,
      "塑": 842,
      "塔": 843,
      "塞": 844,
      "填": 845,
      "境": 846,
      "墅": 847,
      "墓": 848,
      "墙": 849,
      "增": 850,
      "墟": 851,
      "墨": 852,
      "墩": 853,
      "壁": 854,
      "壑": 855,
      "壕": 856,
      "壤": 857,
      "士": 858,
      "壮": 859,
      "声": 860,
      "壳": 861,
      "壶": 862,
      "处": 863,
      "备": 864,
      "复": 865,
      "夏": 866,
      "夕": 867,
      "外": 868,
      "多": 869,
      "夜": 870,
      "够": 871,
      "大": 872,
      "天": 873,
      "太": 874,
      "夫": 875,
      "夭": 876,
      "央": 877,
      "失": 878,
      "头": 879,
      "夷": 880,
      "夸": 881,
      "夹": 882,
      "夺": 883,
      "奇": 884,
      "奈": 885,
      "奉": 886,
      "奋": 887,
      "奏": 888,
      "契": 889,
      "奓": 890,
      "奔": 891,
      "奕": 892,
      "奖": 893,
      "套": 894,
      "奠": 895,
      "奢": 896,
      "奥": 897,
      "女": 898,
      "奴": 899,
      "奶": 900,
      "奸": 901,
      "她": 902,
      "好": 903,
      "如": 904,
      "妃": 905,
      "妄": 906,
      "妆": 907,
      "妇": 908,
      "妈": 909,
      "妒": 910,
      "妓": 911,
      "妖": 912,
      "妙": 913,
      "妞": 914,
      "妥": 915,
      "妨": 916,
      "妩": 917,
      "妮": 918,
      "妹": 919,
      "妻": 920,
      "姆": 921,
      "始": 922,
      "姐": 923,
      "姑": 924,
      "姓": 925,
      "委": 926,
      "姗": 927,
      "姚": 928,
      "姜": 929,
      "姣": 930,
      "姥": 931,
      "姨": 932,
      "姬": 933,
      "姻": 934,
      "姿": 935,
      "威": 936,
      "娃": 937,
      "娄": 938,
      "娆": 939,
      "娇": 940,
      "娑": 941,
      "娓": 942,
      "娘": 943,
      "娜": 944,
      "娟": 945,
      "娥": 946,
      "娱": 947,
      "娶": 948,
      "娼": 949,
      "婀": 950,
      "婆": 951,
      "婉": 952,
      "婊": 953,
      "婚": 954,
      "婪": 955,
      "婴": 956,
      "婵": 957,
      "婷": 958,
      "婿": 959,
      "媒": 960,
      "媚": 961,
      "媳": 962,
      "嫁": 963,
      "嫂": 964,
      "嫉": 965,
      "嫌": 966,
      "嫖": 967,
      "嫣": 968,
      "嫦": 969,
      "嫩": 970,
      "嬉": 971,
      "嬴": 972,
      "子": 973,
      "孔": 974,
      "孕": 975,
      "字": 976,
      "存": 977,
      "孙": 978,
      "孝": 979,
      "孟": 980,
      "季": 981,
      "孤": 982,
      "学": 983,
      "孩": 984,
      "孽": 985,
      "宁": 986,
      "它": 987,
      "宅": 988,
      "宇": 989,
      "守": 990,
      "安": 991,
      "宋": 992,
      "完": 993,
      "宏": 994,
      "宕": 995,
      "宗": 996,
      "官": 997,
      "宙": 998,
      "定": 999,
      "宛": 1000,
      "宜": 1001,
      "宝": 1002,
      "实": 1003,
      "宠": 1004,
      "审": 1005,
      "客": 1006,
      "宣": 1007,
      "室": 1008,
      "宪": 1009,
      "宫": 1010,
      "宰": 1011,
      "害": 1012,
      "宴": 1013,
      "宵": 1014,
      "家": 1015,
      "容": 1016,
      "宽": 1017,
      "宾": 1018,
      "宿": 1019,
      "寂": 1020,
      "寄": 1021,
      "密": 1022,
      "寇": 1023,
      "富": 1024,
      "寐": 1025,
      "寒": 1026,
      "寓": 1027,
      "寞": 1028,
      "察": 1029,
      "寡": 1030,
      "寥": 1031,
      "寸": 1032,
      "对": 1033,
      "寺": 1034,
      "寻": 1035,
      "导": 1036,
      "寿": 1037,
      "封": 1038,
      "射": 1039,
      "将": 1040,
      "尉": 1041,
      "尊": 1042,
      "小": 1043,
      "少": 1044,
      "尔": 1045,
      "尖": 1046,
      "尘": 1047,
      "尚": 1048,
      "尝": 1049,
      "尤": 1050,
      "尬": 1051,
      "就": 1052,
      "尴": 1053,
      "尸": 1054,
      "尺": 1055,
      "尼": 1056,
      "尽": 1057,
      "尾": 1058,
      "尿": 1059,
      "局": 1060,
      "屁": 1061,
      "层": 1062,
      "居": 1063,
      "屈": 1064,
      "屉": 1065,
      "届": 1066,
      "屋": 1067,
      "屌": 1068,
      "屎": 1069,
      "屏": 1070,
      "屑": 1071,
      "展": 1072,
      "属": 1073,
      "屠": 1074,
      "屡": 1075,
      "屣": 1076,
      "履": 1077,
      "屯": 1078,
      "山": 1079,
      "屹": 1080,
      "岁": 1081,
      "岂": 1082,
      "岔": 1083,
      "岗": 1084,
      "岛": 1085,
      "岩": 1086,
      "岭": 1087,
      "岳": 1088,
      "岸": 1089,
      "岿": 1090,
      "峋": 1091,
      "峙": 1092,
      "峡": 1093,
      "峨": 1094,
      "峭": 1095,
      "峰": 1096,
      "峻": 1097,
      "崇": 1098,
      "崖": 1099,
      "崛": 1100,
      "崩": 1101,
      "崭": 1102,
      "崽": 1103,
      "嵌": 1104,
      "嶙": 1105,
      "巅": 1106,
      "巍": 1107,
      "川": 1108,
      "州": 1109,
      "巡": 1110,
      "巢": 1111,
      "工": 1112,
      "左": 1113,
      "巧": 1114,
      "巨": 1115,
      "巩": 1116,
      "巫": 1117,
      "差": 1118,
      "己": 1119,
      "已": 1120,
      "巴": 1121,
      "巷": 1122,
      "巾": 1123,
      "币": 1124,
      "市": 1125,
      "布": 1126,
      "帅": 1127,
      "帆": 1128,
      "师": 1129,
      "希": 1130,
      "帐": 1131,
      "帕": 1132,
      "帖": 1133,
      "帘": 1134,
      "帜": 1135,
      "帝": 1136,
      "带": 1137,
      "席": 1138,
      "帮": 1139,
      "常": 1140,
      "帽": 1141,
      "幅": 1142,
      "幌": 1143,
      "幕": 1144,
      "幢": 1145,
      "干": 1146,
      "平": 1147,
      "年": 1148,
      "并": 1149,
      "幸": 1150,
      "幻": 1151,
      "幼": 1152,
      "幽": 1153,
      "广": 1154,
      "庄": 1155,
      "庆": 1156,
      "庇": 1157,
      "床": 1158,
      "序": 1159,
      "庐": 1160,
      "库": 1161,
      "应": 1162,
      "底": 1163,
      "庖": 1164,
      "店": 1165,
      "庙": 1166,
      "府": 1167,
      "庞": 1168,
      "废": 1169,
      "度": 1170,
      "座": 1171,
      "庭": 1172,
      "庶": 1173,
      "康": 1174,
      "庸": 1175,
      "廉": 1176,
      "廊": 1177,
      "廓": 1178,
      "延": 1179,
      "廷": 1180,
      "建": 1181,
      "开": 1182,
      "异": 1183,
      "弃": 1184,
      "弄": 1185,
      "弊": 1186,
      "式": 1187,
      "弓": 1188,
      "引": 1189,
      "弗": 1190,
      "弛": 1191,
      "弟": 1192,
      "张": 1193,
      "弥": 1194,
      "弦": 1195,
      "弧": 1196,
      "弩": 1197,
      "弯": 1198,
      "弱": 1199,
      "弹": 1200,
      "强": 1201,
      "归": 1202,
      "当": 1203,
      "录": 1204,
      "形": 1205,
      "彦": 1206,
      "彩": 1207,
      "彪": 1208,
      "彬": 1209,
      "彭": 1210,
      "彰": 1211,
      "影": 1212,
      "彳": 1213,
      "彷": 1214,
      "役": 1215,
      "彻": 1216,
      "彼": 1217,
      "往": 1218,
      "征": 1219,
      "径": 1220,
      "待": 1221,
      "徇": 1222,
      "很": 1223,
      "徊": 1224,
      "律": 1225,
      "徐": 1226,
      "徒": 1227,
      "得": 1228,
      "徘": 1229,
      "徙": 1230,
      "御": 1231,
      "徨": 1232,
      "循": 1233,
      "微": 1234,
      "德": 1235,
      "徽": 1236,
      "心": 1237,
      "必": 1238,
      "忆": 1239,
      "忌": 1240,
      "忍": 1241,
      "忏": 1242,
      "忐": 1243,
      "忑": 1244,
      "忖": 1245,
      "志": 1246,
      "忘": 1247,
      "忙": 1248,
      "忠": 1249,
      "忡": 1250,
      "忧": 1251,
      "忪": 1252,
      "快": 1253,
      "念": 1254,
      "忽": 1255,
      "怀": 1256,
      "态": 1257,
      "怂": 1258,
      "怅": 1259,
      "怆": 1260,
      "怎": 1261,
      "怒": 1262,
      "怔": 1263,
      "怕": 1264,
      "怖": 1265,
      "怜": 1266,
      "思": 1267,
      "怠": 1268,
      "怡": 1269,
      "急": 1270,
      "怦": 1271,
      "性": 1272,
      "怨": 1273,
      "怪": 1274,
      "怯": 1275,
      "总": 1276,
      "恃": 1277,
      "恋": 1278,
      "恍": 1279,
      "恐": 1280,
      "恒": 1281,
      "恓": 1282,
      "恕": 1283,
      "恙": 1284,
      "恢": 1285,
      "恤": 1286,
      "恨": 1287,
      "恩": 1288,
      "恫": 1289,
      "恭": 1290,
      "息": 1291,
      "恰": 1292,
      "恳": 1293,
      "恶": 1294,
      "恻": 1295,
      "恼": 1296,
      "恿": 1297,
      "悄": 1298,
      "悉": 1299,
      "悍": 1300,
      "悔": 1301,
      "悚": 1302,
      "悟": 1303,
      "悠": 1304,
      "患": 1305,
      "悦": 1306,
      "您": 1307,
      "悬": 1308,
      "悯": 1309,
      "悲": 1310,
      "悴": 1311,
      "悸": 1312,
      "悻": 1313,
      "悼": 1314,
      "情": 1315,
      "惆": 1316,
      "惊": 1317,
      "惋": 1318,
      "惑": 1319,
      "惕": 1320,
      "惘": 1321,
      "惚": 1322,
      "惜": 1323,
      "惟": 1324,
      "惠": 1325,
      "惦": 1326,
      "惧": 1327,
      "惨": 1328,
      "惩": 1329,
      "惫": 1330,
      "惬": 1331,
      "惭": 1332,
      "惮": 1333,
      "惯": 1334,
      "想": 1335,
      "惶": 1336,
      "惹": 1337,
      "惺": 1338,
      "愁": 1339,
      "愈": 1340,
      "愉": 1341,
      "愎": 1342,
      "意": 1343,
      "愕": 1344,
      "愚": 1345,
      "感": 1346,
      "愣": 1347,
      "愤": 1348,
      "愧": 1349,
      "愿": 1350,
      "慈": 1351,
      "慌": 1352,
      "慎": 1353,
      "慑": 1354,
      "慕": 1355,
      "慢": 1356,
      "慧": 1357,
      "慨": 1358,
      "慰": 1359,
      "慵": 1360,
      "慷": 1361,
      "憋": 1362,
      "憎": 1363,
      "憔": 1364,
      "憧": 1365,
      "憨": 1366,
      "憬": 1367,
      "憾": 1368,
      "懂": 1369,
      "懈": 1370,
      "懊": 1371,
      "懑": 1372,
      "懒": 1373,
      "懦": 1374,
      "戈": 1375,
      "戊": 1376,
      "戌": 1377,
      "戎": 1378,
      "戏": 1379,
      "成": 1380,
      "我": 1381,
      "戒": 1382,
      "或": 1383,
      "战": 1384,
      "戚": 1385,
      "戛": 1386,
      "戟": 1387,
      "截": 1388,
      "戳": 1389,
      "戴": 1390,
      "户": 1391,
      "戾": 1392,
      "房": 1393,
      "所": 1394,
      "扁": 1395,
      "扇": 1396,
      "扉": 1397,
      "手": 1398,
      "才": 1399,
      "扎": 1400,
      "扑": 1401,
      "扒": 1402,
      "打": 1403,
      "扔": 1404,
      "托": 1405,
      "扛": 1406,
      "扣": 1407,
      "执": 1408,
      "扩": 1409,
      "扪": 1410,
      "扫": 1411,
      "扬": 1412,
      "扭": 1413,
      "扮": 1414,
      "扯": 1415,
      "扰": 1416,
      "扳": 1417,
      "扶": 1418,
      "批": 1419,
      "扼": 1420,
      "找": 1421,
      "承": 1422,
      "技": 1423,
      "抄": 1424,
      "把": 1425,
      "抑": 1426,
      "抓": 1427,
      "投": 1428,
      "抖": 1429,
      "抗": 1430,
      "折": 1431,
      "抚": 1432,
      "抛": 1433,
      "抠": 1434,
      "抡": 1435,
      "抢": 1436,
      "护": 1437,
      "报": 1438,
      "披": 1439,
      "抬": 1440,
      "抱": 1441,
      "抵": 1442,
      "抹": 1443,
      "抻": 1444,
      "押": 1445,
      "抽": 1446,
      "拂": 1447,
      "拄": 1448,
      "担": 1449,
      "拆": 1450,
      "拇": 1451,
      "拉": 1452,
      "拌": 1453,
      "拍": 1454,
      "拎": 1455,
      "拐": 1456,
      "拒": 1457,
      "拓": 1458,
      "拔": 1459,
      "拖": 1460,
      "拘": 1461,
      "拙": 1462,
      "招": 1463,
      "拜": 1464,
      "拟": 1465,
      "拢": 1466,
      "拣": 1467,
      "拥": 1468,
      "拦": 1469,
      "拧": 1470,
      "拨": 1471,
      "择": 1472,
      "括": 1473,
      "拭": 1474,
      "拯": 1475,
      "拱": 1476,
      "拳": 1477,
      "拼": 1478,
      "拽": 1479,
      "拾": 1480,
      "拿": 1481,
      "持": 1482,
      "挂": 1483,
      "指": 1484,
      "按": 1485,
      "挎": 1486,
      "挑": 1487,
      "挖": 1488,
      "挟": 1489,
      "挠": 1490,
      "挡": 1491,
      "挣": 1492,
      "挤": 1493,
      "挥": 1494,
      "挨": 1495,
      "挪": 1496,
      "挫": 1497,
      "振": 1498,
      "挺": 1499,
      "挽": 1500,
      "捂": 1501,
      "捅": 1502,
      "捆": 1503,
      "捉": 1504,
      "捍": 1505,
      "捎": 1506,
      "捏": 1507,
      "捐": 1508,
      "捕": 1509,
      "捞": 1510,
      "损": 1511,
      "捡": 1512,
      "换": 1513,
      "捣": 1514,
      "捧": 1515,
      "据": 1516,
      "捷": 1517,
      "捺": 1518,
      "捻": 1519,
      "掀": 1520,
      "掇": 1521,
      "授": 1522,
      "掉": 1523,
      "掌": 1524,
      "掏": 1525,
      "掐": 1526,
      "排": 1527,
      "掖": 1528,
      "掘": 1529,
      "掠": 1530,
      "探": 1531,
      "接": 1532,
      "控": 1533,
      "推": 1534,
      "掩": 1535,
      "措": 1536,
      "掬": 1537,
      "掮": 1538,
      "掷": 1539,
      "掺": 1540,
      "揄": 1541,
      "揉": 1542,
      "揍": 1543,
      "描": 1544,
      "提": 1545,
      "插": 1546,
      "揖": 1547,
      "握": 1548,
      "揣": 1549,
      "揪": 1550,
      "揭": 1551,
      "援": 1552,
      "揶": 1553,
      "揽": 1554,
      "揿": 1555,
      "搀": 1556,
      "搁": 1557,
      "搂": 1558,
      "搅": 1559,
      "搏": 1560,
      "搐": 1561,
      "搓": 1562,
      "搜": 1563,
      "搞": 1564,
      "搡": 1565,
      "搪": 1566,
      "搬": 1567,
      "搭": 1568,
      "携": 1569,
      "摁": 1570,
      "摄": 1571,
      "摆": 1572,
      "摇": 1573,
      "摊": 1574,
      "摔": 1575,
      "摘": 1576,
      "摞": 1577,
      "摧": 1578,
      "摩": 1579,
      "摸": 1580,
      "撂": 1581,
      "撇": 1582,
      "撑": 1583,
      "撒": 1584,
      "撕": 1585,
      "撞": 1586,
      "撤": 1587,
      "撩": 1588,
      "播": 1589,
      "撮": 1590,
      "撰": 1591,
      "撷": 1592,
      "撸": 1593,
      "撺": 1594,
      "撼": 1595,
      "擀": 1596,
      "擂": 1597,
      "擅": 1598,
      "操": 1599,
      "擎": 1600,
      "擒": 1601,
      "擦": 1602,
      "攀": 1603,
      "攘": 1604,
      "攥": 1605,
      "支": 1606,
      "收": 1607,
      "攸": 1608,
      "改": 1609,
      "攻": 1610,
      "放": 1611,
      "政": 1612,
      "故": 1613,
      "效": 1614,
      "敌": 1615,
      "敏": 1616,
      "救": 1617,
      "教": 1618,
      "敛": 1619,
      "敝": 1620,
      "敞": 1621,
      "敢": 1622,
      "散": 1623,
      "敦": 1624,
      "敬": 1625,
      "数": 1626,
      "敲": 1627,
      "整": 1628,
      "敷": 1629,
      "文": 1630,
      "斑": 1631,
      "斓": 1632,
      "斗": 1633,
      "料": 1634,
      "斜": 1635,
      "斟": 1636,
      "斡": 1637,
      "斤": 1638,
      "斥": 1639,
      "斧": 1640,
      "斩": 1641,
      "断": 1642,
      "斯": 1643,
      "新": 1644,
      "方": 1645,
      "施": 1646,
      "旁": 1647,
      "旅": 1648,
      "旋": 1649,
      "族": 1650,
      "旗": 1651,
      "无": 1652,
      "既": 1653,
      "日": 1654,
      "旦": 1655,
      "旧": 1656,
      "旨": 1657,
      "早": 1658,
      "旬": 1659,
      "旭": 1660,
      "旱": 1661,
      "时": 1662,
      "旷": 1663,
      "旺": 1664,
      "昂": 1665,
      "昆": 1666,
      "昌": 1667,
      "明": 1668,
      "昏": 1669,
      "易": 1670,
      "昔": 1671,
      "昕": 1672,
      "星": 1673,
      "映": 1674,
      "春": 1675,
      "昧": 1676,
      "昨": 1677,
      "昭": 1678,
      "是": 1679,
      "昵": 1680,
      "昼": 1681,
      "显": 1682,
      "晃": 1683,
      "晋": 1684,
      "晌": 1685,
      "晒": 1686,
      "晓": 1687,
      "晕": 1688,
      "晖": 1689,
      "晗": 1690,
      "晚": 1691,
      "晦": 1692,
      "晨": 1693,
      "普": 1694,
      "景": 1695,
      "晰": 1696,
      "晴": 1697,
      "晶": 1698,
      "晷": 1699,
      "智": 1700,
      "暂": 1701,
      "暇": 1702,
      "暑": 1703,
      "暖": 1704,
      "暗": 1705,
      "暧": 1706,
      "暨": 1707,
      "暮": 1708,
      "暴": 1709,
      "曙": 1710,
      "曝": 1711,
      "曦": 1712,
      "曲": 1713,
      "曳": 1714,
      "更": 1715,
      "曹": 1716,
      "曼": 1717,
      "曾": 1718,
      "替": 1719,
      "最": 1720,
      "月": 1721,
      "有": 1722,
      "朋": 1723,
      "服": 1724,
      "朔": 1725,
      "朕": 1726,
      "朗": 1727,
      "望": 1728,
      "朝": 1729,
      "期": 1730,
      "朦": 1731,
      "木": 1732,
      "未": 1733,
      "末": 1734,
      "本": 1735,
      "札": 1736,
      "术": 1737,
      "朱": 1738,
      "朴": 1739,
      "朵": 1740,
      "机": 1741,
      "朽": 1742,
      "杀": 1743,
      "杂": 1744,
      "权": 1745,
      "杆": 1746,
      "杉": 1747,
      "李": 1748,
      "杏": 1749,
      "材": 1750,
      "村": 1751,
      "杖": 1752,
      "杜": 1753,
      "束": 1754,
      "杠": 1755,
      "条": 1756,
      "来": 1757,
      "杨": 1758,
      "杯": 1759,
      "杰": 1760,
      "杳": 1761,
      "松": 1762,
      "板": 1763,
      "极": 1764,
      "构": 1765,
      "枉": 1766,
      "析": 1767,
      "枕": 1768,
      "林": 1769,
      "枚": 1770,
      "果": 1771,
      "枝": 1772,
      "枢": 1773,
      "枥": 1774,
      "枪": 1775,
      "枫": 1776,
      "枯": 1777,
      "架": 1778,
      "柄": 1779,
      "柏": 1780,
      "某": 1781,
      "染": 1782,
      "柔": 1783,
      "柜": 1784,
      "柞": 1785,
      "查": 1786,
      "柬": 1787,
      "柯": 1788,
      "柱": 1789,
      "柳": 1790,
      "柴": 1791,
      "标": 1792,
      "栈": 1793,
      "栋": 1794,
      "栎": 1795,
      "栏": 1796,
      "树": 1797,
      "栓": 1798,
      "栖": 1799,
      "栗": 1800,
      "校": 1801,
      "栩": 1802,
      "株": 1803,
      "样": 1804,
      "核": 1805,
      "根": 1806,
      "格": 1807,
      "栽": 1808,
      "桂": 1809,
      "桃": 1810,
      "框": 1811,
      "案": 1812,
      "桌": 1813,
      "桎": 1814,
      "桐": 1815,
      "桑": 1816,
      "桓": 1817,
      "桠": 1818,
      "档": 1819,
      "桥": 1820,
      "桦": 1821,
      "桨": 1822,
      "桩": 1823,
      "桶": 1824,
      "梁": 1825,
      "梅": 1826,
      "梏": 1827,
      "梗": 1828,
      "梢": 1829,
      "梦": 1830,
      "梧": 1831,
      "梨": 1832,
      "梭": 1833,
      "梯": 1834,
      "械": 1835,
      "梳": 1836,
      "梵": 1837,
      "检": 1838,
      "棉": 1839,
      "棋": 1840,
      "棍": 1841,
      "棒": 1842,
      "棕": 1843,
      "棘": 1844,
      "棚": 1845,
      "棠": 1846,
      "森": 1847,
      "棱": 1848,
      "棵": 1849,
      "棺": 1850,
      "椅": 1851,
      "植": 1852,
      "椎": 1853,
      "椭": 1854,
      "楔": 1855,
      "楚": 1856,
      "楠": 1857,
      "楷": 1858,
      "楼": 1859,
      "概": 1860,
      "榄": 1861,
      "榆": 1862,
      "榔": 1863,
      "榜": 1864,
      "榭": 1865,
      "榴": 1866,
      "槐": 1867,
      "槛": 1868,
      "樟": 1869,
      "模": 1870,
      "横": 1871,
      "樱": 1872,
      "橄": 1873,
      "橇": 1874,
      "橘": 1875,
      "橙": 1876,
      "橱": 1877,
      "檐": 1878,
      "欠": 1879,
      "次": 1880,
      "欢": 1881,
      "欣": 1882,
      "欧": 1883,
      "欲": 1884,
      "欸": 1885,
      "欺": 1886,
      "款": 1887,
      "歇": 1888,
      "歉": 1889,
      "歌": 1890,
      "止": 1891,
      "正": 1892,
      "此": 1893,
      "步": 1894,
      "武": 1895,
      "歧": 1896,
      "歪": 1897,
      "歹": 1898,
      "死": 1899,
      "殆": 1900,
      "殊": 1901,
      "残": 1902,
      "段": 1903,
      "殷": 1904,
      "殿": 1905,
      "毁": 1906,
      "毅": 1907,
      "毋": 1908,
      "母": 1909,
      "每": 1910,
      "毒": 1911,
      "比": 1912,
      "毕": 1913,
      "毙": 1914,
      "毛": 1915,
      "毫": 1916,
      "毯": 1917,
      "氏": 1918,
      "民": 1919,
      "氓": 1920,
      "气": 1921,
      "氛": 1922,
      "氢": 1923,
      "氤": 1924,
      "氦": 1925,
      "氧": 1926,
      "氮": 1927,
      "氯": 1928,
      "水": 1929,
      "永": 1930,
      "汁": 1931,
      "求": 1932,
      "汇": 1933,
      "汉": 1934,
      "汐": 1935,
      "汗": 1936,
      "汛": 1937,
      "江": 1938,
      "池": 1939,
      "污": 1940,
      "汤": 1941,
      "汪": 1942,
      "汰": 1943,
      "汲": 1944,
      "汹": 1945,
      "汽": 1946,
      "沁": 1947,
      "沆": 1948,
      "沉": 1949,
      "沌": 1950,
      "沏": 1951,
      "沐": 1952,
      "沓": 1953,
      "沙": 1954,
      "沟": 1955,
      "没": 1956,
      "沥": 1957,
      "沦": 1958,
      "沧": 1959,
      "沫": 1960,
      "沮": 1961,
      "沱": 1962,
      "河": 1963,
      "沸": 1964,
      "油": 1965,
      "治": 1966,
      "沽": 1967,
      "沾": 1968,
      "沿": 1969,
      "泄": 1970,
      "泉": 1971,
      "泊": 1972,
      "法": 1973,
      "泛": 1974,
      "泞": 1975,
      "泡": 1976,
      "波": 1977,
      "泣": 1978,
      "泥": 1979,
      "注": 1980,
      "泪": 1981,
      "泯": 1982,
      "泰": 1983,
      "泱": 1984,
      "泳": 1985,
      "泻": 1986,
      "泼": 1987,
      "泽": 1988,
      "洁": 1989,
      "洇": 1990,
      "洋": 1991,
      "洒": 1992,
      "洗": 1993,
      "洙": 1994,
      "洛": 1995,
      "洞": 1996,
      "津": 1997,
      "洪": 1998,
      "洲": 1999,
      "活": 2000,
      "洼": 2001,
      "洽": 2002,
      "派": 2003,
      "流": 2004,
      "浃": 2005,
      "浅": 2006,
      "浆": 2007,
      "浇": 2008,
      "浊": 2009,
      "测": 2010,
      "济": 2011,
      "浏": 2012,
      "浑": 2013,
      "浓": 2014,
      "浜": 2015,
      "浦": 2016,
      "浩": 2017,
      "浪": 2018,
      "浮": 2019,
      "浴": 2020,
      "海": 2021,
      "浸": 2022,
      "涂": 2023,
      "涅": 2024,
      "消": 2025,
      "涉": 2026,
      "涌": 2027,
      "涓": 2028,
      "涕": 2029,
      "涛": 2030,
      "涟": 2031,
      "涡": 2032,
      "涤": 2033,
      "润": 2034,
      "涧": 2035,
      "涨": 2036,
      "涩": 2037,
      "涯": 2038,
      "液": 2039,
      "涵": 2040,
      "涸": 2041,
      "淅": 2042,
      "淋": 2043,
      "淌": 2044,
      "淘": 2045,
      "淙": 2046,
      "淡": 2047,
      "淤": 2048,
      "淫": 2049,
      "淬": 2050,
      "深": 2051,
      "淳": 2052,
      "混": 2053,
      "淹": 2054,
      "添": 2055,
      "淼": 2056,
      "清": 2057,
      "渊": 2058,
      "渎": 2059,
      "渐": 2060,
      "渔": 2061,
      "渗": 2062,
      "渝": 2063,
      "渠": 2064,
      "渡": 2065,
      "渣": 2066,
      "渥": 2067,
      "温": 2068,
      "港": 2069,
      "渲": 2070,
      "渴": 2071,
      "游": 2072,
      "渺": 2073,
      "湃": 2074,
      "湍": 2075,
      "湎": 2076,
      "湖": 2077,
      "湘": 2078,
      "湛": 2079,
      "湮": 2080,
      "湾": 2081,
      "湿": 2082,
      "溃": 2083,
      "溅": 2084,
      "溏": 2085,
      "源": 2086,
      "溜": 2087,
      "溢": 2088,
      "溪": 2089,
      "溶": 2090,
      "溺": 2091,
      "滂": 2092,
      "滋": 2093,
      "滑": 2094,
      "滔": 2095,
      "滚": 2096,
      "滞": 2097,
      "满": 2098,
      "滤": 2099,
      "滥": 2100,
      "滨": 2101,
      "滩": 2102,
      "滴": 2103,
      "漂": 2104,
      "漆": 2105,
      "漉": 2106,
      "漏": 2107,
      "漓": 2108,
      "演": 2109,
      "漠": 2110,
      "漪": 2111,
      "漫": 2112,
      "漱": 2113,
      "漾": 2114,
      "潇": 2115,
      "潍": 2116,
      "潘": 2117,
      "潜": 2118,
      "潢": 2119,
      "潦": 2120,
      "潭": 2121,
      "潮": 2122,
      "潸": 2123,
      "潺": 2124,
      "澄": 2125,
      "澈": 2126,
      "澎": 2127,
      "澜": 2128,
      "澡": 2129,
      "澳": 2130,
      "激": 2131,
      "濂": 2132,
      "濑": 2133,
      "濒": 2134,
      "濡": 2135,
      "濯": 2136,
      "瀑": 2137,
      "瀚": 2138,
      "瀣": 2139,
      "灌": 2140,
      "火": 2141,
      "灭": 2142,
      "灯": 2143,
      "灰": 2144,
      "灵": 2145,
      "灶": 2146,
      "灸": 2147,
      "灼": 2148,
      "灾": 2149,
      "灿": 2150,
      "炉": 2151,
      "炊": 2152,
      "炎": 2153,
      "炒": 2154,
      "炕": 2155,
      "炖": 2156,
      "炙": 2157,
      "炫": 2158,
      "炬": 2159,
      "炭": 2160,
      "炮": 2161,
      "炯": 2162,
      "炳": 2163,
      "炷": 2164,
      "炸": 2165,
      "点": 2166,
      "炼": 2167,
      "炽": 2168,
      "烁": 2169,
      "烂": 2170,
      "烈": 2171,
      "烘": 2172,
      "烙": 2173,
      "烛": 2174,
      "烟": 2175,
      "烤": 2176,
      "烦": 2177,
      "烧": 2178,
      "烫": 2179,
      "烬": 2180,
      "热": 2181,
      "烽": 2182,
      "焉": 2183,
      "焊": 2184,
      "焐": 2185,
      "焕": 2186,
      "焚": 2187,
      "焦": 2188,
      "焰": 2189,
      "然": 2190,
      "煌": 2191,
      "煎": 2192,
      "煞": 2193,
      "煤": 2194,
      "煦": 2195,
      "照": 2196,
      "煮": 2197,
      "煳": 2198,
      "煽": 2199,
      "熄": 2200,
      "熊": 2201,
      "熏": 2202,
      "熔": 2203,
      "熙": 2204,
      "熟": 2205,
      "熠": 2206,
      "熬": 2207,
      "熵": 2208,
      "燃": 2209,
      "燎": 2210,
      "燕": 2211,
      "燥": 2212,
      "爆": 2213,
      "爪": 2214,
      "爬": 2215,
      "爱": 2216,
      "爵": 2217,
      "父": 2218,
      "爷": 2219,
      "爸": 2220,
      "爹": 2221,
      "爽": 2222,
      "片": 2223,
      "版": 2224,
      "牌": 2225,
      "牙": 2226,
      "牛": 2227,
      "牡": 2228,
      "牢": 2229,
      "牧": 2230,
      "物": 2231,
      "牲": 2232,
      "牵": 2233,
      "特": 2234,
      "牺": 2235,
      "犀": 2236,
      "犁": 2237,
      "犄": 2238,
      "犟": 2239,
      "犬": 2240,
      "犯": 2241,
      "状": 2242,
      "犹": 2243,
      "狂": 2244,
      "狈": 2245,
      "狍": 2246,
      "狐": 2247,
      "狗": 2248,
      "狙": 2249,
      "狞": 2250,
      "狠": 2251,
      "狡": 2252,
      "狩": 2253,
      "独": 2254,
      "狭": 2255,
      "狮": 2256,
      "狰": 2257,
      "狱": 2258,
      "狸": 2259,
      "狼": 2260,
      "猎": 2261,
      "猖": 2262,
      "猛": 2263,
      "猜": 2264,
      "猝": 2265,
      "猪": 2266,
      "猫": 2267,
      "献": 2268,
      "猴": 2269,
      "猾": 2270,
      "猿": 2271,
      "玄": 2272,
      "率": 2273,
      "玉": 2274,
      "王": 2275,
      "玩": 2276,
      "玫": 2277,
      "环": 2278,
      "现": 2279,
      "玲": 2280,
      "玷": 2281,
      "玻": 2282,
      "珀": 2283,
      "珍": 2284,
      "珠": 2285,
      "班": 2286,
      "球": 2287,
      "理": 2288,
      "琐": 2289,
      "琢": 2290,
      "琳": 2291,
      "琴": 2292,
      "琼": 2293,
      "瑜": 2294,
      "瑞": 2295,
      "瑟": 2296,
      "瑰": 2297,
      "瑶": 2298,
      "璀": 2299,
      "璃": 2300,
      "璐": 2301,
      "璧": 2302,
      "璨": 2303,
      "瓜": 2304,
      "瓢": 2305,
      "瓣": 2306,
      "瓦": 2307,
      "瓮": 2308,
      "瓴": 2309,
      "瓶": 2310,
      "瓷": 2311,
      "甄": 2312,
      "甘": 2313,
      "甚": 2314,
      "甜": 2315,
      "生": 2316,
      "甥": 2317,
      "用": 2318,
      "甩": 2319,
      "甫": 2320,
      "甬": 2321,
      "甭": 2322,
      "田": 2323,
      "由": 2324,
      "甲": 2325,
      "申": 2326,
      "电": 2327,
      "男": 2328,
      "甸": 2329,
      "画": 2330,
      "畅": 2331,
      "界": 2332,
      "畏": 2333,
      "畔": 2334,
      "留": 2335,
      "畜": 2336,
      "略": 2337,
      "畦": 2338,
      "番": 2339,
      "畸": 2340,
      "疆": 2341,
      "疏": 2342,
      "疑": 2343,
      "疗": 2344,
      "疙": 2345,
      "疚": 2346,
      "疟": 2347,
      "疤": 2348,
      "疫": 2349,
      "疮": 2350,
      "疯": 2351,
      "疲": 2352,
      "疼": 2353,
      "疾": 2354,
      "病": 2355,
      "症": 2356,
      "痈": 2357,
      "痒": 2358,
      "痕": 2359,
      "痛": 2360,
      "痦": 2361,
      "痪": 2362,
      "痴": 2363,
      "痹": 2364,
      "痿": 2365,
      "瘁": 2366,
      "瘙": 2367,
      "瘠": 2368,
      "瘦": 2369,
      "瘩": 2370,
      "瘪": 2371,
      "瘫": 2372,
      "瘴": 2373,
      "瘾": 2374,
      "癌": 2375,
      "癫": 2376,
      "登": 2377,
      "白": 2378,
      "百": 2379,
      "的": 2380,
      "皆": 2381,
      "皇": 2382,
      "皈": 2383,
      "皎": 2384,
      "皑": 2385,
      "皓": 2386,
      "皙": 2387,
      "皮": 2388,
      "皱": 2389,
      "皲": 2390,
      "皴": 2391,
      "盆": 2392,
      "盈": 2393,
      "益": 2394,
      "盎": 2395,
      "盏": 2396,
      "盐": 2397,
      "监": 2398,
      "盒": 2399,
      "盔": 2400,
      "盖": 2401,
      "盗": 2402,
      "盘": 2403,
      "盛": 2404,
      "盟": 2405,
      "盥": 2406,
      "目": 2407,
      "盯": 2408,
      "盲": 2409,
      "直": 2410,
      "相": 2411,
      "盹": 2412,
      "盼": 2413,
      "盾": 2414,
      "省": 2415,
      "眉": 2416,
      "看": 2417,
      "真": 2418,
      "眠": 2419,
      "眨": 2420,
      "眩": 2421,
      "眬": 2422,
      "眯": 2423,
      "眶": 2424,
      "眷": 2425,
      "眸": 2426,
      "眺": 2427,
      "眼": 2428,
      "着": 2429,
      "睁": 2430,
      "睑": 2431,
      "睛": 2432,
      "睡": 2433,
      "督": 2434,
      "睦": 2435,
      "睬": 2436,
      "睹": 2437,
      "睽": 2438,
      "睿": 2439,
      "瞄": 2440,
      "瞅": 2441,
      "瞌": 2442,
      "瞎": 2443,
      "瞑": 2444,
      "瞒": 2445,
      "瞟": 2446,
      "瞠": 2447,
      "瞥": 2448,
      "瞧": 2449,
      "瞩": 2450,
      "瞪": 2451,
      "瞬": 2452,
      "瞭": 2453,
      "瞳": 2454,
      "瞻": 2455,
      "矗": 2456,
      "矛": 2457,
      "矢": 2458,
      "矣": 2459,
      "知": 2460,
      "矩": 2461,
      "矫": 2462,
      "短": 2463,
      "矮": 2464,
      "石": 2465,
      "矶": 2466,
      "矿": 2467,
      "码": 2468,
      "砂": 2469,
      "砌": 2470,
      "砍": 2471,
      "研": 2472,
      "砖": 2473,
      "砚": 2474,
      "砝": 2475,
      "砥": 2476,
      "砰": 2477,
      "破": 2478,
      "砸": 2479,
      "砺": 2480,
      "砾": 2481,
      "础": 2482,
      "硕": 2483,
      "硝": 2484,
      "硬": 2485,
      "确": 2486,
      "碌": 2487,
      "碍": 2488,
      "碎": 2489,
      "碑": 2490,
      "碗": 2491,
      "碘": 2492,
      "碟": 2493,
      "碧": 2494,
      "碰": 2495,
      "碳": 2496,
      "碴": 2497,
      "碾": 2498,
      "磁": 2499,
      "磅": 2500,
      "磊": 2501,
      "磐": 2502,
      "磕": 2503,
      "磨": 2504,
      "礁": 2505,
      "礅": 2506,
      "礴": 2507,
      "示": 2508,
      "礼": 2509,
      "社": 2510,
      "祁": 2511,
      "祈": 2512,
      "祖": 2513,
      "祝": 2514,
      "神": 2515,
      "祟": 2516,
      "祥": 2517,
      "票": 2518,
      "祭": 2519,
      "祷": 2520,
      "祸": 2521,
      "祼": 2522,
      "禀": 2523,
      "禁": 2524,
      "福": 2525,
      "禹": 2526,
      "离": 2527,
      "禾": 2528,
      "秀": 2529,
      "私": 2530,
      "秃": 2531,
      "秆": 2532,
      "秉": 2533,
      "秋": 2534,
      "种": 2535,
      "科": 2536,
      "秒": 2537,
      "秘": 2538,
      "租": 2539,
      "秤": 2540,
      "秦": 2541,
      "秩": 2542,
      "积": 2543,
      "称": 2544,
      "移": 2545,
      "稀": 2546,
      "程": 2547,
      "稍": 2548,
      "税": 2549,
      "稚": 2550,
      "稠": 2551,
      "稳": 2552,
      "稻": 2553,
      "稼": 2554,
      "稽": 2555,
      "稿": 2556,
      "穗": 2557,
      "穴": 2558,
      "究": 2559,
      "穷": 2560,
      "穹": 2561,
      "空": 2562,
      "穿": 2563,
      "突": 2564,
      "窃": 2565,
      "窄": 2566,
      "窍": 2567,
      "窑": 2568,
      "窒": 2569,
      "窖": 2570,
      "窗": 2571,
      "窘": 2572,
      "窜": 2573,
      "窝": 2574,
      "窟": 2575,
      "窥": 2576,
      "窦": 2577,
      "窿": 2578,
      "立": 2579,
      "竖": 2580,
      "站": 2581,
      "竞": 2582,
      "竟": 2583,
      "章": 2584,
      "童": 2585,
      "竭": 2586,
      "端": 2587,
      "竹": 2588,
      "竿": 2589,
      "笃": 2590,
      "笆": 2591,
      "笑": 2592,
      "笔": 2593,
      "笛": 2594,
      "符": 2595,
      "笨": 2596,
      "第": 2597,
      "笼": 2598,
      "等": 2599,
      "筋": 2600,
      "筐": 2601,
      "筑": 2602,
      "筒": 2603,
      "答": 2604,
      "策": 2605,
      "筛": 2606,
      "筝": 2607,
      "筷": 2608,
      "筹": 2609,
      "签": 2610,
      "简": 2611,
      "算": 2612,
      "管": 2613,
      "箭": 2614,
      "箱": 2615,
      "篇": 2616,
      "篑": 2617,
      "篓": 2618,
      "篝": 2619,
      "篡": 2620,
      "篮": 2621,
      "篱": 2622,
      "篷": 2623,
      "簇": 2624,
      "簧": 2625,
      "簸": 2626,
      "籍": 2627,
      "米": 2628,
      "类": 2629,
      "籼": 2630,
      "粉": 2631,
      "粒": 2632,
      "粗": 2633,
      "粘": 2634,
      "粝": 2635,
      "粤": 2636,
      "粥": 2637,
      "粪": 2638,
      "粮": 2639,
      "粱": 2640,
      "粹": 2641,
      "粼": 2642,
      "精": 2643,
      "糊": 2644,
      "糕": 2645,
      "糖": 2646,
      "糙": 2647,
      "糟": 2648,
      "系": 2649,
      "紊": 2650,
      "素": 2651,
      "索": 2652,
      "紧": 2653,
      "紫": 2654,
      "累": 2655,
      "絮": 2656,
      "繁": 2657,
      "纂": 2658,
      "纠": 2659,
      "红": 2660,
      "纣": 2661,
      "纤": 2662,
      "约": 2663,
      "级": 2664,
      "纪": 2665,
      "纬": 2666,
      "纭": 2667,
      "纯": 2668,
      "纰": 2669,
      "纱": 2670,
      "纲": 2671,
      "纳": 2672,
      "纵": 2673,
      "纷": 2674,
      "纸": 2675,
      "纹": 2676,
      "线": 2677,
      "练": 2678,
      "组": 2679,
      "绅": 2680,
      "细": 2681,
      "织": 2682,
      "终": 2683,
      "绊": 2684,
      "绍": 2685,
      "绎": 2686,
      "经": 2687,
      "绑": 2688,
      "绒": 2689,
      "结": 2690,
      "绕": 2691,
      "绘": 2692,
      "给": 2693,
      "绚": 2694,
      "绛": 2695,
      "络": 2696,
      "绝": 2697,
      "绞": 2698,
      "统": 2699,
      "绢": 2700,
      "绣": 2701,
      "继": 2702,
      "绩": 2703,
      "绪": 2704,
      "续": 2705,
      "绯": 2706,
      "绰": 2707,
      "绳": 2708,
      "维": 2709,
      "绵": 2710,
      "绷": 2711,
      "绸": 2712,
      "综": 2713,
      "绽": 2714,
      "绿": 2715,
      "缀": 2716,
      "缆": 2717,
      "缈": 2718,
      "缉": 2719,
      "缌": 2720,
      "缓": 2721,
      "缔": 2722,
      "缕": 2723,
      "编": 2724,
      "缘": 2725,
      "缚": 2726,
      "缝": 2727,
      "缠": 2728,
      "缤": 2729,
      "缥": 2730,
      "缩": 2731,
      "缪": 2732,
      "缭": 2733,
      "缰": 2734,
      "缴": 2735,
      "缸": 2736,
      "缺": 2737,
      "罐": 2738,
      "网": 2739,
      "罕": 2740,
      "罗": 2741,
      "罚": 2742,
      "罢": 2743,
      "罩": 2744,
      "罪": 2745,
      "置": 2746,
      "署": 2747,
      "羁": 2748,
      "羊": 2749,
      "美": 2750,
      "羔": 2751,
      "羞": 2752,
      "羟": 2753,
      "羡": 2754,
      "群": 2755,
      "羲": 2756,
      "羽": 2757,
      "翁": 2758,
      "翅": 2759,
      "翌": 2760,
      "翔": 2761,
      "翕": 2762,
      "翘": 2763,
      "翠": 2764,
      "翩": 2765,
      "翱": 2766,
      "翻": 2767,
      "翼": 2768,
      "耀": 2769,
      "老": 2770,
      "考": 2771,
      "耄": 2772,
      "者": 2773,
      "耋": 2774,
      "而": 2775,
      "耍": 2776,
      "耐": 2777,
      "耕": 2778,
      "耗": 2779,
      "耙": 2780,
      "耳": 2781,
      "耷": 2782,
      "耸": 2783,
      "耻": 2784,
      "耽": 2785,
      "耿": 2786,
      "聆": 2787,
      "聊": 2788,
      "聋": 2789,
      "职": 2790,
      "聒": 2791,
      "联": 2792,
      "聘": 2793,
      "聚": 2794,
      "聩": 2795,
      "聪": 2796,
      "肃": 2797,
      "肆": 2798,
      "肇": 2799,
      "肉": 2800,
      "肋": 2801,
      "肌": 2802,
      "肖": 2803,
      "肘": 2804,
      "肚": 2805,
      "肝": 2806,
      "肠": 2807,
      "股": 2808,
      "肢": 2809,
      "肤": 2810,
      "肥": 2811,
      "肩": 2812,
      "肮": 2813,
      "肯": 2814,
      "育": 2815,
      "肴": 2816,
      "肺": 2817,
      "肾": 2818,
      "肿": 2819,
      "胀": 2820,
      "胁": 2821,
      "胃": 2822,
      "胆": 2823,
      "背": 2824,
      "胎": 2825,
      "胖": 2826,
      "胜": 2827,
      "胞": 2828,
      "胡": 2829,
      "胧": 2830,
      "胯": 2831,
      "胳": 2832,
      "胶": 2833,
      "胸": 2834,
      "能": 2835,
      "脆": 2836,
      "脉": 2837,
      "脊": 2838,
      "脏": 2839,
      "脑": 2840,
      "脖": 2841,
      "脚": 2842,
      "脯": 2843,
      "脱": 2844,
      "脸": 2845,
      "脾": 2846,
      "腊": 2847,
      "腋": 2848,
      "腐": 2849,
      "腑": 2850,
      "腔": 2851,
      "腕": 2852,
      "腚": 2853,
      "腥": 2854,
      "腮": 2855,
      "腰": 2856,
      "腱": 2857,
      "腹": 2858,
      "腻": 2859,
      "腾": 2860,
      "腿": 2861,
      "膀": 2862,
      "膊": 2863,
      "膏": 2864,
      "膛": 2865,
      "膜": 2866,
      "膝": 2867,
      "膨": 2868,
      "膺": 2869,
      "臀": 2870,
      "臂": 2871,
      "臆": 2872,
      "臣": 2873,
      "自": 2874,
      "臭": 2875,
      "至": 2876,
      "致": 2877,
      "舅": 2878,
      "舆": 2879,
      "舌": 2880,
      "舍": 2881,
      "舒": 2882,
      "舔": 2883,
      "舞": 2884,
      "舟": 2885,
      "航": 2886,
      "般": 2887,
      "舰": 2888,
      "舱": 2889,
      "舵": 2890,
      "舶": 2891,
      "舷": 2892,
      "船": 2893,
      "艇": 2894,
      "艘": 2895,
      "艮": 2896,
      "良": 2897,
      "艰": 2898,
      "色": 2899,
      "艳": 2900,
      "艺": 2901,
      "艾": 2902,
      "节": 2903,
      "芒": 2904,
      "芜": 2905,
      "芦": 2906,
      "芬": 2907,
      "芯": 2908,
      "花": 2909,
      "芳": 2910,
      "芽": 2911,
      "苇": 2912,
      "苍": 2913,
      "苏": 2914,
      "苑": 2915,
      "苗": 2916,
      "苛": 2917,
      "苟": 2918,
      "若": 2919,
      "苦": 2920,
      "英": 2921,
      "苹": 2922,
      "茂": 2923,
      "范": 2924,
      "茄": 2925,
      "茅": 2926,
      "茉": 2927,
      "茎": 2928,
      "茗": 2929,
      "茧": 2930,
      "茨": 2931,
      "茫": 2932,
      "茬": 2933,
      "茵": 2934,
      "茶": 2935,
      "荆": 2936,
      "草": 2937,
      "荐": 2938,
      "荒": 2939,
      "荡": 2940,
      "荣": 2941,
      "荧": 2942,
      "荫": 2943,
      "药": 2944,
      "荷": 2945,
      "莉": 2946,
      "莎": 2947,
      "莘": 2948,
      "莫": 2949,
      "莱": 2950,
      "莲": 2951,
      "获": 2952,
      "莹": 2953,
      "莺": 2954,
      "莽": 2955,
      "菁": 2956,
      "菇": 2957,
      "菊": 2958,
      "菌": 2959,
      "菏": 2960,
      "菜": 2961,
      "菩": 2962,
      "菱": 2963,
      "菲": 2964,
      "萃": 2965,
      "萄": 2966,
      "萌": 2967,
      "萎": 2968,
      "萝": 2969,
      "萤": 2970,
      "营": 2971,
      "萦": 2972,
      "萧": 2973,
      "萨": 2974,
      "落": 2975,
      "葆": 2976,
      "著": 2977,
      "葛": 2978,
      "葡": 2979,
      "董": 2980,
      "葩": 2981,
      "葫": 2982,
      "葬": 2983,
      "葱": 2984,
      "葵": 2985,
      "蒂": 2986,
      "蒋": 2987,
      "蒙": 2988,
      "蒜": 2989,
      "蒲": 2990,
      "蒸": 2991,
      "蒿": 2992,
      "蓄": 2993,
      "蓑": 2994,
      "蓝": 2995,
      "蓦": 2996,
      "蓬": 2997,
      "蔑": 2998,
      "蔓": 2999,
      "蔚": 3000,
      "蔡": 3001,
      "蔬": 3002,
      "蔼": 3003,
      "蔽": 3004,
      "蕊": 3005,
      "蕞": 3006,
      "蕴": 3007,
      "蕾": 3008,
      "薄": 3009,
      "薪": 3010,
      "薯": 3011,
      "藉": 3012,
      "藏": 3013,
      "藕": 3014,
      "藤": 3015,
      "蘑": 3016,
      "蘸": 3017,
      "虎": 3018,
      "虐": 3019,
      "虑": 3020,
      "虔": 3021,
      "虚": 3022,
      "虫": 3023,
      "虹": 3024,
      "虻": 3025,
      "虽": 3026,
      "虾": 3027,
      "蚀": 3028,
      "蚁": 3029,
      "蚂": 3030,
      "蚊": 3031,
      "蚌": 3032,
      "蚓": 3033,
      "蚕": 3034,
      "蚜": 3035,
      "蚪": 3036,
      "蚯": 3037,
      "蛇": 3038,
      "蛋": 3039,
      "蛔": 3040,
      "蛛": 3041,
      "蛟": 3042,
      "蛮": 3043,
      "蛳": 3044,
      "蜀": 3045,
      "蜂": 3046,
      "蜊": 3047,
      "蜒": 3048,
      "蜗": 3049,
      "蜘": 3050,
      "蜚": 3051,
      "蜜": 3052,
      "蜡": 3053,
      "蜷": 3054,
      "蜻": 3055,
      "蜿": 3056,
      "蝇": 3057,
      "蝉": 3058,
      "蝌": 3059,
      "蝗": 3060,
      "蝴": 3061,
      "蝶": 3062,
      "螃": 3063,
      "融": 3064,
      "螺": 3065,
      "蟀": 3066,
      "蟋": 3067,
      "蟹": 3068,
      "蠕": 3069,
      "蠢": 3070,
      "蠹": 3071,
      "血": 3072,
      "衅": 3073,
      "行": 3074,
      "衍": 3075,
      "衔": 3076,
      "街": 3077,
      "衡": 3078,
      "衣": 3079,
      "补": 3080,
      "表": 3081,
      "衫": 3082,
      "衬": 3083,
      "衰": 3084,
      "衷": 3085,
      "袁": 3086,
      "袄": 3087,
      "袅": 3088,
      "袋": 3089,
      "袍": 3090,
      "袒": 3091,
      "袖": 3092,
      "袜": 3093,
      "袤": 3094,
      "被": 3095,
      "袭": 3096,
      "袱": 3097,
      "裁": 3098,
      "裂": 3099,
      "装": 3100,
      "裔": 3101,
      "裕": 3102,
      "裙": 3103,
      "裤": 3104,
      "裱": 3105,
      "裳": 3106,
      "裸": 3107,
      "裹": 3108,
      "褐": 3109,
      "褥": 3110,
      "褪": 3111,
      "褶": 3112,
      "襟": 3113,
      "西": 3114,
      "要": 3115,
      "覆": 3116,
      "见": 3117,
      "观": 3118,
      "规": 3119,
      "觅": 3120,
      "视": 3121,
      "览": 3122,
      "觉": 3123,
      "觊": 3124,
      "觎": 3125,
      "觑": 3126,
      "角": 3127,
      "解": 3128,
      "触": 3129,
      "言": 3130,
      "誉": 3131,
      "誊": 3132,
      "誓": 3133,
      "警": 3134,
      "譬": 3135,
      "计": 3136,
      "订": 3137,
      "认": 3138,
      "讥": 3139,
      "讧": 3140,
      "讨": 3141,
      "让": 3142,
      "讪": 3143,
      "训": 3144,
      "议": 3145,
      "讯": 3146,
      "记": 3147,
      "讲": 3148,
      "讳": 3149,
      "讶": 3150,
      "讷": 3151,
      "许": 3152,
      "讹": 3153,
      "论": 3154,
      "讼": 3155,
      "讽": 3156,
      "设": 3157,
      "访": 3158,
      "诀": 3159,
      "证": 3160,
      "诃": 3161,
      "评": 3162,
      "识": 3163,
      "诈": 3164,
      "诉": 3165,
      "诊": 3166,
      "词": 3167,
      "诏": 3168,
      "译": 3169,
      "试": 3170,
      "诗": 3171,
      "诚": 3172,
      "诛": 3173,
      "话": 3174,
      "诞": 3175,
      "诟": 3176,
      "诠": 3177,
      "诡": 3178,
      "询": 3179,
      "诣": 3180,
      "该": 3181,
      "详": 3182,
      "诧": 3183,
      "诩": 3184,
      "诫": 3185,
      "诬": 3186,
      "语": 3187,
      "误": 3188,
      "诱": 3189,
      "诲": 3190,
      "说": 3191,
      "诵": 3192,
      "请": 3193,
      "诸": 3194,
      "诺": 3195,
      "读": 3196,
      "课": 3197,
      "谁": 3198,
      "调": 3199,
      "谄": 3200,
      "谅": 3201,
      "谈": 3202,
      "谊": 3203,
      "谋": 3204,
      "谎": 3205,
      "谐": 3206,
      "谑": 3207,
      "谓": 3208,
      "谙": 3209,
      "谛": 3210,
      "谜": 3211,
      "谡": 3212,
      "谢": 3213,
      "谣": 3214,
      "谦": 3215,
      "谧": 3216,
      "谨": 3217,
      "谩": 3218,
      "谬": 3219,
      "谭": 3220,
      "谱": 3221,
      "谲": 3222,
      "谴": 3223,
      "谷": 3224,
      "豁": 3225,
      "豆": 3226,
      "象": 3227,
      "豪": 3228,
      "豫": 3229,
      "豹": 3230,
      "貌": 3231,
      "贝": 3232,
      "贞": 3233,
      "负": 3234,
      "贡": 3235,
      "财": 3236,
      "责": 3237,
      "贤": 3238,
      "败": 3239,
      "账": 3240,
      "货": 3241,
      "质": 3242,
      "贩": 3243,
      "贪": 3244,
      "贫": 3245,
      "贬": 3246,
      "购": 3247,
      "贮": 3248,
      "贯": 3249,
      "贱": 3250,
      "贴": 3251,
      "贵": 3252,
      "贷": 3253,
      "贸": 3254,
      "费": 3255,
      "贺": 3256,
      "贻": 3257,
      "贼": 3258,
      "贿": 3259,
      "赂": 3260,
      "赃": 3261,
      "资": 3262,
      "赋": 3263,
      "赌": 3264,
      "赎": 3265,
      "赏": 3266,
      "赐": 3267,
      "赔": 3268,
      "赖": 3269,
      "赚": 3270,
      "赛": 3271,
      "赝": 3272,
      "赞": 3273,
      "赠": 3274,
      "赢": 3275,
      "赤": 3276,
      "赦": 3277,
      "赫": 3278,
      "走": 3279,
      "赳": 3280,
      "赴": 3281,
      "赵": 3282,
      "赶": 3283,
      "起": 3284,
      "趁": 3285,
      "超": 3286,
      "越": 3287,
      "趋": 3288,
      "趟": 3289,
      "趣": 3290,
      "足": 3291,
      "趴": 3292,
      "趿": 3293,
      "跃": 3294,
      "跄": 3295,
      "跋": 3296,
      "跌": 3297,
      "跑": 3298,
      "跘": 3299,
      "跚": 3300,
      "距": 3301,
      "跟": 3302,
      "跨": 3303,
      "跪": 3304,
      "跬": 3305,
      "路": 3306,
      "跳": 3307,
      "践": 3308,
      "跷": 3309,
      "跹": 3310,
      "跺": 3311,
      "跻": 3312,
      "踉": 3313,
      "踏": 3314,
      "踝": 3315,
      "踞": 3316,
      "踢": 3317,
      "踩": 3318,
      "踪": 3319,
      "踮": 3320,
      "踱": 3321,
      "踵": 3322,
      "踹": 3323,
      "蹄": 3324,
      "蹈": 3325,
      "蹊": 3326,
      "蹋": 3327,
      "蹍": 3328,
      "蹑": 3329,
      "蹒": 3330,
      "蹙": 3331,
      "蹦": 3332,
      "蹬": 3333,
      "蹭": 3334,
      "蹲": 3335,
      "蹴": 3336,
      "蹿": 3337,
      "躁": 3338,
      "身": 3339,
      "躬": 3340,
      "躯": 3341,
      "躲": 3342,
      "躺": 3343,
      "车": 3344,
      "轧": 3345,
      "轨": 3346,
      "轩": 3347,
      "转": 3348,
      "轮": 3349,
      "软": 3350,
      "轰": 3351,
      "轴": 3352,
      "轻": 3353,
      "轼": 3354,
      "载": 3355,
      "轿": 3356,
      "较": 3357,
      "辅": 3358,
      "辆": 3359,
      "辈": 3360,
      "辉": 3361,
      "辍": 3362,
      "辐": 3363,
      "辑": 3364,
      "输": 3365,
      "辖": 3366,
      "辗": 3367,
      "辙": 3368,
      "辛": 3369,
      "辜": 3370,
      "辞": 3371,
      "辟": 3372,
      "辣": 3373,
      "辨": 3374,
      "辩": 3375,
      "辫": 3376,
      "辰": 3377,
      "辱": 3378,
      "边": 3379,
      "辽": 3380,
      "达": 3381,
      "迁": 3382,
      "迂": 3383,
      "迄": 3384,
      "迅": 3385,
      "过": 3386,
      "迈": 3387,
      "迎": 3388,
      "运": 3389,
      "近": 3390,
      "返": 3391,
      "还": 3392,
      "这": 3393,
      "进": 3394,
      "远": 3395,
      "违": 3396,
      "连": 3397,
      "迟": 3398,
      "迢": 3399,
      "迤": 3400,
      "迥": 3401,
      "迩": 3402,
      "迪": 3403,
      "迫": 3404,
      "迭": 3405,
      "述": 3406,
      "迷": 3407,
      "迸": 3408,
      "迹": 3409,
      "追": 3410,
      "退": 3411,
      "送": 3412,
      "适": 3413,
      "逃": 3414,
      "逆": 3415,
      "选": 3416,
      "逊": 3417,
      "逍": 3418,
      "透": 3419,
      "逐": 3420,
      "递": 3421,
      "途": 3422,
      "逖": 3423,
      "逗": 3424,
      "通": 3425,
      "逛": 3426,
      "逝": 3427,
      "速": 3428,
      "造": 3429,
      "逢": 3430,
      "逮": 3431,
      "逶": 3432,
      "逸": 3433,
      "逻": 3434,
      "逼": 3435,
      "逾": 3436,
      "遁": 3437,
      "遂": 3438,
      "遇": 3439,
      "遍": 3440,
      "遏": 3441,
      "遐": 3442,
      "遒": 3443,
      "道": 3444,
      "遗": 3445,
      "遛": 3446,
      "遣": 3447,
      "遥": 3448,
      "遨": 3449,
      "遭": 3450,
      "遮": 3451,
      "遵": 3452,
      "避": 3453,
      "邀": 3454,
      "邃": 3455,
      "那": 3456,
      "邦": 3457,
      "邪": 3458,
      "邮": 3459,
      "邸": 3460,
      "邻": 3461,
      "郁": 3462,
      "郊": 3463,
      "郎": 3464,
      "郑": 3465,
      "部": 3466,
      "郭": 3467,
      "都": 3468,
      "鄙": 3469,
      "鄢": 3470,
      "酉": 3471,
      "酌": 3472,
      "配": 3473,
      "酒": 3474,
      "酝": 3475,
      "酡": 3476,
      "酥": 3477,
      "酪": 3478,
      "酬": 3479,
      "酱": 3480,
      "酵": 3481,
      "酶": 3482,
      "酷": 3483,
      "酸": 3484,
      "酿": 3485,
      "醉": 3486,
      "醋": 3487,
      "醒": 3488,
      "采": 3489,
      "释": 3490,
      "里": 3491,
      "重": 3492,
      "野": 3493,
      "量": 3494,
      "金": 3495,
      "鉴": 3496,
      "针": 3497,
      "钉": 3498,
      "钓": 3499,
      "钝": 3500,
      "钞": 3501,
      "钟": 3502,
      "钢": 3503,
      "钥": 3504,
      "钦": 3505,
      "钧": 3506,
      "钩": 3507,
      "钮": 3508,
      "钱": 3509,
      "钻": 3510,
      "铁": 3511,
      "铃": 3512,
      "铅": 3513,
      "铆": 3514,
      "铐": 3515,
      "铜": 3516,
      "铠": 3517,
      "铤": 3518,
      "铭": 3519,
      "铰": 3520,
      "铲": 3521,
      "银": 3522,
      "铸": 3523,
      "铺": 3524,
      "链": 3525,
      "销": 3526,
      "锁": 3527,
      "锃": 3528,
      "锄": 3529,
      "锅": 3530,
      "锈": 3531,
      "锋": 3532,
      "锏": 3533,
      "锐": 3534,
      "错": 3535,
      "锡": 3536,
      "锢": 3537,
      "锣": 3538,
      "锤": 3539,
      "锥": 3540,
      "锦": 3541,
      "锨": 3542,
      "键": 3543,
      "锯": 3544,
      "锲": 3545,
      "锵": 3546,
      "锹": 3547,
      "锻": 3548,
      "镀": 3549,
      "镂": 3550,
      "镇": 3551,
      "镊": 3552,
      "镌": 3553,
      "镐": 3554,
      "镖": 3555,
      "镜": 3556,
      "镭": 3557,
      "镰": 3558,
      "镶": 3559,
      "长": 3560,
      "门": 3561,
      "闪": 3562,
      "闭": 3563,
      "问": 3564,
      "闯": 3565,
      "闲": 3566,
      "间": 3567,
      "闷": 3568,
      "闸": 3569,
      "闹": 3570,
      "闺": 3571,
      "闻": 3572,
      "闽": 3573,
      "阁": 3574,
      "阂": 3575,
      "阅": 3576,
      "阈": 3577,
      "阎": 3578,
      "阔": 3579,
      "阙": 3580,
      "阜": 3581,
      "队": 3582,
      "阱": 3583,
      "防": 3584,
      "阳": 3585,
      "阴": 3586,
      "阵": 3587,
      "阶": 3588,
      "阻": 3589,
      "阿": 3590,
      "陀": 3591,
      "附": 3592,
      "际": 3593,
      "陆": 3594,
      "陈": 3595,
      "陋": 3596,
      "陌": 3597,
      "降": 3598,
      "限": 3599,
      "陕": 3600,
      "陛": 3601,
      "陡": 3602,
      "院": 3603,
      "除": 3604,
      "陨": 3605,
      "险": 3606,
      "陪": 3607,
      "陶": 3608,
      "陷": 3609,
      "隆": 3610,
      "隋": 3611,
      "随": 3612,
      "隐": 3613,
      "隔": 3614,
      "隙": 3615,
      "障": 3616,
      "隧": 3617,
      "隶": 3618,
      "难": 3619,
      "雀": 3620,
      "雁": 3621,
      "雄": 3622,
      "雅": 3623,
      "集": 3624,
      "雇": 3625,
      "雏": 3626,
      "雕": 3627,
      "雨": 3628,
      "雪": 3629,
      "雳": 3630,
      "零": 3631,
      "雷": 3632,
      "雾": 3633,
      "需": 3634,
      "霄": 3635,
      "霆": 3636,
      "震": 3637,
      "霉": 3638,
      "霍": 3639,
      "霎": 3640,
      "霏": 3641,
      "霓": 3642,
      "霖": 3643,
      "霜": 3644,
      "霞": 3645,
      "霭": 3646,
      "露": 3647,
      "霸": 3648,
      "霹": 3649,
      "霾": 3650,
      "青": 3651,
      "靓": 3652,
      "靖": 3653,
      "静": 3654,
      "非": 3655,
      "靠": 3656,
      "靡": 3657,
      "面": 3658,
      "革": 3659,
      "靶": 3660,
      "鞅": 3661,
      "鞋": 3662,
      "鞘": 3663,
      "鞠": 3664,
      "鞭": 3665,
      "韦": 3666,
      "韧": 3667,
      "韩": 3668,
      "音": 3669,
      "韵": 3670,
      "页": 3671,
      "顶": 3672,
      "项": 3673,
      "顺": 3674,
      "须": 3675,
      "顽": 3676,
      "顾": 3677,
      "顿": 3678,
      "颁": 3679,
      "颂": 3680,
      "预": 3681,
      "颅": 3682,
      "领": 3683,
      "颇": 3684,
      "颈": 3685,
      "颊": 3686,
      "颐": 3687,
      "频": 3688,
      "颓": 3689,
      "颔": 3690,
      "颖": 3691,
      "颗": 3692,
      "题": 3693,
      "颚": 3694,
      "颜": 3695,
      "额": 3696,
      "颠": 3697,
      "颤": 3698,
      "风": 3699,
      "飒": 3700,
      "飓": 3701,
      "飕": 3702,
      "飘": 3703,
      "飙": 3704,
      "飞": 3705,
      "食": 3706,
      "餐": 3707,
      "饥": 3708,
      "饭": 3709,
      "饮": 3710,
      "饰": 3711,
      "饱": 3712,
      "饵": 3713,
      "饶": 3714,
      "饷": 3715,
      "饺": 3716,
      "饼": 3717,
      "饿": 3718,
      "馁": 3719,
      "馅": 3720,
      "馆": 3721,
      "馈": 3722,
      "馋": 3723,
      "馒": 3724,
      "首": 3725,
      "馗": 3726,
      "香": 3727,
      "馨": 3728,
      "马": 3729,
      "驮": 3730,
      "驯": 3731,
      "驰": 3732,
      "驱": 3733,
      "驳": 3734,
      "驴": 3735,
      "驶": 3736,
      "驻": 3737,
      "驼": 3738,
      "驾": 3739,
      "骂": 3740,
      "骄": 3741,
      "骆": 3742,
      "骇": 3743,
      "骋": 3744,
      "验": 3745,
      "骏": 3746,
      "骑": 3747,
      "骗": 3748,
      "骚": 3749,
      "骛": 3750,
      "骤": 3751,
      "骥": 3752,
      "骨": 3753,
      "骷": 3754,
      "骸": 3755,
      "骼": 3756,
      "髅": 3757,
      "髓": 3758,
      "高": 3759,
      "鬈": 3760,
      "鬓": 3761,
      "鬼": 3762,
      "魁": 3763,
      "魂": 3764,
      "魄": 3765,
      "魅": 3766,
      "魆": 3767,
      "魇": 3768,
      "魏": 3769,
      "魔": 3770,
      "鱼": 3771,
      "鲁": 3772,
      "鲍": 3773,
      "鲜": 3774,
      "鲤": 3775,
      "鲸": 3776,
      "鳄": 3777,
      "鳖": 3778,
      "鳞": 3779,
      "鸟": 3780,
      "鸡": 3781,
      "鸣": 3782,
      "鸦": 3783,
      "鸭": 3784,
      "鸽": 3785,
      "鸿": 3786,
      "鹅": 3787,
      "鹉": 3788,
      "鹊": 3789,
      "鹏": 3790,
      "鹤": 3791,
      "鹦": 3792,
      "鹰": 3793,
      "鹿": 3794,
      "麦": 3795,
      "麻": 3796,
      "黄": 3797,
      "黎": 3798,
      "黏": 3799,
      "黑": 3800,
      "默": 3801,
      "黛": 3802,
      "黝": 3803,
      "黯": 3804,
      "鼎": 3805,
      "鼓": 3806,
      "鼠": 3807,
      "鼻": 3808,
      "齐": 3809,
      "齿": 3810,
      "龄": 3811,
      "龙": 3812,
      "龟": 3813,
      "﻿": 3814,
      "！": 3815,
      "（": 3816,
      "）": 3817,
      "＊": 3818,
      "，": 3819,
      "－": 3820,
      "９": 3821,
      "：": 3822,
      "；": 3823,
      "？": 3824,
      "］": 3825,
      "ｂ": 3826,
      "ｉ": 3827,
      "ｌ": 3828,
      "～": 3829,
      "##帮": 3830,
      "##那": 3831,
      "##位": 3832,
      "##上": 3833,
      "##星": 3834,
      "##期": 3835,
      "##到": 3836,
      "##连": 3837,
      "##队": 3838,
      "##来": 3839,
      "##采": 3840,
      "##访": 3841,
      "##的": 3842,
      "##《": 3843,
      "##大": 3844,
      "##生": 3845,
      "##产": 3846,
      "##报": 3847,
      "##》": 3848,
      "##记": 3849,
      "##者": 3850,
      "##抄": 3851,
      "##，": 3852,
      "##他": 3853,
      "##叫": 3854,
      "##…": 3855,
      "##答": 3856,
      "##应": 3857,
      "##了": 3858,
      "##然": 3859,
      "##后": 3860,
      "##离": 3861,
      "##开": 3862,
      "##办": 3863,
      "##公": 3864,
      "##室": 3865,
      "##这": 3866,
      "##时": 3867,
      "##我": 3868,
      "##已": 3869,
      "##经": 3870,
      "##决": 3871,
      "##定": 3872,
      "##一": 3873,
      "##切": 3874,
      "##。": 3875,
      "##警": 3876,
      "##官": 3877,
      "##又": 3878,
      "##插": 3879,
      "##：": 3880,
      "##蔡": 3881,
      "##成": 3882,
      "##功": 3883,
      "##你": 3884,
      "##和": 3885,
      "##侯": 3886,
      "##亮": 3887,
      "##平": 3888,
      "##是": 3889,
      "##啥": 3890,
      "##关": 3891,
      "##系": 3892,
      "##啊": 3893,
      "##？": 3894,
      "##立": 3895,
      "##刻": 3896,
      "##觉": 3897,
      "##们": 3898,
      "##就": 3899,
      "##般": 3900,
      "##朋": 3901,
      "##友": 3902,
      "##胖": 3903,
      "##话": 3904,
      "##里": 3905,
      "##有": 3906,
      "##好": 3907,
      "##像": 3908,
      "##不": 3909,
      "##太": 3910,
      "##吧": 3911,
      "##局": 3912,
      "##长": 3913,
      "##对": 3914,
      "##很": 3915,
      "##照": 3916,
      "##顾": 3917,
      "##非": 3918,
      "##让": 3919,
      "##给": 3920,
      "##检": 3921,
      "##查": 3922,
      "##身": 3923,
      "##体": 3924,
      "##暗": 3925,
      "##示": 3926,
      "##装": 3927,
      "##病": 3928,
      "##说": 3929,
      "##本": 3930,
      "##头": 3931,
      "##晕": 3932,
      "##都": 3933,
      "##脑": 3934,
      "##震": 3935,
      "##荡": 3936,
      "##！": 3937,
      "##瘦": 3938,
      "##突": 3939,
      "##发": 3940,
      "##问": 3941,
      "##哎": 3942,
      "##没": 3943,
      "##向": 3944,
      "##行": 3945,
      "##过": 3946,
      "##贿": 3947,
      "##怔": 3948,
      "##下": 3949,
      "##马": 3950,
      "##想": 3951,
      "##难": 3952,
      "##道": 3953,
      "##北": 3954,
      "##京": 3955,
      "##送": 3956,
      "##礼": 3957,
      "##事": 3958,
      "##察": 3959,
      "##知": 3960,
      "##会": 3961,
      "##再": 3962,
      "##收": 3963,
      "##忙": 3964,
      "##摆": 3965,
      "##手": 3966,
      "##绝": 3967,
      "##笑": 3968,
      "##看": 3969,
      "##抓": 3970,
      "##住": 3971,
      "##要": 3972,
      "##害": 3973,
      "##老": 3974,
      "##板": 3975,
      "##精": 3976,
      "##神": 3977,
      "##急": 3978,
      "##眼": 3979,
      "##别": 3980,
      "##陷": 3981,
      "##俩": 3982,
      "##耍": 3983,
      "##猴": 3984,
      "##样": 3985,
      "##瞅": 3986,
      "##着": 3987,
      "##些": 3988,
      "##小": 3989,
      "##得": 3990,
      "##意": 3991,
      "##苦": 3992,
      "##丁": 3993,
      "##义": 3994,
      "##珍": 3995,
      "##家": 3996,
      "##陈": 3997,
      "##弄": 3998,
      "##丢": 3999,
      "##吗": 4000,
      "##首": 4001,
      "##先": 4002,
      "##需": 4003,
      "##证": 4004,
      "##实": 4005,
      "##前": 4006,
      "##面": 4007,
      "##预": 4008,
      "##测": 4009,
      "##纣": 4010,
      "##王": 4011,
      "##动": 4012,
      "##声": 4013,
      "##色": 4014,
      "##地": 4015,
      "##此": 4016,
      "##汪": 4017,
      "##淼": 4018,
      "##确": 4019,
      "##自": 4020,
      "##己": 4021,
      "##判": 4022,
      "##断": 4023,
      "##个": 4024,
      "##游": 4025,
      "##戏": 4026,
      "##为": 4027,
      "##每": 4028,
      "##玩": 4029,
      "##单": 4030,
      "##进": 4031,
      "##程": 4032,
      "##现": 4033,
      "##在": 4034,
      "##欧": 4035,
      "##洲": 4036,
      "##中": 4037,
      "##世": 4038,
      "##纪": 4039,
      "##副": 4040,
      "##软": 4041,
      "##件": 4042,
      "##根": 4043,
      "##据": 4044,
      "##i": 4045,
      "##d": 4046,
      "##而": 4047,
      "##选": 4048,
      "##什": 4049,
      "##么": 4050,
      "##潘": 4051,
      "##寒": 4052,
      "##做": 4053,
      "##基": 4054,
      "##础": 4055,
      "##研": 4056,
      "##究": 4057,
      "##方": 4058,
      "##人": 4059,
      "##也": 4060,
      "##能": 4061,
      "##出": 4062,
      "##紧": 4063,
      "##张": 4064,
      "##黑": 4065,
      "##响": 4066,
      "##起": 4067,
      "##厂": 4068,
      "##区": 4069,
      "##高": 4070,
      "##音": 4071,
      "##喇": 4072,
      "##叭": 4073,
      "##广": 4074,
      "##播": 4075,
      "##风": 4076,
      "##兄": 4077,
      "##弟": 4078,
      "##姐": 4079,
      "##妹": 4080,
      "##政": 4081,
      "##府": 4082,
      "##欺": 4083,
      "##骗": 4084,
      "##常": 4085,
      "##虎": 4086,
      "##拆": 4087,
      "##迁": 4088,
      "##攻": 4089,
      "##啦": 4090,
      "##绩": 4091,
      "##班": 4092,
      "##名": 4093,
      "##列": 4094,
      "##茅": 4095,
      "##如": 4096,
      "##日": 4097,
      "##天": 4098,
      "##师": 4099,
      "##课": 4100,
      "##讲": 4101,
      "##题": 4102,
      "##却": 4103,
      "##法": 4104,
      "##比": 4105,
      "##简": 4106,
      "##适": 4107,
      "##用": 4108,
      "##型": 4109,
      "##更": 4110,
      "##多": 4111,
      "##英": 4112,
      "##语": 4113,
      "##同": 4114,
      "##桌": 4115,
      "##聊": 4116,
      "##听": 4117,
      "##万": 4118,
      "##作": 4119,
      "##文": 4120,
      "##句": 4121,
      "##干": 4122,
      "##打": 4123,
      "##瞌": 4124,
      "##睡": 4125,
      "##注": 4126,
      "##情": 4127,
      "##感": 4128,
      "##从": 4129,
      "##短": 4130,
      "##影": 4131,
      "##但": 4132,
      "##慢": 4133,
      "##积": 4134,
      "##少": 4135,
      "##并": 4136,
      "##放": 4137,
      "##心": 4138,
      "##骄": 4139,
      "##傲": 4140,
      "##使": 4141,
      "##去": 4142,
      "##或": 4143,
      "##学": 4144,
      "##只": 4145,
      "##埋": 4146,
      "##钻": 4147,
      "##近": 4148,
      "##咫": 4149,
      "##尺": 4150,
      "##专": 4151,
      "##车": 4152,
      "##李": 4153,
      "##书": 4154,
      "##否": 4155,
      "##台": 4156,
      "##果": 4157,
      "##麻": 4158,
      "##烦": 4159,
      "##汇": 4160,
      "##例": 4161,
      "##请": 4162,
      "##理": 4163,
      "##解": 4164,
      "##支": 4165,
      "##持": 4166,
      "##罢": 4167,
      "##主": 4168,
      "##司": 4169,
      "##机": 4170,
      "##工": 4171,
      "##传": 4172,
      "##唤": 4173,
      "##省": 4174,
      "##院": 4175,
      "##反": 4176,
      "##贪": 4177,
      "##达": 4178,
      "##康": 4179,
      "##阳": 4180,
      "##菁": 4181,
      "##目": 4182,
      "##谁": 4183,
      "##言": 4184,
      "##“": 4185,
      "##睛": 4186,
      "##乃": 4187,
      "##灵": 4188,
      "##之": 4189,
      "##窗": 4190,
      "##”": 4191,
      "##留": 4192,
      "##点": 4193,
      "##景": 4194,
      "##种": 4195,
      "##容": 4196,
      "##包": 4197,
      "##境": 4198,
      "##界": 4199,
      "##浮": 4200,
      "##躁": 4201,
      "##安": 4202,
      "##慰": 4203,
      "##空": 4204,
      "##球": 4205,
      "##消": 4206,
      "##失": 4207,
      "##另": 4208,
      "##外": 4209,
      "##几": 4210,
      "##低": 4211,
      "##制": 4212,
      "##止": 4213,
      "##史": 4214,
      "##强": 4215,
      "##敢": 4216,
      "##伟": 4217,
      "##思": 4218,
      "##级": 4219,
      "##吃": 4220,
      "##惊": 4221,
      "##击": 4222,
      "##犀": 4223,
      "##利": 4224,
      "##无": 4225,
      "##奈": 4226,
      "##第": 4227,
      "##三": 4228,
      "##次": 4229,
      "##将": 4230,
      "##洞": 4231,
      "##内": 4232,
      "##射": 4233,
      "##词": 4234,
      "##由": 4235,
      "##明": 4236,
      "##牛": 4237,
      "##鼻": 4238,
      "##子": 4239,
      "##整": 4240,
      "##修": 4241,
      "##炼": 4242,
      "##练": 4243,
      "##城": 4244,
      "##—": 4245,
      "##逼": 4246,
      "##瞪": 4247,
      "##海": 4248,
      "##砰": 4249,
      "##摔": 4250,
      "##门": 4251,
      "##、": 4252,
      "##寻": 4253,
      "##找": 4254,
      "##所": 4255,
      "##技": 4256,
      "##术": 4257,
      "##变": 4258,
      "##可": 4259,
      "##性": 4260,
      "##数": 4261,
      "##最": 4262,
      "##领": 4263,
      "##域": 4264,
      "##极": 4265,
      "##巨": 4266,
      "##破": 4267,
      "##该": 4268,
      "##旦": 4269,
      "##其": 4270,
      "##力": 4271,
      "##超": 4272,
      "##以": 4273,
      "##-": 4274,
      "##总": 4275,
      "##阵": 4276,
      "##莫": 4277,
      "##恐": 4278,
      "##惧": 4279,
      "##喊": 4280,
      "##真": 4281,
      "##爷": 4282,
      "##两": 4283,
      "##捉": 4284,
      "##迷": 4285,
      "##藏": 4286,
      "##年": 4287,
      "##幼": 4288,
      "##完": 4289,
      "##间": 4290,
      "##踪": 4291,
      "##哭": 4292,
      "##久": 4293,
      "##抱": 4294,
      "##把": 4295,
      "##举": 4296,
      "##瞬": 4297,
      "##因": 4298,
      "##您": 4299,
      "##魔": 4300,
      "##逗": 4301,
      "##吓": 4302,
      "##跳": 4303,
      "##纳": 4304,
      "##米": 4305,
      "##任": 4306,
      "##轻": 4307,
      "##呆": 4308,
      "##望": 4309,
      "##艺": 4310,
      "##回": 4311,
      "##女": 4312,
      "##员": 4313,
      "##陪": 4314,
      "##她": 4315,
      "##介": 4316,
      "##绍": 4317,
      "##尊": 4318,
      "##敬": 4319,
      "##沙": 4320,
      "##瑞": 4321,
      "##金": 4322,
      "##宣": 4323,
      "##布": 4324,
      "##散": 4325,
      "##育": 4326,
      "##良": 4327,
      "##形": 4328,
      "##状": 4329,
      "##化": 4330,
      "##白": 4331,
      "##际": 4332,
      "##颗": 4333,
      "##它": 4334,
      "##露": 4335,
      "##部": 4336,
      "##分": 4337,
      "##叠": 4338,
      "##加": 4339,
      "##构": 4340,
      "##宇": 4341,
      "##宙": 4342,
      "##背": 4343,
      "##字": 4344,
      "##幕": 4345,
      "##升": 4346,
      "##叶": 4347,
      "##洁": 4348,
      "##眩": 4349,
      "##走": 4350,
      "##远": 4351,
      "##昏": 4352,
      "##倒": 4353,
      "##草": 4354,
      "##亦": 4355,
      "##焚": 4356,
      "##电": 4357,
      "##求": 4358,
      "##援": 4359,
      "##努": 4360,
      "##服": 4361,
      "##况": 4362,
      "##孙": 4363,
      "##冒": 4364,
      "##嫌": 4365,
      "##疑": 4366,
      "##祁": 4367,
      "##于": 4368,
      "##式": 4369,
      "##物": 4370,
      "##保": 4371,
      "##易": 4372,
      "##誉": 4373,
      "##权": 4374,
      "##财": 4375,
      "##富": 4376,
      "##早": 4377,
      "##防": 4378,
      "##季": 4379,
      "##昌": 4380,
      "##交": 4381,
      "##底": 4382,
      "##怀": 4383,
      "##始": 4384,
      "##逃": 4385,
      "##跑": 4386,
      "##历": 4387,
      "##排": 4388,
      "##场": 4389,
      "##迫": 4390,
      "##周": 4391,
      "##密": 4392,
      "##亡": 4393,
      "##鉴": 4394,
      "##谈": 4395,
      "##暂": 4396,
      "##停": 4397,
      "##休": 4398,
      "##息": 4399,
      "##捧": 4400,
      "##桦": 4401,
      "##皮": 4402,
      "##页": 4403,
      "##翻": 4404,
      "##幅": 4405,
      "##画": 4406,
      "##显": 4407,
      "##母": 4408,
      "##亲": 4409,
      "##儿": 4410,
      "##刚": 4411,
      "##杨": 4412,
      "##冬": 4413,
      "##岁": 4414,
      "##孩": 4415,
      "##通": 4416,
      "##够": 4417,
      "##较": 4418,
      "##；": 4419,
      "##仍": 4420,
      "##随": 4421,
      "##纷": 4422,
      "##乱": 4423,
      "##线": 4424,
      "##条": 4425,
      "##烈": 4426,
      "##恼": 4427,
      "##怒": 4428,
      "##表": 4429,
      "##某": 4430,
      "##东": 4431,
      "##西": 4432,
      "##龄": 4433,
      "##普": 4434,
      "##具": 4435,
      "##波": 4436,
      "##压": 4437,
      "##缩": 4438,
      "##七": 4439,
      "##量": 4440,
      "##7": 4441,
      "##c": 4442,
      "##m": 4443,
      "##转": 4444,
      "##换": 4445,
      "##红": 4446,
      "##光": 4447,
      "##观": 4448,
      "##众": 4449,
      "##夜": 4450,
      "##戴": 4451,
      "##镜": 4452,
      "##3": 4453,
      "##k": 4454,
      "##辐": 4455,
      "##闪": 4456,
      "##烁": 4457,
      "##新": 4458,
      "##建": 4459,
      "##松": 4460,
      "##叹": 4461,
      "##今": 4462,
      "##坎": 4463,
      "##惜": 4464,
      "##晚": 4465,
      "##哪": 4466,
      "##垄": 4467,
      "##组": 4468,
      "##织": 4469,
      "##与": 4470,
      "##讯": 4471,
      "##见": 4472,
      "##映": 4473,
      "##品": 4474,
      "##忠": 4475,
      "##诚": 4476,
      "##派": 4477,
      "##商": 4478,
      "##勾": 4479,
      "##肩": 4480,
      "##搭": 4481,
      "##皱": 4482,
      "##眉": 4483,
      "##虚": 4484,
      "##田": 4485,
      "##国": 4486,
      "##笔": 4487,
      "##山": 4488,
      "##水": 4489,
      "##集": 4490,
      "##团": 4491,
      "##琴": 4492,
      "##带": 4493,
      "##喝": 4494,
      "##还": 4495,
      "##参": 4496,
      "##州": 4497,
      "##往": 4498,
      "##乎": 4499,
      "##闲": 4500,
      "##央": 4501,
      "##八": 4502,
      "##项": 4503,
      "##规": 4504,
      "##敛": 4505,
      "##吴": 4506,
      "##春": 4507,
      "##林": 4508,
      "##补": 4509,
      "##充": 4510,
      "##口": 4511,
      "##认": 4512,
      "##取": 4513,
      "##管": 4514,
      "##坚": 4515,
      "##原": 4516,
      "##推": 4517,
      "##荐": 4518,
      "##当": 4519,
      "##接": 4520,
      "##培": 4521,
      "##养": 4522,
      "##步": 4523,
      "##顺": 4524,
      "##序": 4525,
      "##委": 4526,
      "##1": 4527,
      "##号": 4528,
      "##楼": 4529,
      "##许": 4530,
      "##牌": 4531,
      "##h": 4532,
      "##烧": 4533,
      "##荒": 4534,
      "##野": 4535,
      "##火": 4536,
      "##论": 4537,
      "##怎": 4538,
      "##控": 4539,
      "##允": 4540,
      "##赵": 4541,
      "##提": 4542,
      "##料": 4543,
      "##谨": 4544,
      "##慎": 4545,
      "##希": 4546,
      "##搞": 4547,
      "##死": 4548,
      "##调": 4549,
      "##策": 4550,
      "##略": 4551,
      "##摇": 4552,
      "##险": 4553,
      "##刘": 4554,
      "##顶": 4555,
      "##坦": 4556,
      "##宽": 4557,
      "##路": 4558,
      "##忧": 4559,
      "##郁": 4560,
      "##阻": 4561,
      "##避": 4562,
      "##免": 4563,
      "##崩": 4564,
      "##盘": 4565,
      "##咂": 4566,
      "##嘴": 4567,
      "##键": 4568,
      "##硬": 4569,
      "##虽": 4570,
      "##舒": 4571,
      "##频": 4572,
      "##赞": 4573,
      "##番": 4574,
      "##必": 4575,
      "##扫": 4576,
      "##视": 4577,
      "##凌": 4578,
      "##厉": 4579,
      "##狠": 4580,
      "##批": 4581,
      "##毫": 4582,
      "##客": 4583,
      "##气": 4584,
      "##指": 4585,
      "##素": 4586,
      "##质": 4587,
      "##民": 4588,
      "##振": 4589,
      "##聋": 4590,
      "##聩": 4591,
      "##六": 4592,
      "##签": 4593,
      "##才": 4594,
      "##彩": 4595,
      "##霞": 4596,
      "##释": 4597,
      "##重": 4598,
      "##负": 4599,
      "##舞": 4600,
      "##固": 4601,
      "##催": 4602,
      "##促": 4603,
      "##陆": 4604,
      "##结": 4605,
      "##美": 4606,
      "##妙": 4607,
      "##刷": 4608,
      "##卡": 4609,
      "##监": 4610,
      "##落": 4611,
      "##志": 4612,
      "##脸": 4613,
      "##拉": 4614,
      "##嘀": 4615,
      "##咕": 4616,
      "##糟": 4617,
      "##糕": 4618,
      "##终": 4619,
      "##哲": 4620,
      "##操": 4621,
      "##呢": 4622,
      "##供": 4623,
      "##房": 4624,
      "##案": 4625,
      "##巴": 4626,
      "##屁": 4627,
      "##直": 4628,
      "##肠": 4629,
      "##讨": 4630,
      "##导": 4631,
      "##欢": 4632,
      "##退": 4633,
      "##伍": 4634,
      "##混": 4635,
      "##熊": 4636,
      "##活": 4637,
      "##踹": 4638,
      "##复": 4639,
      "##仇": 4640,
      "##算": 4641,
      "##岸": 4642,
      "##旭": 4643,
      "##初": 4644,
      "##晨": 4645,
      "##括": 4646,
      "##全": 4647,
      "##类": 4648,
      "##凶": 4649,
      "##忏": 4650,
      "##悔": 4651,
      "##怕": 4652,
      "##归": 4653,
      "##正": 4654,
      "##眠": 4655,
      "##违": 4656,
      "##沉": 4657,
      "##深": 4658,
      "##严": 4659,
      "##峻": 4660,
      "##命": 4661,
      "##相": 4662,
      "##搏": 4663,
      "##肯": 4664,
      "##何": 4665,
      "##揪": 4666,
      "##评": 4667,
      "##价": 4668,
      "##偏": 4669,
      "##颇": 4670,
      "##坟": 4671,
      "##触": 4672,
      "##段": 4673,
      "##温": 4674,
      "##暖": 4675,
      "##细": 4676,
      "##凤": 4677,
      "##油": 4678,
      "##灯": 4679,
      "##卓": 4680,
      "##越": 4681,
      "##创": 4682,
      "##凝": 4683,
      "##快": 4684,
      "##古": 4685,
      "##典": 4686,
      "##披": 4687,
      "##棉": 4688,
      "##袄": 4689,
      "##肚": 4690,
      "##兜": 4691,
      "##圆": 4692,
      "##润": 4693,
      "##胳": 4694,
      "##膊": 4695,
      "##象": 4696,
      "##涂": 4697,
      "##醒": 4698,
      "##余": 4699,
      "##隐": 4700,
      "##淹": 4701,
      "##片": 4702,
      "##柔": 4703,
      "##炭": 4704,
      "##屋": 4705,
      "##湿": 4706,
      "##汽": 4707,
      "##户": 4708,
      "##雕": 4709,
      "##丽": 4710,
      "##冰": 4711,
      "##纹": 4712,
      "##9": 4713,
      "##.": 4714,
      "##爱": 4715,
      "##斯": 4716,
      "##撕": 4717,
      "##裂": 4718,
      "##群": 4719,
      "##十": 4720,
      "##肃": 4721,
      "##甚": 4722,
      "##至": 4723,
      "##务": 4724,
      "##封": 4725,
      "##疆": 4726,
      "##吏": 4727,
      "##且": 4728,
      "##味": 4729,
      "##廉": 4730,
      "##设": 4731,
      "##腐": 4732,
      "##环": 4733,
      "##氛": 4734,
      "##合": 4735,
      "##信": 4736,
      "##河": 4737,
      "##统": 4738,
      "##帅": 4739,
      "##威": 4740,
      "##清": 4741,
      "##楚": 4742,
      "##拯": 4743,
      "##救": 4744,
      "##被": 4745,
      "##除": 4746,
      "##皇": 4747,
      "##挥": 4748,
      "##剑": 4749,
      "##砍": 4750,
      "##冯": 4751,
      "##诺": 4752,
      "##伊": 4753,
      "##曼": 4754,
      "##蹬": 4755,
      "##旁": 4756,
      "##边": 4757,
      "##飘": 4758,
      "##块": 4759,
      "##石": 4760,
      "##躲": 4761,
      "##迸": 4762,
      "##花": 4763,
      "##截": 4764,
      "##撞": 4765,
      "##秦": 4766,
      "##夹": 4767,
      "##碎": 4768,
      "##血": 4769,
      "##肉": 4770,
      "##横": 4771,
      "##飞": 4772,
      "##惨": 4773,
      "##忍": 4774,
      "##睹": 4775,
      "##围": 4776,
      "##寂": 4777,
      "##存": 4778,
      "##液": 4779,
      "##沸": 4780,
      "##腾": 4781,
      "##吐": 4782,
      "##脏": 4783,
      "##晶": 4784,
      "##云": 4785,
      "##绕": 4786,
      "##怪": 4787,
      "##异": 4788,
      "##层": 4789,
      "##漆": 4790,
      "##吸": 4791,
      "##入": 4792,
      "##灿": 4793,
      "##烂": 4794,
      "##旋": 4795,
      "##涡": 4796,
      "##流": 4797,
      "##宿": 4798,
      "##德": 4799,
      "##汉": 4800,
      "##置": 4801,
      "##坐": 4802,
      "##四": 4803,
      "##钱": 4804,
      "##捡": 4805,
      "##麦": 4806,
      "##穗": 4807,
      "##梦": 4808,
      "##似": 4809,
      "##恍": 4810,
      "##惚": 4811,
      "##满": 4812,
      "##尽": 4813,
      "##凉": 4814,
      "##旷": 4815,
      "##投": 4816,
      "##距": 4817,
      "##恒": 4818,
      "##智": 4819,
      "##慧": 4820,
      "##悄": 4821,
      "##藤": 4822,
      "##摸": 4823,
      "##瓜": 4824,
      "##雏": 4825,
      "##菊": 4826,
      "##阴": 4827,
      "##烟": 4828,
      "##致": 4829,
      "##夏": 4830,
      "##吜": 4831,
      "##便": 4832,
      "##买": 4833,
      "##饭": 4834,
      "##药": 4835,
      "##滴": 4836,
      "##微": 4837,
      "##床": 4838,
      "##厕": 4839,
      "##医": 4840,
      "##橙": 4841,
      "##拿": 4842,
      "##扇": 4843,
      "##酸": 4844,
      "##痛": 4845,
      "##泪": 4846,
      "##谢": 4847,
      "##谷": 4848,
      "##奋": 4849,
      "##追": 4850,
      "##著": 4851,
      "##运": 4852,
      "##翔": 4853,
      "##值": 4854,
      "##巅": 4855,
      "##峰": 4856,
      "##遭": 4857,
      "##遇": 4858,
      "##伤": 4859,
      "##未": 4860,
      "##稳": 4861,
      "##赛": 4862,
      "##演": 4863,
      "##篮": 4864,
      "##彦": 4865,
      "##雨": 4866,
      "##航": 4867,
      "##曾": 4868,
      "##孤": 4869,
      "##闭": 4870,
      "##继": 4871,
      "##续": 4872,
      "##皆": 4873,
      "##泯": 4874,
      "##矣": 4875,
      "##等": 4876,
      "##处": 4877,
      "##卫": 4878,
      "##宁": 4879,
      "##椅": 4880,
      "##枪": 4881,
      "##兵": 4882,
      "##r": 4883,
      "##e": 4884,
      "##f": 4885,
      "##=": 4886,
      "##'": 4887,
      "##/": 4888,
      "##a": 4889,
      "##t": 4890,
      "##l": 4891,
      "##8": 4892,
      "##4": 4893,
      "##6": 4894,
      "##2": 4895,
      "##>": 4896,
      "##仰": 4897,
      "##忽": 4898,
      "##悠": 4899,
      "##元": 4900,
      "##呗": 4901,
      "##咱": 4902,
      "##担": 4903,
      "##改": 4904,
      "##革": 4905,
      "##刀": 4906,
      "##郑": 4907,
      "##态": 4908,
      "##贵": 4909,
      "##侦": 4910,
      "##限": 4911,
      "##龙": 4912,
      "##特": 4913,
      "##秘": 4914,
      "##缓": 4915,
      "##拘": 4916,
      "##捕": 4917,
      "##月": 4918,
      "##沿": 4919,
      "##银": 4920,
      "##锁": 4921,
      "##喧": 4922,
      "##闹": 4923,
      "##幽": 4924,
      "##静": 4925,
      "##雄": 4926,
      "##轮": 4927,
      "##廓": 4928,
      "##渐": 4929,
      "##尔": 4930,
      "##夫": 4931,
      "##坪": 4932,
      "##展": 4933,
      "##矮": 4934,
      "##坡": 4935,
      "##栋": 4936,
      "##墅": 4937,
      "##雪": 4938,
      "##皑": 4939,
      "##度": 4940,
      "##假": 4941,
      "##村": 4942,
      "##桃": 4943,
      "##源": 4944,
      "##谧": 4945,
      "##蝗": 4946,
      "##灾": 4947,
      "##赶": 4948,
      "##埂": 4949,
      "##虫": 4950,
      "##忘": 4951,
      "##兴": 4952,
      "##激": 4953,
      "##亢": 4954,
      "##犯": 4955,
      "##剩": 4956,
      "##墙": 4957,
      "##角": 4958,
      "##堆": 4959,
      "##煤": 4960,
      "##炉": 4961,
      "##灭": 4962,
      "##冷": 4963,
      "##裹": 4964,
      "##滑": 4965,
      "##铁": 4966,
      "##卢": 4967,
      "##二": 4968,
      "##乐": 4969,
      "##晴": 4970,
      "##霹": 4971,
      "##雳": 4972,
      "##齐": 4973,
      "##辩": 4974,
      "##树": 4975,
      "##桩": 4976,
      "##写": 4977,
      "##镶": 4978,
      "##木": 4979,
      "##框": 4980,
      "##蹲": 4981,
      "##吹": 4982,
      "##奇": 4983,
      "##呈": 4984,
      "##网": 4985,
      "##格": 4986,
      "##仔": 4987,
      "##撑": 4988,
      "##络": 4989,
      "##粗": 4990,
      "##钢": 4991,
      "##抛": 4992,
      "##缘": 4993,
      "##透": 4994,
      "##令": 4995,
      "##颤": 4996,
      "##惶": 4997,
      "##仿": 4998,
      "##佛": 4999,
      "##厚": 5000,
      "##惑": 5001,
      "##材": 5002,
      "##稚": 5003,
      "##拙": 5004,
      "##j": 5005,
      "##（": 5006,
      "##）": 5007,
      "##黄": 5008,
      "##伸": 5009,
      "##犹": 5010,
      "##豫": 5011,
      "##ｉ": 5012,
      "##ｂ": 5013,
      "##?": 5014,
      "##冲": 5015,
      "##眨": 5016,
      "##吞": 5017,
      "##半": 5018,
      "##爆": 5019,
      "##抬": 5020,
      "##代": 5021,
      "##窝": 5022,
      "##益": 5023,
      "##砝": 5024,
      "##码": 5025,
      "##婆": 5026,
      "##铤": 5027,
      "##牵": 5028,
      "##抖": 5029,
      "##猛": 5030,
      "##岩": 5031,
      "##告": 5032,
      "##伴": 5033,
      "##劝": 5034,
      "##骑": 5035,
      "##讳": 5036,
      "##挫": 5037,
      "##折": 5038,
      "##市": 5039,
      "##兼": 5040,
      "##败": 5041,
      "##掉": 5042,
      "##引": 5043,
      "##资": 5044,
      "##模": 5045,
      "##撤": 5046,
      "##企": 5047,
      "##业": 5048,
      "##则": 5049,
      "##百": 5050,
      "##势": 5051,
      "##尾": 5052,
      "##济": 5053,
      "##候": 5054,
      "##造": 5055,
      "##污": 5056,
      "##染": 5057,
      "##端": 5058,
      "##园": 5059,
      "##挡": 5060,
      "##恳": 5061,
      "##谋": 5062,
      "##速": 5063,
      "##g": 5064,
      "##p": 5065,
      "##v": 5066,
      "##拟": 5067,
      "##丰": 5068,
      "##双": 5069,
      "##壳": 5070,
      "##均": 5071,
      "##匀": 5072,
      "##淙": 5073,
      "##淌": 5074,
      "##溪": 5075,
      "##碍": 5076,
      "##属": 5077,
      "##考": 5078,
      "##试": 5079,
      "##临": 5080,
      "##左": 5081,
      "##右": 5082,
      "##澎": 5083,
      "##湃": 5084,
      "##驰": 5085,
      "##骋": 5086,
      "##鹰": 5087,
      "##座": 5088,
      "##旗": 5089,
      "##纤": 5090,
      "##阔": 5091,
      "##鲜": 5092,
      "##庭": 5093,
      "##武": 5094,
      "##斗": 5095,
      "##沐": 5096,
      "##霖": 5097,
      "##琳": 5098,
      "##父": 5099,
      "##帜": 5100,
      "##永": 5101,
      "##钟": 5102,
      "##束": 5103,
      "##洗": 5104,
      "##澡": 5105,
      "##妻": 5106,
      "##艾": 5107,
      "##套": 5108,
      "##咋": 5109,
      "##哀": 5110,
      "##移": 5111,
      "##拜": 5112,
      "##疏": 5113,
      "##即": 5114,
      "##饶": 5115,
      "##悬": 5116,
      "##崖": 5117,
      "##勒": 5118,
      "##联": 5119,
      "##递": 5120,
      "##寄": 5121,
      "##纵": 5122,
      "##标": 5123,
      "##准": 5124,
      "##殊": 5125,
      "##屠": 5126,
      "##呦": 5127,
      "##错": 5128,
      "##青": 5129,
      "##蒿": 5130,
      "##缺": 5131,
      "##惘": 5132,
      "##耀": 5133,
      "##爸": 5134,
      "##及": 5135,
      "##:": 5136,
      "##啰": 5137,
      "##唆": 5138,
      "##箱": 5139,
      "##扛": 5140,
      "##酒": 5141,
      "##拥": 5142,
      "##凡": 5143,
      "##淡": 5144,
      "##!": 5145,
      "##幸": 5146,
      "##忆": 5147,
      "##熟": 5148,
      "##悉": 5149,
      "##挤": 5150,
      "##昼": 5151,
      "##骤": 5152,
      "##柱": 5153,
      "##狂": 5154,
      "##泻": 5155,
      "##苍": 5156,
      "##穹": 5157,
      "##捅": 5158,
      "##窟": 5159,
      "##窿": 5160,
      "##街": 5161,
      "##溅": 5162,
      "##蹈": 5163,
      "##柳": 5164,
      "##甩": 5165,
      "##枯": 5166,
      "##枝": 5167,
      "##貌": 5168,
      "##欲": 5169,
      "##仪": 5170,
      "##器": 5171,
      "##船": 5172,
      "##备": 5173,
      "##屏": 5174,
      "##蔽": 5175,
      "##磁": 5176,
      "##秒": 5177,
      "##袭": 5178,
      "##毁": 5179,
      "##顿": 5180,
      "##校": 5181,
      "##弹": 5182,
      "##迅": 5183,
      "##遮": 5184,
      "##盖": 5185,
      "##焰": 5186,
      "##狱": 5187,
      "##坠": 5188,
      "##窄": 5189,
      "##五": 5190,
      "##审": 5191,
      "##优": 5192,
      "##森": 5193,
      "##盯": 5194,
      "##茄": 5195,
      "##计": 5196,
      "##千": 5197,
      "##纸": 5198,
      "##教": 5199,
      "##训": 5200,
      "##鸣": 5201,
      "##误": 5202,
      "##哦": 5203,
      "##罪": 5204,
      "##敌": 5205,
      "##析": 5206,
      "##岭": 5207,
      "##恩": 5208,
      "##穷": 5209,
      "##途": 5210,
      "##末": 5211,
      "##择": 5212,
      "##诉": 5213,
      "##虑": 5214,
      "##录": 5215,
      "##配": 5216,
      "##敲": 5217,
      "##塑": 5218,
      "##栩": 5219,
      "##诡": 5220,
      "##琢": 5221,
      "##磨": 5222,
      "##订": 5223,
      "##雷": 5224,
      "##掩": 5225,
      "##耳": 5226,
      "##涉": 5227,
      "##范": 5228,
      "##罕": 5229,
      "##胶": 5230,
      "##卷": 5231,
      "##扰": 5232,
      "##杂": 5233,
      "##陛": 5234,
      "##享": 5235,
      "##受": 5236,
      "##荣": 5237,
      "##站": 5238,
      "##贯": 5239,
      "##聆": 5240,
      "##各": 5241,
      "##搜": 5242,
      "##索": 5243,
      "##邀": 5244,
      "##扬": 5245,
      "##迹": 5246,
      "##呼": 5247,
      "##嘲": 5248,
      "##厅": 5249,
      "##差": 5250,
      "##嫉": 5251,
      "##妒": 5252,
      "##菜": 5253,
      "##盔": 5254,
      "##故": 5255,
      "##脆": 5256,
      "##弱": 5257,
      "##霜": 5258,
      "##抢": 5259,
      "##抗": 5260,
      "##争": 5261,
      "##施": 5262,
      "##「": 5263,
      "##」": 5264,
      "##杀": 5265,
      "##阶": 5266,
      "##沮": 5267,
      "##丧": 5268,
      "##诗": 5269,
      "##食": 5270,
      "##堂": 5271,
      "##灶": 5272,
      "##划": 5273,
      "##勉": 5274,
      "##替": 5275,
      "##辙": 5276,
      "##鹦": 5277,
      "##鹉": 5278,
      "##嗓": 5279,
      "##捣": 5280,
      "##愤": 5281,
      "##喜": 5282,
      "##鸟": 5283,
      "##稀": 5284,
      "##俗": 5285,
      "##挂": 5286,
      "##挺": 5287,
      "##朦": 5288,
      "##胧": 5289,
      "##伙": 5290,
      "##九": 5291,
      "##恶": 5292,
      "##泱": 5293,
      "##华": 5294,
      "##悲": 5295,
      "##剧": 5296,
      "##蠹": 5297,
      "##鱼": 5298,
      "##泉": 5299,
      "##股": 5300,
      "##赢": 5301,
      "##债": 5302,
      "##偿": 5303,
      "##账": 5304,
      "##惹": 5305,
      "##承": 5306,
      "##战": 5307,
      "##畏": 5308,
      "##识": 5309,
      "##蹭": 5310,
      "##哩": 5311,
      "##含": 5312,
      "##糊": 5313,
      "##猜": 5314,
      "##梗": 5315,
      "##亏": 5316,
      "##庆": 5317,
      "##祝": 5318,
      "##恨": 5319,
      "##图": 5320,
      "##敏": 5321,
      "##哥": 5322,
      "##躺": 5323,
      "##唯": 5324,
      "##握": 5325,
      "##腋": 5326,
      "##若": 5327,
      "##拍": 5328,
      "##科": 5329,
      "##舰": 5330,
      "##男": 5331,
      "##趁": 5332,
      "##彬": 5333,
      "##暴": 5334,
      "##屯": 5335,
      "##寡": 5336,
      "##妇": 5337,
      "##骂": 5338,
      "##俏": 5339,
      "##隔": 5340,
      "##兔": 5341,
      "##鸡": 5342,
      "##猎": 5343,
      "##朴": 5344,
      "##串": 5345,
      "##宴": 5346,
      "##敞": 5347,
      "##豪": 5348,
      "##碧": 5349,
      "##辉": 5350,
      "##煌": 5351,
      "##丝": 5352,
      "##薄": 5353,
      "##匹": 5354,
      "##健": 5355,
      "##壮": 5356,
      "##骆": 5357,
      "##驼": 5358,
      "##羊": 5359,
      "##亿": 5360,
      "##亨": 5361,
      "##匠": 5362,
      "##履": 5363,
      "##督": 5364,
      "##职": 5365,
      "##责": 5366,
      "##碰": 5367,
      "##痈": 5368,
      "##遗": 5369,
      "##患": 5370,
      "##挑": 5371,
      "##浓": 5372,
      "##贡": 5373,
      "##献": 5374,
      "##箭": 5375,
      "##栽": 5376,
      "##跟": 5377,
      "##习": 5378,
      "##杯": 5379,
      "##饮": 5380,
      "##绛": 5381,
      "##仨": 5382,
      "##偶": 5383,
      "##浪": 5384,
      "##费": 5385,
      "##念": 5386,
      "##泄": 5387,
      "##节": 5388,
      "##绪": 5389,
      "##蓝": 5390,
      "##铅": 5391,
      "##啪": 5392,
      "##啻": 5393,
      "##穿": 5394,
      "##勃": 5395,
      "##竟": 5396,
      "##湖": 5397,
      "##丈": 5398,
      "##歪": 5399,
      "##娃": 5400,
      "##斑": 5401,
      "##摊": 5402,
      "##蓦": 5403,
      "##曦": 5404,
      "##衣": 5405,
      "##襟": 5406,
      "##漫": 5407,
      "##劳": 5408,
      "##涌": 5409,
      "##社": 5410,
      "##律": 5411,
      "##臣": 5412,
      "##茫": 5413,
      "##栏": 5414,
      "##杆": 5415,
      "##墨": 5416,
      "##歇": 5417,
      "##累": 5418,
      "##靠": 5419,
      "##伽": 5420,
      "##玄": 5421,
      "##巫": 5422,
      "##炸": 5423,
      "##延": 5424,
      "##厘": 5425,
      "##衍": 5426,
      "##井": 5427,
      "##泡": 5428,
      "##茶": 5429,
      "##泰": 5430,
      "##惯": 5431,
      "##拔": 5432,
      "##揭": 5433,
      "##蒙": 5434,
      "##悟": 5435,
      "##助": 5436,
      "##彻": 5437,
      "##滔": 5438,
      "##谜": 5439,
      "##称": 5440,
      "##聪": 5441,
      "##笨": 5442,
      "##热": 5443,
      "##朝": 5444,
      "##南": 5445,
      "##帘": 5446,
      "##蹊": 5447,
      "##跷": 5448,
      "##盒": 5449,
      "##靶": 5450,
      "##须": 5451,
      "##餐": 5452,
      "##筋": 5453,
      "##莱": 5454,
      "##械": 5455,
      "##印": 5456,
      "##仅": 5457,
      "##凭": 5458,
      "##族": 5459,
      "##勇": 5460,
      "##浸": 5461,
      "##奔": 5462,
      "##毒": 5463,
      "##障": 5464,
      "##率": 5465,
      "##维": 5466,
      "##措": 5467,
      "##阿": 5468,
      "##弦": 5469,
      "##９": 5470,
      "##ｌ": 5471,
      "##迄": 5472,
      "##霍": 5473,
      "##塞": 5474,
      "##福": 5475,
      "##待": 5476,
      "##睬": 5477,
      "##帝": 5478,
      "##士": 5479,
      "##晃": 5480,
      "##哄": 5481,
      "##蝇": 5482,
      "##搅": 5483,
      "##猝": 5484,
      "##扭": 5485,
      "##嘛": 5486,
      "##诞": 5487,
      "##约": 5488,
      "##烬": 5489,
      "##弥": 5490,
      "##残": 5491,
      "##锋": 5492,
      "##轨": 5493,
      "##招": 5494,
      "##议": 5495,
      "##粒": 5496,
      "##睁": 5497,
      "##霾": 5498,
      "##陡": 5499,
      "##峭": 5500,
      "##抑": 5501,
      "##艰": 5502,
      "##腿": 5503,
      "##灌": 5504,
      "##搬": 5505,
      "##鬼": 5506,
      "##胡": 5507,
      "##敷": 5508,
      "##傅": 5509,
      "##土": 5510,
      "##幻": 5511,
      "##童": 5512,
      "##读": 5513,
      "##疯": 5514,
      "##闻": 5515,
      "##叙": 5516,
      "##阱": 5517,
      "##眺": 5518,
      "##肤": 5519,
      "##黝": 5520,
      "##妈": 5521,
      "##伐": 5522,
      "##僵": 5523,
      "##滚": 5524,
      "##烫": 5525,
      "##辆": 5526,
      "##挖": 5527,
      "##谲": 5528,
      "##乘": 5529,
      "##梯": 5530,
      "##守": 5531,
      "##穴": 5532,
      "##估": 5533,
      "##按": 5534,
      "##党": 5535,
      "##章": 5536,
      "##效": 5537,
      "##怖": 5538,
      "##缕": 5539,
      "##0": 5540,
      "##\"": 5541,
      "##僻": 5542,
      "##壁": 5543,
      "##胆": 5544,
      "##吋": 5545,
      "##附": 5546,
      "##档": 5547,
      "##危": 5548,
      "##跃": 5549,
      "##阅": 5550,
      "##览": 5551,
      "##刊": 5552,
      "##繁": 5553,
      "##琐": 5554,
      "##矩": 5555,
      "##呵": 5556,
      "##冻": 5557,
      "##篇": 5558,
      "##废": 5559,
      "##墟": 5560,
      "##拨": 5561,
      "##蔓": 5562,
      "##驳": 5563,
      "##锈": 5564,
      "##启": 5565,
      "##嫩": 5566,
      "##玉": 5567,
      "##俱": 5568,
      "##狼": 5569,
      "##概": 5570,
      "##哈": 5571,
      "##治": 5572,
      "##刮": 5573,
      "##毕": 5574,
      "##趣": 5575,
      "##咬": 5576,
      "##逝": 5577,
      "##祖": 5578,
      "##歉": 5579,
      "##坛": 5580,
      "##尤": 5581,
      "##降": 5582,
      "##氏": 5583,
      "##趋": 5584,
      "##b": 5585,
      "##巧": 5586,
      "##执": 5587,
      "##召": 5588,
      "##柴": 5589,
      "##挟": 5590,
      "##尘": 5591,
      "##殿": 5592,
      "##躯": 5593,
      "##燃": 5594,
      "##铠": 5595,
      "##甲": 5596,
      "##拖": 5597,
      "##嗔": 5598,
      "##呀": 5599,
      "##杠": 5600,
      "##胸": 5601,
      "##脯": 5602,
      "##肌": 5603,
      "##鼓": 5604,
      "##私": 5605,
      "##护": 5606,
      "##诧": 5607,
      "##乏": 5608,
      "##董": 5609,
      "##遍": 5610,
      "##零": 5611,
      "##腥": 5612,
      "##婚": 5613,
      "##姻": 5614,
      "##羽": 5615,
      "##毛": 5616,
      "##玷": 5617,
      "##灰": 5618,
      "##缸": 5619,
      "##揿": 5620,
      "##姆": 5621,
      "##宗": 5622,
      "##晰": 5623,
      "##濑": 5624,
      "##拐": 5625,
      "##绿": 5626,
      "##拳": 5627,
      "##偷": 5628,
      "##税": 5629,
      "##漏": 5630,
      "##筐": 5631,
      "##捞": 5632,
      "##孔": 5633,
      "##宏": 5634,
      "##钉": 5635,
      "##疲": 5636,
      "##惫": 5637,
      "##泥": 5638,
      "##屑": 5639,
      "##畔": 5640,
      "##喽": 5641,
      "##纭": 5642,
      "##巷": 5643,
      "##倚": 5644,
      "##伫": 5645,
      "##潇": 5646,
      "##娇": 5647,
      "##艳": 5648,
      "##瓣": 5649,
      "##洒": 5650,
      "##稍": 5651,
      "##嗡": 5652,
      "##军": 5653,
      "##架": 5654,
      "##辟": 5655,
      "##竞": 5656,
      "##吵": 5657,
      "##扯": 5658,
      "##廊": 5659,
      "##裁": 5660,
      "##恰": 5661,
      "##匆": 5662,
      "##获": 5663,
      "##奖": 5664,
      "##臂": 5665,
      "##锻": 5666,
      "##筒": 5667,
      "##核": 5668,
      "##吨": 5669,
      "##n": 5670,
      "##聚": 5671,
      "##迎": 5672,
      "##掌": 5673,
      "##涯": 5674,
      "##尸": 5675,
      "##烙": 5676,
      "##讷": 5677,
      "##黎": 5678,
      "##塔": 5679,
      "##厦": 5680,
      "##碑": 5681,
      "##戈": 5682,
      "##滩": 5683,
      "##丘": 5684,
      "##笼": 5685,
      "##罩": 5686,
      "##窒": 5687,
      "##贼": 5688,
      "##妥": 5689,
      "##协": 5690,
      "##垂": 5691,
      "##挣": 5692,
      "##扎": 5693,
      "##损": 5694,
      "##潦": 5695,
      "##植": 5696,
      "##坏": 5697,
      "##庶": 5698,
      "##贫": 5699,
      "##瘠": 5700,
      "##秃": 5701,
      "##增": 5702,
      "##垦": 5703,
      "##秉": 5704,
      "##陌": 5705,
      "##禁": 5706,
      "##梵": 5707,
      "##蒂": 5708,
      "##冈": 5709,
      "##馆": 5710,
      "##杰": 5711,
      "##克": 5712,
      "##逊": 5713,
      "##曲": 5714,
      "##铺": 5715,
      "##泞": 5716,
      "##盛": 5717,
      "##抵": 5718,
      "##彼": 5719,
      "##铲": 5720,
      "##峙": 5721,
      "##赔": 5722,
      "##吕": 5723,
      "##醉": 5724,
      "##攀": 5725,
      "##浑": 5726,
      "##铜": 5727,
      "##径": 5728,
      "##齿": 5729,
      "##托": 5730,
      "##坑": 5731,
      "##奴": 5732,
      "##隶": 5733,
      "##芬": 5734,
      "##眯": 5735,
      "##赌": 5736,
      "##庸": 5737,
      "##枕": 5738,
      "##稿": 5739,
      "##份": 5740,
      "##魏": 5741,
      "##蛋": 5742,
      "##既": 5743,
      "##娘": 5744,
      "##奶": 5745,
      "##咒": 5746,
      "##昂": 5747,
      "##帽": 5748,
      "##擎": 5749,
      "##填": 5750,
      "##丸": 5751,
      "##慌": 5752,
      "##竖": 5753,
      "##凳": 5754,
      "##〇": 5755,
      "##默": 5756,
      "##凄": 5757,
      "##骨": 5758,
      "##悚": 5759,
      "##宅": 5760,
      "##赂": 5761,
      "##懂": 5762,
      "##o": 5763,
      "##凑": 5764,
      "##嘿": 5765,
      "##跌": 5766,
      "##诈": 5767,
      "##瞧": 5768,
      "##衔": 5769,
      "##喂": 5770,
      "##酷": 5771,
      "##焦": 5772,
      "##锥": 5773,
      "##刺": 5774,
      "##炽": 5775,
      "##恭": 5776,
      "##姓": 5777,
      "##笛": 5778,
      "##瑶": 5779,
      "##抡": 5780,
      "##镐": 5781,
      "##刨": 5782,
      "##牡": 5783,
      "##丹": 5784,
      "##秋": 5785,
      "##菏": 5786,
      "##泽": 5787,
      "##描": 5788,
      "##柯": 5789,
      "##豆": 5790,
      "##颜": 5791,
      "##登": 5792,
      "##踏": 5793,
      "##碾": 5794,
      "##验": 5795,
      "##乌": 5796,
      "##鸦": 5797,
      "##翅": 5798,
      "##膀": 5799,
      "##症": 5800,
      "##邻": 5801,
      "##居": 5802,
      "##疼": 5803,
      "##减": 5804,
      "##脱": 5805,
      "##脖": 5806,
      "##脉": 5807,
      "##嘶": 5808,
      "##农": 5809,
      "##饱": 5810,
      "##爹": 5811,
      "##乡": 5812,
      "##岂": 5813,
      "##牺": 5814,
      "##牲": 5815,
      "##漂": 5816,
      "##裸": 5817,
      "##货": 5818,
      "##糙": 5819,
      "##踩": 5820,
      "##吱": 5821,
      "##押": 5822,
      "##卖": 5823,
      "##借": 5824,
      "##耐": 5825,
      "##啷": 5826,
      "##捂": 5827,
      "##啐": 5828,
      "##罗": 5829,
      "##尖": 5830,
      "##冥": 5831,
      "##册": 5832,
      "##疾": 5833,
      "##倡": 5834,
      "##江": 5835,
      "##沦": 5836,
      "##岗": 5837,
      "##蠢": 5838,
      "##鼎": 5839,
      "##蔑": 5840,
      "##县": 5841,
      "##纠": 5842,
      "##赏": 5843,
      "##寸": 5844,
      "##遣": 5845,
      "##足": 5846,
      "##咽": 5847,
      "##汗": 5848,
      "##粉": 5849,
      "##柄": 5850,
      "##譬": 5851,
      "##渴": 5852,
      "##巡": 5853,
      "##征": 5854,
      "##衰": 5855,
      "##颓": 5856,
      "##耄": 5857,
      "##耋": 5858,
      "##洛": 5859,
      "##杉": 5860,
      "##矶": 5861,
      "##衅": 5862,
      "##讥": 5863,
      "##讽": 5864,
      "##纱": 5865,
      "##唱": 5866,
      "##侧": 5867,
      "##丛": 5868,
      "##堪": 5869,
      "##刹": 5870,
      "##扶": 5871,
      "##腔": 5872,
      "##拧": 5873,
      "##雾": 5874,
      "##圈": 5875,
      "##午": 5876,
      "##竹": 5877,
      "##哗": 5878,
      "##吻": 5879,
      "##驱": 5880,
      "##岔": 5881,
      "##抽": 5882,
      "##香": 5883,
      "##港": 5884,
      "##y": 5885,
      "##s": 5886,
      "##店": 5887,
      "##授": 5888,
      "##唐": 5889,
      "##愿": 5890,
      "##虹": 5891,
      "##莽": 5892,
      "##胁": 5893,
      "##帖": 5894,
      "##逐": 5895,
      "##谓": 5896,
      "##哑": 5897,
      "##输": 5898,
      "##撂": 5899,
      "##咧": 5900,
      "##嘹": 5901,
      "##棵": 5902,
      "##庙": 5903,
      "##轰": 5904,
      "##斧": 5905,
      "##锯": 5906,
      "##丫": 5907,
      "##绽": 5908,
      "##痕": 5909,
      "##弯": 5910,
      "##腰": 5911,
      "##拾": 5912,
      "##滤": 5913,
      "##逆": 5914,
      "##钥": 5915,
      "##匙": 5916,
      "##萎": 5917,
      "##缔": 5918,
      "##5": 5919,
      "##版": 5920,
      "##译": 5921,
      "##朽": 5922,
      "##辞": 5923,
      "##渡": 5924,
      "##携": 5925,
      "##噪": 5926,
      "##伏": 5927,
      "##魂": 5928,
      "##昧": 5929,
      "##编": 5930,
      "##席": 5931,
      "##拎": 5932,
      "##恢": 5933,
      "##蘑": 5934,
      "##菇": 5935,
      "##扩": 5936,
      "##浩": 5937,
      "##昨": 5938,
      "##狡": 5939,
      "##猾": 5940,
      "##蛛": 5941,
      "##筑": 5942,
      "##倍": 5943,
      "##庞": 5944,
      "##侵": 5945,
      "##占": 5946,
      "##述": 5947,
      "##脊": 5948,
      "##贷": 5949,
      "##锅": 5950,
      "##探": 5951,
      "##泛": 5952,
      "##z": 5953,
      "##吉": 5954,
      "##尼": 5955,
      "##亚": 5956,
      "##堤": 5957,
      "##兆": 5958,
      "##赫": 5959,
      "##鲸": 5960,
      "##π": 5961,
      "##ε": 5962,
      "##ⅱ": 5963,
      "##旅": 5964,
      "##博": 5965,
      "##亩": 5966,
      "##赤": 5967,
      "##佬": 5968,
      "##螃": 5969,
      "##蟹": 5970,
      "##霉": 5971,
      "##摧": 5972,
      "##蹙": 5973,
      "##佑": 5974,
      "##诵": 5975,
      "##吟": 5976,
      "##吩": 5977,
      "##咐": 5978,
      "##擦": 5979,
      "##拭": 5980,
      "##秀": 5981,
      "##详": 5982,
      "##朵": 5983,
      "##弧": 5984,
      "##歌": 5985,
      "##讼": 5986,
      "##困": 5987,
      "##弃": 5988,
      "##屈": 5989,
      "##扼": 5990,
      "##喉": 5991,
      "##洋": 5992,
      "##荧": 5993,
      "##肖": 5994,
      "##瞎": 5995,
      "##依": 5996,
      "##揍": 5997,
      "##汤": 5998,
      "##徒": 5999,
      "##赃": 6000,
      "##枉": 6001,
      "##谣": 6002,
      "##菲": 6003,
      "##祸": 6004,
      "##肾": 6005,
      "##捐": 6006,
      "##尿": 6007,
      "##冤": 6008,
      "##潭": 6009,
      "##额": 6010,
      "##纲": 6011,
      "##邪": 6012,
      "##惩": 6013,
      "##罚": 6014,
      "##圣": 6015,
      "##迟": 6016,
      "##裤": 6017,
      "##抹": 6018,
      "##唠": 6019,
      "##叨": 6020,
      "##嘱": 6021,
      "##捷": 6022,
      "##儒": 6023,
      "##贮": 6024,
      "##瓶": 6025,
      "##颈": 6026,
      "##琼": 6027,
      "##夺": 6028,
      "##宝": 6029,
      "##旧": 6030,
      "##梭": 6031,
      "##苏": 6032,
      "##炳": 6033,
      "##添": 6034,
      "##奥": 6035,
      "##慨": 6036,
      "##彰": 6037,
      "##唬": 6038,
      "##闷": 6039,
      "##互": 6040,
      "##搀": 6041,
      "##甬": 6042,
      "##踉": 6043,
      "##跄": 6044,
      "##盈": 6045,
      "##猫": 6046,
      "##俄": 6047,
      "##姑": 6048,
      "##莎": 6049,
      "##嗝": 6050,
      "##怨": 6051,
      "##醋": 6052,
      "##梢": 6053,
      "##绒": 6054,
      "##毯": 6055,
      "##衬": 6056,
      "##闯": 6057,
      "##辈": 6058,
      "##慈": 6059,
      "##祥": 6060,
      "##褪": 6061,
      "##膏": 6062,
      "##桶": 6063,
      "##盥": 6064,
      "##泼": 6065,
      "##褥": 6066,
      "##紊": 6067,
      "##扔": 6068,
      "##顽": 6069,
      "##雅": 6070,
      "##怜": 6071,
      "##刑": 6072,
      "##谦": 6073,
      "##胜": 6074,
      "##馁": 6075,
      "##韩": 6076,
      "##浇": 6077,
      "##晓": 6078,
      "##韧": 6079,
      "##载": 6080,
      "##跋": 6081,
      "##诱": 6082,
      "##撒": 6083,
      "##萌": 6084,
      "##烛": 6085,
      "##劣": 6086,
      "##牙": 6087,
      "##曙": 6088,
      "##畜": 6089,
      "##愧": 6090,
      "##疚": 6091,
      "##票": 6092,
      "##鞋": 6093,
      "##悦": 6094,
      "##翼": 6095,
      "##询": 6096,
      "##粝": 6097,
      "##掠": 6098,
      "##睑": 6099,
      "##淳": 6100,
      "##锐": 6101,
      "##澈": 6102,
      "##滋": 6103,
      "##铃": 6104,
      "##租": 6105,
      "##玻": 6106,
      "##璃": 6107,
      "##忡": 6108,
      "##针": 6109,
      "##杏": 6110,
      "##昔": 6111,
      "##岛": 6112,
      "##拒": 6113,
      "##祈": 6114,
      "##循": 6115,
      "##媚": 6116,
      "##拇": 6117,
      "##厨": 6118,
      "##窘": 6119,
      "##缝": 6120,
      "##善": 6121,
      "##共": 6122,
      "##宜": 6123,
      "##逢": 6124,
      "##践": 6125,
      "##誓": 6126,
      "##爬": 6127,
      "##懑": 6128,
      "##溃": 6129,
      "##狮": 6130,
      "##腑": 6131,
      "##迢": 6132,
      "##盗": 6133,
      "##犟": 6134,
      "##寐": 6135,
      "##诏": 6136,
      "##卤": 6137,
      "##淘": 6138,
      "##款": 6139,
      "##饵": 6140,
      "##·": 6141,
      "##兰": 6142,
      "##肥": 6143,
      "##惦": 6144,
      "##矛": 6145,
      "##盾": 6146,
      "##遏": 6147,
      "##吼": 6148,
      "##逮": 6149,
      "##堡": 6150,
      "##垒": 6151,
      "##瓦": 6152,
      "##裙": 6153,
      "##付": 6154,
      "##夭": 6155,
      "##蛇": 6156,
      "##蠕": 6157,
      "##锤": 6158,
      "##苹": 6159,
      "##烤": 6160,
      "##啤": 6161,
      "##苗": 6162,
      "##寓": 6163,
      "##驶": 6164,
      "##暑": 6165,
      "##姨": 6166,
      "##脚": 6167,
      "##扑": 6168,
      "##劲": 6169,
      "##鼠": 6170,
      "##忌": 6171,
      "##钞": 6172,
      "##啸": 6173,
      "##痴": 6174,
      "##膜": 6175,
      "##涓": 6176,
      "##欣": 6177,
      "##独": 6178,
      "##奸": 6179,
      "##堵": 6180,
      "##焉": 6181,
      "##雇": 6182,
      "##帆": 6183,
      "##沧": 6184,
      "##鹅": 6185,
      "##梨": 6186,
      "##净": 6187,
      "##夸": 6188,
      "##蒲": 6189,
      "##憾": 6190,
      "##库": 6191,
      "##橄": 6192,
      "##榄": 6193,
      "##桑": 6194,
      "##贴": 6195,
      "##喷": 6196,
      "##驾": 6197,
      "##卧": 6198,
      "##拦": 6199,
      "##酪": 6200,
      "##鳞": 6201,
      "##曹": 6202,
      "##厌": 6203,
      "##耸": 6204,
      "##薪": 6205,
      "##尝": 6206,
      "##斤": 6207,
      "##伞": 6208,
      "##辛": 6209,
      "##淋": 6210,
      "##砚": 6211,
      "##蘸": 6212,
      "##袋": 6213,
      "##掏": 6214,
      "##朕": 6215,
      "##懈": 6216,
      "##憧": 6217,
      "##憬": 6218,
      "##袁": 6219,
      "##隆": 6220,
      "##稻": 6221,
      "##勤": 6222,
      "##覆": 6223,
      "##禾": 6224,
      "##斥": 6225,
      "##迂": 6226,
      "##棋": 6227,
      "##庄": 6228,
      "##棍": 6229,
      "##赖": 6230,
      "##忖": 6231,
      "##兢": 6232,
      "##潮": 6233,
      "##珠": 6234,
      "##溜": 6235,
      "##惕": 6236,
      "##痦": 6237,
      "##逻": 6238,
      "##辑": 6239,
      "##崇": 6240,
      "##喘": 6241,
      "##弛": 6242,
      "##戒": 6243,
      "##嘻": 6244,
      "##薯": 6245,
      "##吾": 6246,
      "##赴": 6247,
      "##u": 6248,
      "##洪": 6249,
      "##渗": 6250,
      "##隙": 6251,
      "##愣": 6252,
      "##侃": 6253,
      "##购": 6254,
      "##锦": 6255,
      "##绣": 6256,
      "##矿": 6257,
      "##斡": 6258,
      "##申": 6259,
      "##囊": 6260,
      "##摘": 6261,
      "##噩": 6262,
      "##址": 6263,
      "##懒": 6264,
      "##遁": 6265,
      "##僧": 6266,
      "##壕": 6267,
      "##宵": 6268,
      "##瞭": 6269,
      "##挎": 6270,
      "##颔": 6271,
      "##俨": 6272,
      "##拂": 6273,
      "##塌": 6274,
      "##舍": 6275,
      "##剪": 6276,
      "##茂": 6277,
      "##乔": 6278,
      "##爽": 6279,
      "##杜": 6280,
      "##伯": 6281,
      "##仲": 6282,
      "##瘾": 6283,
      "##怯": 6284,
      "##懦": 6285,
      "##兽": 6286,
      "##膛": 6287,
      "##芒": 6288,
      "##碳": 6289,
      "##熄": 6290,
      "##霸": 6291,
      "##邦": 6292,
      "##贤": 6293,
      "##诸": 6294,
      "##诬": 6295,
      "##杳": 6296,
      "##嫂": 6297,
      "##蒋": 6298,
      "##哨": 6299,
      "##柜": 6300,
      "##扳": 6301,
      "##辽": 6302,
      "##亭": 6303,
      "##仓": 6304,
      "##斜": 6305,
      "##葱": 6306,
      "##摄": 6307,
      "##搓": 6308,
      "##愁": 6309,
      "##蚀": 6310,
      "##艘": 6311,
      "##±": 6312,
      "##胃": 6313,
      "##衡": 6314,
      "##篝": 6315,
      "##御": 6316,
      "##擂": 6317,
      "##煮": 6318,
      "##鸭": 6319,
      "##傍": 6320,
      "##挽": 6321,
      "##骚": 6322,
      "##宫": 6323,
      "##葆": 6324,
      "##炷": 6325,
      "##摞": 6326,
      "##馒": 6327,
      "##咸": 6328,
      "##啃": 6329,
      "##匕": 6330,
      "##符": 6331,
      "##叛": 6332,
      "##孕": 6333,
      "##猪": 6334,
      "##浴": 6335,
      "##徐": 6336,
      "##桥": 6337,
      "##邃": 6338,
      "##叔": 6339,
      "##剂": 6340,
      "##挨": 6341,
      "##镇": 6342,
      "##饰": 6343,
      "##绳": 6344,
      "##予": 6345,
      "##谎": 6346,
      "##倾": 6347,
      "##侍": 6348,
      "##袒": 6349,
      "##妃": 6350,
      "##妓": 6351,
      "##酥": 6352,
      "##捏": 6353,
      "##澄": 6354,
      "##锵": 6355,
      "##瘫": 6356,
      "##拣": 6357,
      "##仙": 6358,
      "##鄙": 6359,
      "##夷": 6360,
      "##袤": 6361,
      "##缤": 6362,
      "##宛": 6363,
      "##卸": 6364,
      "##妆": 6365,
      "##凛": 6366,
      "##冽": 6367,
      "##芜": 6368,
      "##绷": 6369,
      "##搁": 6370,
      "##浅": 6371,
      "##啼": 6372,
      "##滥": 6373,
      "##荷": 6374,
      "##莲": 6375,
      "##毙": 6376,
      "##叼": 6377,
      "##狙": 6378,
      "##瞄": 6379,
      "##骷": 6380,
      "##髅": 6381,
      "##姿": 6382,
      "##颚": 6383,
      "##抚": 6384,
      "##愕": 6385,
      "##诫": 6386,
      "##绵": 6387,
      "##蜊": 6388,
      "##嫁": 6389,
      "##弩": 6390,
      "##肺": 6391,
      "##侥": 6392,
      "##仗": 6393,
      "##缆": 6394,
      "##泊": 6395,
      "##川": 6396,
      "##袅": 6397,
      "##颊": 6398,
      "##酵": 6399,
      "##稽": 6400,
      "##婪": 6401,
      "##妨": 6402,
      "##翁": 6403,
      "##崛": 6404,
      "##愈": 6405,
      "##祟": 6406,
      "##搂": 6407,
      "##甜": 6408,
      "##蜜": 6409,
      "##喃": 6410,
      "##津": 6411,
      "##巢": 6412,
      "##渊": 6413,
      "##挪": 6414,
      "##戛": 6415,
      "##遥": 6416,
      "##泳": 6417,
      "##墩": 6418,
      "##刃": 6419,
      "##咳": 6420,
      "##_": 6421,
      "##滂": 6422,
      "##沱": 6423,
      "##尉": 6424,
      "##佳": 6425,
      "##咙": 6426,
      "##盹": 6427,
      "##宾": 6428,
      "##晌": 6429,
      "##聒": 6430,
      "##蝉": 6431,
      "##焕": 6432,
      "##荫": 6433,
      "##葩": 6434,
      "##蓄": 6435,
      "##闺": 6436,
      "##辍": 6437,
      "##拼": 6438,
      "##咝": 6439,
      "##魆": 6440,
      "##欸": 6441,
      "##暧": 6442,
      "##玫": 6443,
      "##瑰": 6444,
      "##湾": 6445,
      "##池": 6446,
      "##奏": 6447,
      "##谴": 6448,
      "##棕": 6449,
      "##尚": 6450,
      "##梁": 6451,
      "##璐": 6452,
      "##霄": 6453,
      "##寞": 6454,
      "##盼": 6455,
      "##颠": 6456,
      "##垃": 6457,
      "##圾": 6458,
      "##鲁": 6459,
      "##浏": 6460,
      "##汛": 6461,
      "##坷": 6462,
      "##舟": 6463,
      "##x": 6464,
      "##跨": 6465,
      "##濒": 6466,
      "##涟": 6467,
      "##跪": 6468,
      "##盐": 6469,
      "##唉": 6470,
      "##栈": 6471,
      "##霭": 6472,
      "##婀": 6473,
      "##娜": 6474,
      "##赦": 6475,
      "##潜": 6476,
      "##惭": 6477,
      "##卑": 6478,
      "##膨": 6479,
      "##胀": 6480,
      "##销": 6481,
      "##疗": 6482,
      "##菌": 6483,
      "##裔": 6484,
      "##壑": 6485,
      "##砌": 6486,
      "##溏": 6487,
      "##甘": 6488,
      "##胯": 6489,
      "##辱": 6490,
      "##赋": 6491,
      "##韵": 6492,
      "##宰": 6493,
      "##刎": 6494,
      "##君": 6495,
      "##碌": 6496,
      "##钝": 6497,
      "##逾": 6498,
      "##旬": 6499,
      "##弓": 6500,
      "##匣": 6501,
      "##礁": 6502,
      "##黏": 6503,
      "##稠": 6504,
      "##沥": 6505,
      "##涤": 6506,
      "##浆": 6507,
      "##粘": 6508,
      "##夕": 6509,
      "##凯": 6510,
      "##仁": 6511,
      "##耻": 6512,
      "##觑": 6513,
      "##槐": 6514,
      "##趴": 6515,
      "##咖": 6516,
      "##啡": 6517,
      "##遵": 6518,
      "##衷": 6519,
      "##诟": 6520,
      "##币": 6521,
      "##粼": 6522,
      "##炫": 6523,
      "##昵": 6524,
      "##贩": 6525,
      "##媳": 6526,
      "##傻": 6527,
      "##锢": 6528,
      "##狭": 6529,
      "##沟": 6530,
      "##砸": 6531,
      "##眶": 6532,
      "##掺": 6533,
      "##谭": 6534,
      "##迭": 6535,
      "##侄": 6536,
      "##掘": 6537,
      "##墓": 6538,
      "##庇": 6539,
      "##卒": 6540,
      "##苛": 6541,
      "##;": 6542,
      "##绑": 6543,
      "##纯": 6544,
      "##呜": 6545,
      "##冠": 6546,
      "##遂": 6547,
      "##媒": 6548,
      "##畅": 6549,
      "##埃": 6550,
      "##粮": 6551,
      "##饿": 6552,
      "##憎": 6553,
      "##惺": 6554,
      "##忪": 6555,
      "##钮": 6556,
      "##卜": 6557,
      "##咔": 6558,
      "##嚓": 6559,
      "##涩": 6560,
      "##腹": 6561,
      "##锲": 6562,
      "##毅": 6563,
      "##籼": 6564,
      "##挠": 6565,
      "##迪": 6566,
      "##蜚": 6567,
      "##镭": 6568,
      "##擅": 6569,
      "##葬": 6570,
      "##袖": 6571,
      "##嗯": 6572,
      "##拢": 6573,
      "##尴": 6574,
      "##尬": 6575,
      "##斟": 6576,
      "##鸿": 6577,
      "##慷": 6578,
      "##讹": 6579,
      "##噜": 6580,
      "##芦": 6581,
      "##苇": 6582,
      "##竿": 6583,
      "##钓": 6584,
      "##钩": 6585,
      "##拄": 6586,
      "##刁": 6587,
      "##仆": 6588,
      "##悼": 6589,
      "##揉": 6590,
      "##巾": 6591,
      "##轿": 6592,
      "##朗": 6593,
      "##吁": 6594,
      "##叽": 6595,
      "##喳": 6596,
      "##驻": 6597,
      "##呷": 6598,
      "##霏": 6599,
      "##磕": 6600,
      "##绊": 6601,
      "##舱": 6602,
      "##倦": 6603,
      "##侈": 6604,
      "##奢": 6605,
      "##梳": 6606,
      "##踝": 6607,
      "##袜": 6608,
      "##跚": 6609,
      "##瀑": 6610,
      "##孝": 6611,
      "##桐": 6612,
      "##融": 6613,
      "##哼": 6614,
      "##谐": 6615,
      "##砖": 6616,
      "##蚂": 6617,
      "##蚁": 6618,
      "##蜡": 6619,
      "##株": 6620,
      "##踱": 6621,
      "##榭": 6622,
      "##］": 6623,
      "##陕": 6624,
      "##壤": 6625,
      "##佩": 6626,
      "##啄": 6627,
      "##妮": 6628,
      "##粱": 6629,
      "##渣": 6630,
      "##旺": 6631,
      "##哺": 6632,
      "##乳": 6633,
      "##*": 6634,
      "##羡": 6635,
      "##慕": 6636,
      "##狗": 6637,
      "##涨": 6638,
      "##隧": 6639,
      "##椎": 6640,
      "##q": 6641,
      "##哟": 6642,
      "##腕": 6643,
      "##丑": 6644,
      "##陋": 6645,
      "##涵": 6646,
      "##猿": 6647,
      "##幢": 6648,
      "##绚": 6649,
      "##愉": 6650,
      "##削": 6651,
      "##辅": 6652,
      "##郊": 6653,
      "##汁": 6654,
      "##渠": 6655,
      "##综": 6656,
      "##咯": 6657,
      "##噔": 6658,
      "##筝": 6659,
      "##耽": 6660,
      "##皙": 6661,
      "##蜷": 6662,
      "##窦": 6663,
      "##矢": 6664,
      "##茵": 6665,
      "##藉": 6666,
      "##栗": 6667,
      "##妖": 6668,
      "##娆": 6669,
      "##掀": 6670,
      "##锹": 6671,
      "##黯": 6672,
      "##眸": 6673,
      "##盲": 6674,
      "##瞟": 6675,
      "##抻": 6676,
      "##荆": 6677,
      "##斩": 6678,
      "##棘": 6679,
      "##戚": 6680,
      "##逍": 6681,
      "##倭": 6682,
      "##寇": 6683,
      "##赠": 6684,
      "##燕": 6685,
      "##褐": 6686,
      "##徙": 6687,
      "##返": 6688,
      "##甸": 6689,
      "##脾": 6690,
      "##磊": 6691,
      "##窃": 6692,
      "##盏": 6693,
      "##伪": 6694,
      "##熏": 6695,
      "##瞳": 6696,
      "##婵": 6697,
      "##湛": 6698,
      "##鞘": 6699,
      "##炎": 6700,
      "##凿": 6701,
      "##榜": 6702,
      "##营": 6703,
      "##轼": 6704,
      "##贬": 6705,
      "##豁": 6706,
      "##暇": 6707,
      "##ⅰ": 6708,
      "##ⅲ": 6709,
      "##～": 6710,
      "##蚊": 6711,
      "##姣": 6712,
      "##岳": 6713,
      "##婿": 6714,
      "##徇": 6715,
      "##弊": 6716,
      "##娱": 6717,
      "##缠": 6718,
      "##绞": 6719,
      "##璧": 6720,
      "##宋": 6721,
      "##漓": 6722,
      "##屡": 6723,
      "##婊": 6724,
      "##兮": 6725,
      "##蒸": 6726,
      "##耗": 6727,
      "##郎": 6728,
      "##扮": 6729,
      "##肴": 6730,
      "##贝": 6731,
      "##驴": 6732,
      "##肝": 6733,
      "##鞠": 6734,
      "##躬": 6735,
      "##崽": 6736,
      "##肋": 6737,
      "##函": 6738,
      "##坍": 6739,
      "##猖": 6740,
      "##晦": 6741,
      "##谬": 6742,
      "##喻": 6743,
      "##翩": 6744,
      "##纰": 6745,
      "##诣": 6746,
      "##欠": 6747,
      "##赎": 6748,
      "##割": 6749,
      "##轴": 6750,
      "##炕": 6751,
      "##扣": 6752,
      "##莹": 6753,
      "##缀": 6754,
      "##蛮": 6755,
      "##涸": 6756,
      "##漉": 6757,
      "##悍": 6758,
      "##咀": 6759,
      "##嚼": 6760,
      "##撺": 6761,
      "##掇": 6762,
      "##窍": 6763,
      "##驯": 6764,
      "##屌": 6765,
      "##枚": 6766,
      "##掐": 6767,
      "##缉": 6768,
      "##芳": 6769,
      "##辖": 6770,
      "##陨": 6771,
      "##仕": 6772,
      "##姥": 6773,
      "##憋": 6774,
      "##绅": 6775,
      "##寺": 6776,
      "##辜": 6777,
      "##矫": 6778,
      "##甫": 6779,
      "##俘": 6780,
      "##呐": 6781,
      "##弗": 6782,
      "##闸": 6783,
      "##鹤": 6784,
      "##僚": 6785,
      "##彭": 6786,
      "##驮": 6787,
      "##盆": 6788,
      "##绸": 6789,
      "##缪": 6790,
      "##苟": 6791,
      "##戊": 6792,
      "##戌": 6793,
      "##嗣": 6794,
      "##笃": 6795,
      "##汐": 6796,
      "##撼": 6797,
      "##魄": 6798,
      "##灼": 6799,
      "##藕": 6800,
      "##籍": 6801,
      "##勿": 6802,
      "##谑": 6803,
      "##沾": 6804,
      "##姗": 6805,
      "##柬": 6806,
      "##吊": 6807,
      "##奉": 6808,
      "##旨": 6809,
      "##揖": 6810,
      "##虔": 6811,
      "##募": 6812,
      "##陀": 6813,
      "##遛": 6814,
      "##袱": 6815,
      "##莺": 6816,
      "##胞": 6817,
      "##胎": 6818,
      "##膝": 6819,
      "##耿": 6820,
      "##臭": 6821,
      "##撮": 6822,
      "##蓬": 6823,
      "##缭": 6824,
      "##衫": 6825,
      "##垫": 6826,
      "##饥": 6827,
      "##眬": 6828,
      "##茨": 6829,
      "##燎": 6830,
      "##爪": 6831,
      "##歧": 6832,
      "##棒": 6833,
      "##涕": 6834,
      "##攥": 6835,
      "##甭": 6836,
      "##袍": 6837,
      "##惬": 6838,
      "##噤": 6839,
      "##魅": 6840,
      "##蹦": 6841,
      "##烽": 6842,
      "##俊": 6843,
      "##爵": 6844,
      "##噙": 6845,
      "##瞥": 6846,
      "##俑": 6847,
      "##桂": 6848,
      "##劫": 6849,
      "##蝴": 6850,
      "##蝶": 6851,
      "##棱": 6852,
      "##沌": 6853,
      "##铆": 6854,
      "##蕴": 6855,
      "##讶": 6856,
      "##怡": 6857,
      "##恓": 6858,
      "##虐": 6859,
      "##耕": 6860,
      "##颂": 6861,
      "##剥": 6862,
      "##紫": 6863,
      "##砂": 6864,
      "##壶": 6865,
      "##嫖": 6866,
      "##娼": 6867,
      "##愚": 6868,
      "##睦": 6869,
      "##绎": 6870,
      "##拓": 6871,
      "##届": 6872,
      "##谊": 6873,
      "##咚": 6874,
      "##霆": 6875,
      "##钧": 6876,
      "##戳": 6877,
      "##兹": 6878,
      "##邮": 6879,
      "##碴": 6880,
      "##憔": 6881,
      "##悴": 6882,
      "##瑟": 6883,
      "##蜀": 6884,
      "##羞": 6885,
      "##姚": 6886,
      "##匿": 6887,
      "##遐": 6888,
      "##迩": 6889,
      "##屹": 6890,
      "##枢": 6891,
      "##痒": 6892,
      "##浜": 6893,
      "##瘴": 6894,
      "##宠": 6895,
      "##砾": 6896,
      "##漠": 6897,
      "##绘": 6898,
      "##帕": 6899,
      "##聘": 6900,
      "##恤": 6901,
      "##肢": 6902,
      "##蹴": 6903,
      "##祷": 6904,
      "##呛": 6905,
      "##滨": 6906,
      "##赚": 6907,
      "##&": 6908,
      "##扉": 6909,
      "##坤": 6910,
      "##栖": 6911,
      "##皎": 6912,
      "##篱": 6913,
      "##笆": 6914,
      "##慵": 6915,
      "##熬": 6916,
      "##阙": 6917,
      "##拱": 6918,
      "##硕": 6919,
      "##竭": 6920,
      "##垣": 6921,
      "##瞒": 6922,
      "##艇": 6923,
      "##陶": 6924,
      "##罐": 6925,
      "##伺": 6926,
      "##跘": 6927,
      "##溺": 6928,
      "##澜": 6929,
      "##戟": 6930,
      "##腮": 6931,
      "##倘": 6932,
      "##叮": 6933,
      "##咛": 6934,
      "##谅": 6935,
      "##怂": 6936,
      "##恿": 6937,
      "##肆": 6938,
      "##澳": 6939,
      "##葡": 6940,
      "##萄": 6941,
      "##偌": 6942,
      "##囤": 6943,
      "##垮": 6944,
      "##翘": 6945,
      "##渺": 6946,
      "##浦": 6947,
      "##晋": 6948,
      "##缥": 6949,
      "##缈": 6950,
      "##鞅": 6951,
      "##励": 6952,
      "##葛": 6953,
      "##瘁": 6954,
      "##窖": 6955,
      "##瞠": 6956,
      "##舌": 6957,
      "##恋": 6958,
      "##姬": 6959,
      "##渎": 6960,
      "##炬": 6961,
      "##曳": 6962,
      "##炒": 6963,
      "##疟": 6964,
      "##湘": 6965,
      "##颁": 6966,
      "##乒": 6967,
      "##乓": 6968,
      "##唇": 6969,
      "##踢": 6970,
      "##嗅": 6971,
      "##寥": 6972,
      "##乾": 6973,
      "##辰": 6974,
      "##瞑": 6975,
      "##燥": 6976,
      "##粥": 6977,
      "##拌": 6978,
      "##糖": 6979,
      "##瘙": 6980,
      "##礅": 6981,
      "##芯": 6982,
      "##骏": 6983,
      "##霓": 6984,
      "##兀": 6985,
      "##蚯": 6986,
      "##蚓": 6987,
      "##忐": 6988,
      "##忑": 6989,
      "##磅": 6990,
      "##礴": 6991,
      "##鸽": 6992,
      "##肇": 6993,
      "##酶": 6994,
      "##疫": 6995,
      "##嘟": 6996,
      "##呓": 6997,
      "##痹": 6998,
      "##狐": 6999,
      "##狸": 7000,
      "##揽": 7001,
      "##蔬": 7002,
      "##甥": 7003,
      "##舅": 7004,
      "##舵": 7005,
      "##帐": 7006,
      "##恃": 7007,
      "##攸": 7008,
      "##嫦": 7009,
      "##娥": 7010,
      "##蛟": 7011,
      "##鳖": 7012,
      "##惟": 7013,
      "##贺": 7014,
      "##炮": 7015,
      "##汹": 7016,
      "##睽": 7017,
      "##辨": 7018,
      "##冶": 7019,
      "##熔": 7020,
      "##署": 7021,
      "##碗": 7022,
      "##锏": 7023,
      "##涛": 7024,
      "##蔚": 7025,
      "##氓": 7026,
      "##暨": 7027,
      "##咣": 7028,
      "##魁": 7029,
      "##蹑": 7030,
      "##曝": 7031,
      "##晒": 7032,
      "##娑": 7033,
      "##婉": 7034,
      "##跹": 7035,
      "##臆": 7036,
      "##徘": 7037,
      "##徊": 7038,
      "##裳": 7039,
      "##熙": 7040,
      "##攘": 7041,
      "##啧": 7042,
      "##氢": 7043,
      "##谙": 7044,
      "##汰": 7045,
      "##萧": 7046,
      "##勋": 7047,
      "##梅": 7048,
      "##喵": 7049,
      "##馨": 7050,
      "##魇": 7051,
      "##嗤": 7052,
      "##褶": 7053,
      "##盎": 7054,
      "##峡": 7055,
      "##蜘": 7056,
      "##筷": 7057,
      "##妞": 7058,
      "##伦": 7059,
      "##迈": 7060,
      "##筹": 7061,
      "##鬓": 7062,
      "##骥": 7063,
      "##枥": 7064,
      "##蒜": 7065,
      "##锣": 7066,
      "##瞻": 7067,
      "##庖": 7068,
      "##捻": 7069,
      "##誊": 7070,
      "##趟": 7071,
      "##酱": 7072,
      "##彪": 7073,
      "##蹄": 7074,
      "##漱": 7075,
      "##娓": 7076,
      "##狍": 7077,
      "##蜂": 7078,
      "##宪": 7079,
      "##堕": 7080,
      "##羁": 7081,
      "##揣": 7082,
      "##摩": 7083,
      "##乍": 7084,
      "##倪": 7085,
      "##窜": 7086,
      "##螺": 7087,
      "##桨": 7088,
      "##札": 7089,
      "##牢": 7090,
      "##§": 7091,
      "##觅": 7092,
      "##鹏": 7093,
      "##喏": 7094,
      "##嶙": 7095,
      "##峋": 7096,
      "##遒": 7097,
      "##晖": 7098,
      "##撰": 7099,
      "##兑": 7100,
      "##沽": 7101,
      "##剖": 7102,
      "##噼": 7103,
      "##撇": 7104,
      "##羔": 7105,
      "##菩": 7106,
      "##萨": 7107,
      "##俞": 7108,
      "##奠": 7109,
      "##赐": 7110,
      "##辣": 7111,
      "##酬": 7112,
      "##粪": 7113,
      "##霎": 7114,
      "##葵": 7115,
      "##煞": 7116,
      "##汲": 7117,
      "##粹": 7118,
      "##嬉": 7119,
      "##纂": 7120,
      "##贸": 7121,
      "##售": 7122,
      "##铐": 7123,
      "##跻": 7124,
      "##谱": 7125,
      "##契": 7126,
      "##悻": 7127,
      "##轧": 7128,
      "##拽": 7129,
      "##饷": 7130,
      "##俸": 7131,
      "##靖": 7132,
      "##倔": 7133,
      "##惆": 7134,
      "##怅": 7135,
      "##敝": 7136,
      "##屣": 7137,
      "##泣": 7138,
      "##娄": 7139,
      "##贞": 7140,
      "##炙": 7141,
      "##狰": 7142,
      "##狞": 7143,
      "##链": 7144,
      "##靡": 7145,
      "##吆": 7146,
      "##卉": 7147,
      "##锨": 7148,
      "##耙": 7149,
      "##腊": 7150,
      "##崭": 7151,
      "##沁": 7152,
      "##坞": 7153,
      "##卵": 7154,
      "##篑": 7155,
      "##瞩": 7156,
      "##舆": 7157,
      "##甄": 7158,
      "##诠": 7159,
      "##撩": 7160,
      "##窥": 7161,
      "##讧": 7162,
      "##掖": 7163,
      "##咦": 7164,
      "##删": 7165,
      "##氧": 7166,
      "##臀": 7167,
      "##凹": 7168,
      "##凸": 7169,
      "##橱": 7170,
      "##癫": 7171,
      "##溶": 7172,
      "##萃": 7173,
      "##绢": 7174,
      "##髓": 7175,
      "##潍": 7176,
      "##坊": 7177,
      "##巩": 7178,
      "##哉": 7179,
      "##痪": 7180,
      "##掮": 7181,
      "##檐": 7182,
      "##幌": 7183,
      "##诀": 7184,
      "##储": 7185,
      "##嚣": 7186,
      "##溢": 7187,
      "##阈": 7188,
      "##焊": 7189,
      "##叉": 7190,
      "##愎": 7191,
      "##侬": 7192,
      "##绰": 7193,
      "##萦": 7194,
      "##颖": 7195,
      "##筛": 7196,
      "##巍": 7197,
      "##懊": 7198,
      "##淅": 7199,
      "##洼": 7200,
      "##樱": 7201,
      "##馅": 7202,
      "##饼": 7203,
      "##茬": 7204,
      "##蛔": 7205,
      "##踞": 7206,
      "##蹿": 7207,
      "##柞": 7208,
      "##皴": 7209,
      "##茗": 7210,
      "##盟": 7211,
      "##嬴": 7212,
      "##淤": 7213,
      "##渔": 7214,
      "##菱": 7215,
      "##踮": 7216,
      "##翠": 7217,
      "##煦": 7218,
      "##犬": 7219,
      "##恫": 7220,
      "##惠": 7221,
      "##蕞": 7222,
      "##恻": 7223,
      "##暮": 7224,
      "##峨": 7225,
      "##蓑": 7226,
      "##@": 7227,
      "##侠": 7228,
      "##怠": 7229,
      "##宕": 7230,
      "##篓": 7231,
      "##啜": 7232,
      "##瘪": 7233,
      "##洽": 7234,
      "##羲": 7235,
      "##乖": 7236,
      "##戾": 7237,
      "##咎": 7238,
      "##酝": 7239,
      "##酿": 7240,
      "##旱": 7241,
      "##嫣": 7242,
      "##咿": 7243,
      "##哇": 7244,
      "##秩": 7245,
      "##湍": 7246,
      "##腚": 7247,
      "##讪": 7248,
      "##颅": 7249,
      "##蜿": 7250,
      "##蜒": 7251,
      "##哒": 7252,
      "##锃": 7253,
      "##厢": 7254,
      "##毋": 7255,
      "##铭": 7256,
      "##馈": 7257,
      "##疙": 7258,
      "##瘩": 7259,
      "##痿": 7260,
      "##捍": 7261,
      "##呕": 7262,
      "##沆": 7263,
      "##瀣": 7264,
      "##洙": 7265,
      "##惮": 7266,
      "##灸": 7267,
      "##橘": 7268,
      "##黛": 7269,
      "##渲": 7270,
      "##烘": 7271,
      "##瑜": 7272,
      "##剿": 7273,
      "##朱": 7274,
      "##觊": 7275,
      "##觎": 7276,
      "##钦": 7277,
      "##蹒": 7278,
      "##厮": 7279,
      "##湮": 7280,
      "##昆": 7281,
      "##矗": 7282,
      "##亘": 7283,
      "##唧": 7284,
      "##裕": 7285,
      "##窑": 7286,
      "##嗽": 7287,
      "##肿": 7288,
      "##仑": 7289,
      "##垠": 7290,
      "##镰": 7291,
      "##怆": 7292,
      "##酌": 7293,
      "##雁": 7294,
      "##漪": 7295,
      "##恕": 7296,
      "##孽": 7297,
      "##畸": 7298,
      "##逸": 7299,
      "##剐": 7300,
      "##奕": 7301,
      "##凋": 7302,
      "##役": 7303,
      "##扁": 7304,
      "##轩": 7305,
      "##沓": 7306,
      "##奓": 7307,
      "##浊": 7308,
      "##棚": 7309,
      "##骇": 7310,
      "##噬": 7311,
      "##蕾": 7312,
      "##畦": 7313,
      "##椭": 7314,
      "##膺": 7315,
      "##昭": 7316,
      "##肘": 7317,
      "##邸": 7318,
      "##嘈": 7319,
      "##剔": 7320,
      "##苑": 7321,
      "##棺": 7322,
      "##赝": 7323,
      "##芽": 7324,
      "##囱": 7325,
      "##槛": 7326,
      "##茎": 7327,
      "##晷": 7328,
      "##翕": 7329,
      "##羟": 7330,
      "##囔": 7331,
      "##蜗": 7332,
      "##稼": 7333,
      "##悸": 7334,
      "##簧": 7335,
      "##秤": 7336,
      "##擒": 7337,
      "##濯": 7338,
      "##皓": 7339,
      "##捎": 7340,
      "##禀": 7341,
      "##娶": 7342,
      "##舷": 7343,
      "##漾": 7344,
      "##瀚": 7345,
      "##啾": 7346,
      "##眷": 7347,
      "##萝": 7348,
      "##缰": 7349,
      "##㶷": 7350,
      "##濡": 7351,
      "##沫": 7352,
      "##嗒": 7353,
      "##吭": 7354,
      "##阜": 7355,
      "##囡": 7356,
      "##氤": 7357,
      "##℃": 7358,
      "##氮": 7359,
      "##诩": 7360,
      "##谩": 7361,
      "##闽": 7362,
      "##庐": 7363,
      "##睿": 7364,
      "##踵": 7365,
      "##潺": 7366,
      "##慑": 7367,
      "##舶": 7368,
      "##姜": 7369,
      "##濂": 7370,
      "##渝": 7371,
      "##+": 7372,
      "##涧": 7373,
      "##擀": 7374,
      "##杖": 7375,
      "##樟": 7376,
      "##榆": 7377,
      "##栎": 7378,
      "##卦": 7379,
      "##纬": 7380,
      "##厄": 7381,
      "##祼": 7382,
      "##肮": 7383,
      "##冗": 7384,
      "##淬": 7385,
      "##]": 7386,
      "##妩": 7387,
      "##叱": 7388,
      "##呯": 7389,
      "##鲤": 7390,
      "##遨": 7391,
      "##捆": 7392,
      "##飓": 7393,
      "##虾": 7394,
      "##炖": 7395,
      "##跬": 7396,
      "##惋": 7397,
      "##坝": 7398,
      "##勘": 7399,
      "##垩": 7400,
      "##簸": 7401,
      "##唾": 7402,
      "##狈": 7403,
      "##浃": 7404,
      "##坯": 7405,
      "##锄": 7406,
      "##酉": 7407,
      "##炊": 7408,
      "##俯": 7409,
      "##鞭": 7410,
      "##掬": 7411,
      "##涅": 7412,
      "##佐": 7413,
      "##徽": 7414,
      "##敦": 7415,
      "##捺": 7416,
      "##葫": 7417,
      "##砥": 7418,
      "##砺": 7419,
      "##诛": 7420,
      "##栓": 7421,
      "##冕": 7422,
      "##}": 7423,
      "##{": 7424,
      "##雀": 7425,
      "##腱": 7426,
      "##韦": 7427,
      "##孟": 7428,
      "##哆": 7429,
      "##嗉": 7430,
      "##呸": 7431,
      "##逖": 7432,
      "##楠": 7433,
      "##咪": 7434,
      "##蝌": 7435,
      "##蚪": 7436,
      "##垛": 7437,
      "##掷": 7438,
      "##馋": 7439,
      "##鬈": 7440,
      "##趿": 7441,
      "##迥": 7442,
      "##絮": 7443,
      "##骛": 7444,
      "##赳": 7445,
      "##憨": 7446,
      "##莘": 7447,
      "##磐": 7448,
      "##熠": 7449,
      "##茧": 7450,
      "##贻": 7451,
      "##佝": 7452,
      "##偻": 7453,
      "##硝": 7454,
      "##萤": 7455,
      "##腻": 7456,
      "##搪": 7457,
      "##抠": 7458,
      "##逛": 7459,
      "##楔": 7460,
      "##煽": 7461,
      "##辗": 7462,
      "##寿": 7463,
      "##颐": 7464,
      "##亟": 7465,
      "##阁": 7466,
      "##棠": 7467,
      "##桎": 7468,
      "##梏": 7469,
      "##蹋": 7470,
      "##屉": 7471,
      "##岿": 7472,
      "##妄": 7473,
      "##廷": 7474,
      "##揶": 7475,
      "##揄": 7476,
      "##娟": 7477,
      "##篷": 7478,
      "##皈": 7479,
      "##簇": 7480,
      "##碟": 7481,
      "##馗": 7482,
      "##~": 7483,
      "##牧": 7484,
      "##瓷": 7485,
      "##嵌": 7486,
      "##榴": 7487,
      "##隋": 7488,
      "##禹": 7489,
      "##锡": 7490,
      "##镊": 7491,
      "##撸": 7492,
      "##偃": 7493,
      "##桠": 7494,
      "##骼": 7495,
      "##飒": 7496,
      "##镖": 7497,
      "##婴": 7498,
      "##埔": 7499,
      "##乞": 7500,
      "##丐": 7501,
      "##滞": 7502,
      "##蹍": 7503,
      "##扪": 7504,
      "##诊": 7505,
      "##蔼": 7506,
      "##犄": 7507,
      "##―": 7508,
      "##桓": 7509,
      "##瓴": 7510,
      "##贱": 7511,
      "##－": 7512,
      "##蕊": 7513,
      "##吮": 7514,
      "##殆": 7515,
      "##哽": 7516,
      "##艮": 7517,
      "##恙": 7518,
      "##篡": 7519,
      "##谛": 7520,
      "##跺": 7521,
      "##佼": 7522,
      "##啕": 7523,
      "##蚜": 7524,
      "##蚕": 7525,
      "##梧": 7526,
      "##诃": 7527,
      "##饺": 7528,
      "##嘤": 7529,
      "##嚷": 7530,
      "##飕": 7531,
      "##缚": 7532,
      "##碘": 7533,
      "##嗦": 7534,
      "##唏": 7535,
      "##嘘": 7536,
      "##煳": 7537,
      "##舔": 7538,
      "##囚": 7539,
      "##蚌": 7540,
      "##璀": 7541,
      "##璨": 7542,
      "##珀": 7543,
      "##枫": 7544,
      "##湎": 7545,
      "##彳": 7546,
      "##豹": 7547,
      "##鹊": 7548,
      "##皲": 7549,
      "##渥": 7550,
      "##癌": 7551,
      "##扒": 7552,
      "##铰": 7553,
      "##潢": 7554,
      "##阎": 7555,
      "##镀": 7556,
      "##龟": 7557,
      "##绯": 7558,
      "##怦": 7559,
      "##匪": 7560,
      "##狩": 7561,
      "##缴": 7562,
      "##嚏": 7563,
      "##撷": 7564,
      "##潸": 7565,
      "##哝": 7566,
      "##鄢": 7567,
      "##婷": 7568,
      "##搐": 7569,
      "##咤": 7570,
      "##彷": 7571,
      "##徨": 7572,
      "##茉": 7573,
      "##莉": 7574,
      "##谡": 7575,
      "##鳄": 7576,
      "##屎": 7577,
      "##氯": 7578,
      "##焐": 7579,
      "##飙": 7580,
      "##摁": 7581,
      "##逶": 7582,
      "##迤": 7583,
      "##犁": 7584,
      "##镂": 7585,
      "##斓": 7586,
      "##骸": 7587,
      "##侮": 7588,
      "##诲": 7589,
      "##垓": 7590,
      "##偎": 7591,
      "##朔": 7592,
      "##伶": 7593,
      "##俐": 7594,
      "##搡": 7595,
      "##玲": 7596,
      "##熵": 7597,
      "##吝": 7598,
      "##啬": 7599,
      "##蛳": 7600,
      "##蜻": 7601,
      "##橇": 7602,
      "##粤": 7603,
      "##秆": 7604,
      "##仟": 7605,
      "##谄": 7606,
      "##酡": 7607,
      "##阂": 7608,
      "##楷": 7609,
      "##坨": 7610,
      "##祭": 7611,
      "##鹿": 7612,
      "##悯": 7613,
      "##耷": 7614,
      "##氦": 7615,
      "##辫": 7616,
      "##炯": 7617,
      "##靓": 7618,
      "##瓮": 7619,
      "##裱": 7620,
      "##翱": 7621,
      "##歹": 7622,
      "##晗": 7623,
      "##榔": 7624,
      "##郭": 7625,
      "##鲍": 7626,
      "##虻": 7627,
      "##w": 7628,
      "##嗫": 7629,
      "##嚅": 7630,
      "##镌": 7631,
      "##勺": 7632,
      "##疮": 7633,
      "##疤": 7634,
      "##蟋": 7635,
      "##蟀": 7636,
      "##煎": 7637,
      "##戎": 7638,
      "##噘": 7639,
      "##昕": 7640,
      "##缌": 7641,
      "##沏": 7642,
      "##洇": 7643,
      "##殷": 7644,
      "##铸": 7645,
      "##淫": 7646,
      "##瓢": 7647,
      "##，我": 7648,
      "##了，": 7649,
      "##亮平": 7650,
      "##一个": 7651,
      "##自己": 7652,
      "##侯亮平": 7653,
      "##，这": 7654,
      "##了。": 7655,
      "##，他": 7656,
      "##达康": 7657,
      "##，你": 7658,
      "##没有": 7659,
      "##……": 7660,
      "##说：": 7661,
      "##不是": 7662,
      "##什么": 7663,
      "##成功": 7664,
      "##我们": 7665,
      "##李达康": 7666,
      "##育良": 7667,
      "##，但": 7668,
      "##书记": 7669,
      "##就是": 7670,
      "##吗？": 7671,
      "##知道": 7672,
      "##的，": 7673,
      "##了一": 7674,
      "##老师": 7675,
      "##同伟": 7676,
      "##现在": 7677,
      "##来，": 7678,
      "##这个": 7679,
      "##时，": 7680,
      "##汪淼": 7681,
      "##蔡成功": 7682,
      "##，一": 7683,
      "##，不": 7684,
      "##高育良": 7685,
      "##，在": 7686,
      "##祁同伟": 7687,
      "##他们": 7688,
      "##文洁": 7689,
      "##的。": 7690,
      "##一点": 7691,
      "##到了": 7692,
      "##怎么": 7693,
      "##的一": 7694,
      "##，那": 7695,
      "##，是": 7696,
      "##瑞金": 7697,
      "##了！": 7698,
      "##的人": 7699,
      "##可能": 7700,
      "##三体": 7701,
      "##，也": 7702,
      "##给自己": 7703,
      "##已经": 7704,
      "##世界": 7705,
      "##。这": 7706,
      "##问题": 7707,
      "##。他": 7708,
      "##，就": 7709,
      "##可以": 7710,
      "##还是": 7711,
      "##小琴": 7712,
      "##后，": 7713,
      "##同志": 7714,
      "##呢？": 7715,
      "##啊！": 7716,
      "##——": 7717,
      "##，我们": 7718,
      "##叶文洁": 7719,
      "##太阳": 7720,
      "##自己的": 7721,
      "##这么": 7722,
      "##上，": 7723,
      "##我的": 7724,
      "##义珍": 7725,
      "##高小琴": 7726,
      "##丁义珍": 7727,
      "##上的": 7728,
      "##时间": 7729,
      "##说，": 7730,
      "##亦可": 7731,
      "侯亮平": 7732,
      "##这样": 7733,
      "##中的": 7734,
      "##欧阳": 7735,
      "##文明": 7736,
      "##大的": 7737,
      "##起来": 7738,
      "##，只": 7739,
      "##他的": 7740,
      "##陈海": 7741,
      "##沙瑞金": 7742,
      "##昌明": 7743,
      "##你们": 7744,
      "##发现": 7745,
      "##看到": 7746,
      "##检察": 7747,
      "##道：": 7748,
      "##欧阳菁": 7749,
      "##都是": 7750,
      "##开始": 7751,
      "##不能": 7752,
      "##啊？": 7753,
      "##出了": 7754,
      "##希望": 7755,
      "##，她": 7756,
      "##一次": 7757,
      "##看着": 7758,
      "##局长": 7759,
      "##陆亦可": 7760,
      "##电话": 7761,
      "##下，": 7762,
      "##如果": 7763,
      "##还有": 7764,
      "##那个": 7765,
      "##，有": 7766,
      "##工作": 7767,
      "##啊，": 7768,
      "##是一": 7769,
      "##，让": 7770,
      "##了？": 7771,
      "##委书记": 7772,
      "##吧？": 7773,
      "##的事": 7774,
      "##学习": 7775,
      "##子，": 7776,
      "##。我": 7777,
      "##今天": 7778,
      "##，而": 7779,
      "##人的": 7780,
      "##也不": 7781,
      "##宇宙": 7782,
      "##季昌明": 7783,
      "##情况": 7784,
      "##来的": 7785,
      "##..": 7786,
      "##京州": 7787,
      "##生活": 7788,
      "##举报": 7789,
      "##大风": 7790,
      "##着，": 7791,
      "##干部": 7792,
      "##所以": 7793,
      "##这种": 7794,
      "##。侯亮平": 7795,
      "##两个": 7796,
      "##信息": 7797,
      "##岩石": 7798,
      "##研究": 7799,
      "##科学": 7800,
      "##的大": 7801,
      "##地球": 7802,
      "##因为": 7803,
      "##人，": 7804,
      "##一样": 7805,
      "##集团": 7806,
      "##来。": 7807,
      "##有些": 7808,
      "##中，": 7809,
      "##汇报": 7810,
      "##不会": 7811,
      "##。但": 7812,
      "##有一": 7813,
      "##说。": 7814,
      "##新建": 7815,
      "##公安": 7816,
      "##，他们": 7817,
      "##应该": 7818,
      "##人类": 7819,
      "##去，": 7820,
      "##时候": 7821,
      "##，又": 7822,
      "##。在": 7823,
      "##一直": 7824,
      "##出现": 7825,
      "##西坡": 7826,
      "##一下": 7827,
      "##也是": 7828,
      "##瑞龙": 7829,
      "##领导": 7830,
      "##，对": 7831,
      "##的是": 7832,
      "高育良": 7833,
      "##山水": 7834,
      "留一点": 7835,
      "##学生": 7836,
      "##留一点": 7837,
      "##在这": 7838,
      "##最后": 7839,
      "##成了": 7840,
      "##，可": 7841,
      "##不知道": 7842,
      "##系统": 7843,
      "##头，": 7844,
      "##刘新建": 7845,
      "##检察院": 7846,
      "##陈岩石": 7847,
      "##想到": 7848,
      "##赵瑞龙": 7849,
      "##突然": 7850,
      "##东西": 7851,
      "##红岸": 7852,
      "##大风厂": 7853,
      "##进行": 7854,
      "##告诉": 7855,
      "##这些": 7856,
      "##明白": 7857,
      "##部分": 7858,
      "##努力": 7859,
      "##组织": 7860,
      "##反贪": 7861,
      "##，要": 7862,
      "##吧！": 7863,
      "##问：": 7864,
      "##似乎": 7865,
      "##的那": 7866,
      "##好，": 7867,
      "##为了": 7868,
      "##计算": 7869,
      "##东来": 7870,
      "##，现在": 7871,
      "##。当": 7872,
      "##感觉": 7873,
      "##，这是": 7874,
      "##，说": 7875,
      "##起了": 7876,
      "##仿佛": 7877,
      "##觉得": 7878,
      "##嘛！": 7879,
      "##，侯亮平": 7880,
      "##了：": 7881,
      "##这一": 7882,
      "##发生": 7883,
      "##眼睛": 7884,
      "##所有": 7885,
      "##的心": 7886,
      "##，它": 7887,
      "##手机": 7888,
      "##声音": 7889,
      "##起来，": 7890,
      "##许多": 7891,
      "##郑西坡": 7892,
      "##，还": 7893,
      "##这是": 7894,
      "##出来": 7895,
      "##省委": 7896,
      "##办公": 7897,
      "##关系": 7898,
      "##发射": 7899,
      "##注意": 7900,
      "##技术": 7901,
      "##了一个": 7902,
      "##高老师": 7903,
      "##同学": 7904,
      "##目标": 7905,
      "##责任": 7906,
      "李达康": 7907,
      "##的！": 7908,
      "##一些": 7909,
      "##，您": 7910,
      "##，当": 7911,
      "##存在": 7912,
      "##山水集团": 7913,
      "##看看": 7914,
      "##面前": 7915,
      "##甚至": 7916,
      "##那么": 7917,
      "##基地": 7918,
      "##只有": 7919,
      "##里，": 7920,
      "##面的": 7921,
      "##政治": 7922,
      "##一起": 7923,
      "##你的": 7924,
      "##是不是": 7925,
      "##肯定": 7926,
      "##十分": 7927,
      "##面对": 7928,
      "##光明": 7929,
      "##，以": 7930,
      "##很快": 7931,
      "##发出": 7932,
      "##人民": 7933,
      "##继续": 7934,
      "##，把": 7935,
      "##吧。": 7936,
      "##长的": 7937,
      "##几个": 7938,
      "##那些": 7939,
      "##大路": 7940,
      "##这位": 7941,
      "##是一个": 7942,
      "##心里": 7943,
      "##赵东来": 7944,
      "##社会": 7945,
      "##需要": 7946,
      "##人们": 7947,
      "##人家": 7948,
      "##易学习": 7949,
      "##清楚": 7950,
      "叶文洁": 7951,
      "##立春": 7952,
      "##正在": 7953,
      "##任何": 7954,
      "##赵立春": 7955,
      "##反贪局": 7956,
      "##里的": 7957,
      "##不要": 7958,
      "##北京": 7959,
      "##着一": 7960,
      "##变得": 7961,
      "##其实": 7962,
      "##回答": 7963,
      "##重要": 7964,
      "##政法": 7965,
      "##三个": 7966,
      "##的话": 7967,
      "##不到": 7968,
      "##过去": 7969,
      "##政府": 7970,
      "##，从": 7971,
      "##，李达康": 7972,
      "##结果": 7973,
      "##二十": 7974,
      "##父亲": 7975,
      "##什么？": 7976,
      "##下来": 7977,
      "##h省": 7978,
      "##微笑": 7979,
      "##大家": 7980,
      "##然后": 7981,
      "##。她": 7982,
      "##是个": 7983,
      "##中国": 7984,
      "##是在": 7985,
      "##下了": 7986,
      "##真的": 7987,
      "##厅长": 7988,
      "##。汪淼": 7989,
      "##不知": 7990,
      "##地说：": 7991,
      "##银行": 7992,
      "##，却": 7993,
      "##不同": 7994,
      "##大史": 7995,
      "##给我": 7996,
      "##下去": 7997,
      "##意思": 7998,
      "沙瑞金": 7999,
      "##吧，": 8000,
      "##过来": 8001,
      "##动，": 8002,
      "##成为": 8003,
      "##照片": 8004,
      "##马上": 8005,
      "##地方": 8006,
      "##第一": 8007,
      "##儿子": 8008,
      "##呢！": 8009,
      "##运行": 8010,
      "汪淼": 8011,
      "##一定": 8012,
      "##好像": 8013,
      "##心中": 8014,
      "##办公室": 8015,
      "##有人": 8016,
      "##如此": 8017,
      "##只是": 8018,
      "##子的": 8019,
      "##认为": 8020,
      "##才能": 8021,
      "##，将": 8022,
      "##不可": 8023,
      "##事，": 8024,
      "##精神": 8025,
      "##多少": 8026,
      "##连城": 8027,
      "##一位": 8028,
      "##不过": 8029,
      "##作为": 8030,
      "##其他": 8031,
      "##历史": 8032,
      "##终于": 8033,
      "##，这个": 8034,
      "##了……": 8035,
      "##一片": 8036,
      "##。”": 8037,
      "##：我": 8038,
      "##前，": 8039,
      "##省委书记": 8040,
      "##城市": 8041,
      "##最终": 8042,
      "##孩子": 8043,
      "##通过": 8044,
      "##秘书": 8045,
      "##，你们": 8046,
      "##的老": 8047,
      "##的小": 8048,
      "##时代": 8049,
      "##警察": 8050,
      "##坚持": 8051,
      "##股权": 8052,
      "##，像": 8053,
      "##。高育良": 8054,
      "##好的": 8055,
      "##意外": 8056,
      "##纪元": 8057,
      "##人生": 8058,
      "##力量": 8059,
      "祁同伟": 8060,
      "##，为": 8061,
      "##都不": 8062,
      "##会计": 8063,
      "##，就是": 8064,
      "##常委": 8065,
      "##她的": 8066,
      "##慧芬": 8067,
      "##站在": 8068,
      "##一步": 8069,
      "##内心": 8070,
      "##背景": 8071,
      "##清泉": 8072,
      "##坐在": 8073,
      "##上了": 8074,
      "##产生": 8075,
      "##，如果": 8076,
      "##公司": 8077,
      "##头：": 8078,
      "##陈清泉": 8079,
      "##出一": 8080,
      "##虽然": 8081,
      "##相信": 8082,
      "##处长": 8083,
      "##咱们": 8084,
      "##，老": 8085,
      "##了解": 8086,
      "##让我": 8087,
      "##进入": 8088,
      "##同时": 8089,
      "##失败": 8090,
      "##以后": 8091,
      "##必须": 8092,
      "##监听": 8093,
      "##钢玉": 8094,
      "##三体世界": 8095,
      "##生命": 8096,
      "##这里": 8097,
      "##下的": 8098,
      "##证据": 8099,
      "##人。": 8100,
      "##当然": 8101,
      "##，都": 8102,
      "##了，我": 8103,
      "##中心": 8104,
      "##能够": 8105,
      "##卫宁": 8106,
      "##感到": 8107,
      "##无法": 8108,
      "##物理": 8109,
      "##妻子": 8110,
      "##计算机": 8111,
      "##，没": 8112,
      "##....": 8113,
      "##，使": 8114,
      "##，一个": 8115,
      "##，汪淼": 8116,
      "##成绩": 8117,
      "##不断": 8118,
      "##影响": 8119,
      "##整个": 8120,
      "##显示": 8121,
      "##辐射": 8122,
      "##当时": 8123,
      "##梦想": 8124,
      "##准备": 8125,
      "##一般": 8126,
      "##哎，": 8127,
      "##王大路": 8128,
      "##自信": 8129,
      "##听到": 8130,
      "##并不": 8131,
      "##目光": 8132,
      "##，每": 8133,
      "##了吗？": 8134,
      "##后来": 8135,
      "##一阵": 8136,
      "##。李达康": 8137,
      "##问。": 8138,
      "##游戏": 8139,
      "##项目": 8140,
      "##材料": 8141,
      "##审讯": 8142,
      "##起来。": 8143,
      "##，与": 8144,
      "##天空": 8145,
      "##爷爷": 8146,
      "##国富": 8147,
      "##充满": 8148,
      "##00": 8149,
      "##后的": 8150,
      "##说的": 8151,
      "##发展": 8152,
      "##地上": 8153,
      "##方向": 8154,
      "##也没": 8155,
      "##多年": 8156,
      "##工程": 8157,
      "##工人": 8158,
      "##其中": 8159,
      "##走到": 8160,
      "##，看": 8161,
      "##说话": 8162,
      "##出的": 8163,
      "##几乎": 8164,
      "##竟然": 8165,
      "##大学": 8166,
      "##就不": 8167,
      "##简单": 8168,
      "##之间": 8169,
      "##数学": 8170,
      "##于是": 8171,
      "##渐渐": 8172,
      "##我们的": 8173,
      "##，还有": 8174,
      "##不了": 8175,
      "##让他": 8176,
      "##行星": 8177,
      "##前的": 8178,
      "##理想": 8179,
      "##以为": 8180,
      "##它们": 8181,
      "##显然": 8182,
      "##国家": 8183,
      "##当年": 8184,
      "##他，": 8185,
      "##决定": 8186,
      "##一把": 8187,
      "##不得": 8188,
      "##想象": 8189,
      "##会儿": 8190,
      "##实验": 8191,
      "##文革": 8192,
      "##吴慧芬": 8193,
      "##复杂": 8194,
      "##正常": 8195,
      "##出来，": 8196,
      "##点点": 8197,
      "##完全": 8198,
      "##直接": 8199,
      "##尤会计": 8200,
      "##文明的": 8201,
      "##光明湖": 8202,
      "##，蔡成功": 8203,
      "##了个": 8204,
      "##：你": 8205,
      "##为什么": 8206,
      "##阳光": 8207,
      "##消失": 8208,
      "##正是": 8209,
      "##庆祝": 8210,
      "##肖钢玉": 8211,
      "##离婚": 8212,
      "##和你": 8213,
      "##侯局长": 8214,
      "##不住": 8215,
      "##手，": 8216,
      "##去。": 8217,
      "##只能": 8218,
      "##杨卫宁": 8219,
      "##结束": 8220,
      "##腐败": 8221,
      "##千万": 8222,
      "##既然": 8223,
      "##这样的": 8224,
      "##反贪局局长": 8225,
      "##，大": 8226,
      "##，更": 8227,
      "##立即": 8228,
      "##！侯亮平": 8229,
      "##行动": 8230,
      "##会议": 8231,
      "##实在": 8232,
      "##李书记": 8233,
      "##安排": 8234,
      "##巨大的": 8235,
      "##智子": 8236,
      "##熟悉": 8237,
      "##吕州": 8238,
      "##困难": 8239,
      "##公安局": 8240,
      "##公安厅": 8241,
      "##，用": 8242,
      "##，并": 8243,
      "##，所以": 8244,
      "##离开": 8245,
      "##一切": 8246,
      "##成的": 8247,
      "##平静": 8248,
      "##太空": 8249,
      "##身上": 8250,
      "##事情": 8251,
      "##基础": 8252,
      "##人都": 8253,
      "##理论": 8254,
      "##回家": 8255,
      "##孙连城": 8256,
      "##质子": 8257,
      "##运动": 8258,
      "##危险": 8259,
      "##的时候": 8260,
      "##，没有": 8261,
      "##，还是": 8262,
      "##立刻": 8263,
      "##有了": 8264,
      "##不起": 8265,
      "##！我": 8266,
      "##下来，": 8267,
      "##再次": 8268,
      "##看到了": 8269,
      "##得到": 8270,
      "##机会": 8271,
      "##外星": 8272,
      "##口气": 8273,
      "##信念": 8274,
      "##执政": 8275,
      "##给自己，": 8276,
      "##那样": 8277,
      "##，请": 8278,
      "##一种": 8279,
      "##。现在": 8280,
      "##不可能": 8281,
      "##小艾": 8282,
      "##天线": 8283,
      "##打开": 8284,
      "##容易": 8285,
      "##观测": 8286,
      "##参加": 8287,
      "##控制": 8288,
      "这时，": 8289,
      "##那里": 8290,
      "##的高": 8291,
      "##了几": 8292,
      "##时的": 8293,
      "##是什么": 8294,
      "##关键": 8295,
      "##像一": 8296,
      "##事实": 8297,
      "##看，": 8298,
      "##人员": 8299,
      "##理解": 8300,
      "##解决": 8301,
      "##年轻": 8302,
      "##它的": 8303,
      "##指挥": 8304,
      "##脸上": 8305,
      "##快乐": 8306,
      "##群众": 8307,
      "##展开": 8308,
      "##犯罪": 8309,
      "##他们的": 8310,
      "##来自": 8311,
      "##，然后": 8312,
      "##就会": 8313,
      "##有个": 8314,
      "##看了": 8315,
      "##面，": 8316,
      "##色的": 8317,
      "##中央": 8318,
      "##也许": 8319,
      "##天，": 8320,
      "##句话": 8321,
      "##放弃": 8322,
      "##刘庆祝": 8323,
      "##了，他": 8324,
      "##，只是": 8325,
      "##执政官": 8326,
      "##位置": 8327,
      "##的？": 8328,
      "##的问题": 8329,
      "##。那": 8330,
      "##是，": 8331,
      "##长，": 8332,
      "##长长": 8333,
      "##很多": 8334,
      "##紧张": 8335,
      "##高书记": 8336,
      "##如何": 8337,
      "##子。": 8338,
      "##接收": 8339,
      "##路上": 8340,
      "##彩霞": 8341,
      "##永远": 8342,
      "##大，": 8343,
      "##这次": 8344,
      "##经济": 8345,
      "##朋友": 8346,
      "##本来": 8347,
      "##地看着": 8348,
      "##女人": 8349,
      "##沙书记": 8350,
      "##加速": 8351,
      "##带着": 8352,
      "##考虑": 8353,
      "##上去": 8354,
      "##一眼": 8355,
      "##事件": 8356,
      "##得了": 8357,
      "##自然": 8358,
      "##比如": 8359,
      "##总是": 8360,
      "##德汉": 8361,
      "##元首": 8362,
      "##到底": 8363,
      "##的声音": 8364,
      "##。一": 8365,
      "##。祁同伟": 8366,
      "##警车": 8367,
      "##好好": 8368,
      "##说过": 8369,
      "##心，": 8370,
      "##第二": 8371,
      "##第一次": 8372,
      "##门，": 8373,
      "##哪里": 8374,
      "##还没": 8375,
      "##还在": 8376,
      "##沉默": 8377,
      "##速度": 8378,
      "##喜欢": 8379,
      "##毕竟": 8380,
      "##知道，": 8381,
      "##的时间": 8382,
      "##的东西": 8383,
      "##，心": 8384,
      "##。你": 8385,
      "##是他": 8386,
      "##就在": 8387,
      "##让我们": 8388,
      "##笑：": 8389,
      "##进了": 8390,
      "##能力": 8391,
      "##短短": 8392,
      "##解释": 8393,
      "##“九": 8394,
      "##思想": 8395,
      "##压力": 8396,
      "##严重": 8397,
      "##，我的": 8398,
      "季昌明": 8399,
      "##的信息": 8400,
      "##，才": 8401,
      "##时刻": 8402,
      "##发小": 8403,
      "##要是": 8404,
      "##中。": 8405,
      "##门口": 8406,
      "##接着": 8407,
      "##接触": 8408,
      "##环境": 8409,
      "##旁边": 8410,
      "##革命": 8411,
      "##缓缓": 8412,
      "##盯着": 8413,
      "##，这些": 8414,
      "##李达康的": 8415,
      "##，只有": 8416,
      "《三体": 8417,
      "##，别": 8418,
      "##了吧？": 8419,
      "##一六": 8420,
      "##说是": 8421,
      "##意味": 8422,
      "##出去": 8423,
      "##窗外": 8424,
      "##变成": 8425,
      "##真实": 8426,
      "##完成": 8427,
      "##状态": 8428,
      "##保护": 8429,
      "##母亲": 8430,
      "##刚才": 8431,
      "##奇怪": 8432,
      "##及时": 8433,
      "##，而是": 8434,
      "《三体》": 8435,
      "##一六”": 8436,
      "##期待": 8437,
      "##，再": 8438,
      "##，仿佛": 8439,
      "##经过": 8440,
      "##。而": 8441,
      "##不好": 8442,
      "##都在": 8443,
      "##突破": 8444,
      "##行，": 8445,
      "##道是": 8446,
      "##得很": 8447,
      "##现实": 8448,
      "##根本": 8449,
      "##之一": 8450,
      "##回事": 8451,
      "##认识": 8452,
      "##坚强": 8453,
      "##市长": 8454,
      "##降临": 8455,
      "##京州市": 8456,
      "##“九一六”": 8457,
      "##报告": 8458,
      "##一声": 8459,
      "##。可": 8460,
      "##：这": 8461,
      "##给你": 8462,
      "##都没有": 8463,
      "##起，": 8464,
      "##学家": 8465,
      "##机场": 8466,
      "##留下": 8467,
      "##内部": 8468,
      "##由于": 8469,
      "##变化": 8470,
      "##真正": 8471,
      "##叹息": 8472,
      "##田国富": 8473,
      "##坚定": 8474,
      "##四个": 8475,
      "##代表": 8476,
      "##玉菲": 8477,
      "##，而且": 8478,
      "陆亦可": 8479,
      "##的地": 8480,
      "##的一个": 8481,
      "##，和": 8482,
      "##办法": 8483,
      "##经常": 8484,
      "##。叶文洁": 8485,
      "##想想": 8486,
      "##意义": 8487,
      "##首先": 8488,
      "##选择": 8489,
      "##天文": 8490,
      "##更加": 8491,
      "##另一": 8492,
      "##找到": 8493,
      "##回到": 8494,
      "##亲自": 8495,
      "##父母": 8496,
      "##计时": 8497,
      "##了一下": 8498,
      "##怎么办": 8499,
      "##，无": 8500,
      "##，便": 8501,
      "##了我": 8502,
      "##。沙瑞金": 8503,
      "##说了，": 8504,
      "##都有": 8505,
      "##都没": 8506,
      "##小时": 8507,
      "##纪委": 8508,
      "##法院": 8509,
      "##放下": 8510,
      "##只要": 8511,
      "##内容": 8512,
      "##字塔": 8513,
      "##早就": 8514,
      "##指着": 8515,
      "##十万": 8516,
      "##距离": 8517,
      "##乐观": 8518,
      "##联系": 8519,
      "##幸福": 8520,
      "##教授": 8521,
      "##，这种": 8522,
      "##检察长": 8523,
      "##政法系": 8524,
      "##的光": 8525,
      "##，祁同伟": 8526,
      "##一张": 8527,
      "##一天": 8528,
      "##。蔡成功": 8529,
      "##。陆亦可": 8530,
      "##和他": 8531,
      "##是我": 8532,
      "##会有": 8533,
      "##眼前": 8534,
      "##小心": 8535,
      "##面上": 8536,
      "##件事": 8537,
      "##也没有": 8538,
      "##日子": 8539,
      "##文王": 8540,
      "##回来": 8541,
      "##随着": 8542,
      "##规律": 8543,
      "##19": 8544,
      "##调查": 8545,
      "##摇摇": 8546,
      "##重新": 8547,
      "##处理": 8548,
      "##令人": 8549,
      "##钟小艾": 8550,
      "##，我也": 8551,
      "##，他的": 8552,
      "##的一切": 8553,
      "##在这里": 8554,
      "##，上": 8555,
      "##，甚至": 8556,
      "##这才": 8557,
      "##啥？": 8558,
      "##就能": 8559,
      "##过了": 8560,
      "##拆迁": 8561,
      "##年前": 8562,
      "##建议": 8563,
      "##结构": 8564,
      "##命令": 8565,
      "审问": 8566,
      "##的手": 8567,
      "##的路": 8568,
      "##，很": 8569,
      "##，谁": 8570,
      "##不动": 8571,
      "##不少": 8572,
      "##！你": 8573,
      "##过来，": 8574,
      "##难以": 8575,
      "##要求": 8576,
      "##也在": 8577,
      "##使用": 8578,
      "##主义": 8579,
      "##主任": 8580,
      "##年的": 8581,
      "##介绍": 8582,
      "##金字塔": 8583,
      "##周围": 8584,
      "##谈话": 8585,
      "##林城": 8586,
      "##结婚": 8587,
      "##未来": 8588,
      "##即使": 8589,
      "##了，你": 8590,
      "##同志们": 8591,
      "审问者": 8592,
      "##的情况": 8593,
      "##，能": 8594,
      "##，自己": 8595,
      "##，老师": 8596,
      "##，因为": 8597,
      "##开发": 8598,
      "##有什么": 8599,
      "##不在": 8600,
      "##给他": 8601,
      "##身体": 8602,
      "##老人": 8603,
      "##丁仪": 8604,
      "##做了": 8605,
      "##多的": 8606,
      "##情绪": 8607,
      "##司机": 8608,
      "##之前": 8609,
      "##包括": 8610,
      "##数字": 8611,
      "##员工": 8612,
      "##走进": 8613,
      "##刚刚": 8614,
      "##树立": 8615,
      "##丈夫": 8616,
      "##了一下，": 8617,
      "##上。": 8618,
      "##，两": 8619,
      "##？侯亮平": 8620,
      "##对手": 8621,
      "##过程": 8622,
      "##难道": 8623,
      "##猴子": 8624,
      "##小的": 8625,
      "##王文革": 8626,
      "##确实": 8627,
      "##进去": 8628,
      "##比较": 8629,
      "##主动": 8630,
      "##三颗": 8631,
      "##可是": 8632,
      "##望着": 8633,
      "##女孩": 8634,
      "##保持": 8635,
      "##乱纪元": 8636,
      "##新的": 8637,
      "##吴彩霞": 8638,
      "##提醒": 8639,
      "##指示": 8640,
      "##飞星": 8641,
      "##度假": 8642,
      "##激动": 8643,
      "##承认": 8644,
      "##掌握": 8645,
      "##，我就": 8646,
      "##，那是": 8647,
      "蔡成功": 8648,
      "##来到": 8649,
      "##，怎么": 8650,
      "##一条": 8651,
      "##是否": 8652,
      "##不敢": 8653,
      "##很大": 8654,
      "##向前": 8655,
      "##看见": 8656,
      "##别墅": 8657,
      "##家里": 8658,
      "##政委": 8659,
      "##并没有": 8660,
      "##去了": 8661,
      "##麻烦": 8662,
      "##安全": 8663,
      "##另外": 8664,
      "##三十": 8665,
      "##子里": 8666,
      "##间，": 8667,
      "##普通": 8668,
      "##除了": 8669,
      "##处于": 8670,
      "##忽然": 8671,
      "##秘密": 8672,
      "##士兵": 8673,
      "##贷款": 8674,
      "##伯仲": 8675,
      "##给自己。": 8676,
      "##起来：": 8677,
      "##上一": 8678,
      "##来越": 8679,
      "##来了，": 8680,
      "##，不是": 8681,
      "##，叶文洁": 8682,
      "##了两": 8683,
      "##知识": 8684,
      "##得知": 8685,
      "##意见": 8686,
      "##证明": 8687,
      "##实现": 8688,
      "##自我": 8689,
      "##在我": 8690,
      "##潘寒": 8691,
      "##做出": 8692,
      "##也有": 8693,
      "##感情": 8694,
      "##真是": 8695,
      "##物质": 8696,
      "##见到": 8697,
      "##水，": 8698,
      "##还不": 8699,
      "##越来越": 8700,
      "##拿起": 8701,
      "##追求": 8702,
      "##曾经": 8703,
      "##市委书记": 8704,
      "##考试": 8705,
      "##审判": 8706,
      "##申玉菲": 8707,
      "##注意到": 8708,
      "##记得": 8709,
      "##，总": 8710,
      "##我就": 8711,
      "##。所以": 8712,
      "##警官": 8713,
      "##：是": 8714,
      "##有的": 8715,
      "##有一个": 8716,
      "##对于": 8717,
      "##想法": 8718,
      "##事。": 8719,
      "##样的": 8720,
      "##着我": 8721,
      "##汪森": 8722,
      "##起身": 8723,
      "##天的": 8724,
      "##心。": 8725,
      "##目前": 8726,
      "##窗口": 8727,
      "##消息": 8728,
      "##伟大的": 8729,
      "##因此": 8730,
      "##纳米": 8731,
      "##祁厅长": 8732,
      "##怀疑": 8733,
      "##周文王": 8734,
      "##表现": 8735,
      "##原因": 8736,
      "##接受": 8737,
      "##相当": 8738,
      "##设备": 8739,
      "##特别": 8740,
      "##属于": 8741,
      "##录音": 8742,
      "##战争": 8743,
      "##胜利": 8744,
      "##共产": 8745,
      "##杜伯仲": 8746,
      "##省委常委": 8747,
      "##经历": 8748,
      "##？我": 8749,
      "##就要": 8750,
      "##不行": 8751,
      "##不想": 8752,
      "##很有": 8753,
      "##身边": 8754,
      "##头。": 8755,
      "##！！": 8756,
      "##下面": 8757,
      "##每个": 8758,
      "##在一": 8759,
      "##世纪": 8760,
      "##基本": 8761,
      "##也会": 8762,
      "##日号": 8763,
      "##作用": 8764,
      "##学者": 8765,
      "##学校": 8766,
      "##省检察院": 8767,
      "##”的": 8768,
      "##几天": 8769,
      "##无数": 8770,
      "##最高": 8771,
      "##最近": 8772,
      "##以前": 8773,
      "##年代": 8774,
      "##轻轻": 8775,
      "##女儿": 8776,
      "##走了": 8777,
      "##倒计时": 8778,
      "##始皇": 8779,
      "##建立": 8780,
      "##口口": 8781,
      "##创造": 8782,
      "##坐下": 8783,
      "##医院": 8784,
      "##担心": 8785,
      "##百万": 8786,
      "##百姓": 8787,
      "##毁灭": 8788,
      "##计划": 8789,
      "##华华": 8790,
      "##蔡成功的": 8791,
      "##，让他": 8792,
      "##的事情": 8793,
      "##......": 8794,
      "##度假村": 8795,
      "##的巨": 8796,
      "##，反": 8797,
      "##，正": 8798,
      "##，都是": 8799,
      "##又是": 8800,
      "##：那": 8801,
      "##啊，你": 8802,
      "##给了": 8803,
      "##说不": 8804,
      "##别人": 8805,
      "##着脸": 8806,
      "##黑暗": 8807,
      "##文斯": 8808,
      "##主要": 8809,
      "##寻找": 8810,
      "##恐惧": 8811,
      "##沙发": 8812,
      "##还要": 8813,
      "##气，": 8814,
      "##十二": 8815,
      "##十五": 8816,
      "##至于": 8817,
      "##飞机": 8818,
      "##入了": 8819,
      "##招呼": 8820,
      "##电话，": 8821,
      "##加速器": 8822,
      "##生产": 8823,
      "##，最终": 8824,
      "##后面": 8825,
      "##后，我": 8826,
      "##。诺": 8827,
      "##。我们": 8828,
      "##功率": 8829,
      "##是谁": 8830,
      "##不安": 8831,
      "##对我": 8832,
      "##说罢": 8833,
      "##收到": 8834,
      "##着他": 8835,
      "##高的": 8836,
      "##文件": 8837,
      "##专业": 8838,
      "##反射": 8839,
      "##另一个": 8840,
      "##外面": 8841,
      "##分析": 8842,
      "##走出": 8843,
      "##倒是": 8844,
      "##转身": 8845,
      "##赵德汉": 8846,
      "##客厅": 8847,
      "##美国": 8848,
      "##房间": 8849,
      "##直到": 8850,
      "##相机": 8851,
      "##拯救": 8852,
      "##投资": 8853,
      "##恒纪元": 8854,
      "##拿着": 8855,
      "##卫兵": 8856,
      "##侦查": 8857,
      "##兴趣": 8858,
      "##挫折": 8859,
      "##模型": 8860,
      "##尤其": 8861,
      "##矛盾": 8862,
      "##，我是": 8863,
      "##侯亮平的": 8864,
      "##，它们": 8865,
      "##公安厅厅长": 8866,
      "##降临派": 8867,
      "高小琴": 8868,
      "##队伍": 8869,
      "##来了": 8870,
      "##，连": 8871,
      "##，陈海": 8872,
      "##，留一点": 8873,
      "##这事": 8874,
      "##。他们": 8875,
      "##里面": 8876,
      "##有关": 8877,
      "##让你": 8878,
      "##说完": 8879,
      "##老婆": 8880,
      "##意识": 8881,
      "##实话": 8882,
      "##前方": 8883,
      "##确定": 8884,
      "##进步": 8885,
      "##人物": 8886,
      "##也要": 8887,
      "##能量": 8888,
      "##高总": 8889,
      "##反应": 8890,
      "##您的": 8891,
      "##电磁": 8892,
      "##保证": 8893,
      "##早已": 8894,
      "##停止": 8895,
      "##仍然": 8896,
      "##线索": 8897,
      "##表情": 8898,
      "##观察": 8899,
      "##哪儿": 8900,
      "##重大": 8901,
      "##伊曼": 8902,
      "##改变": 8903,
      "##兴奋": 8904,
      "##抬头": 8905,
      "##企业": 8906,
      "##屏幕": 8907,
      "##妈妈": 8908,
      "##了，但": 8909,
      "##了。侯亮平": 8910,
      "##老师的": 8911,
      "##外星文明": 8912,
      "陈海": 8913,
      "陈岩石": 8914,
      "##那位": 8915,
      "##大地": 8916,
      "##，“": 8917,
      "##，高育良": 8918,
      "##，高小琴": 8919,
      "##开了": 8920,
      "##一会儿": 8921,
      "##。“": 8922,
      "##和我": 8923,
      "##说了": 8924,
      "##说明": 8925,
      "##！高育良": 8926,
      "##没想到": 8927,
      "##下来。": 8928,
      "##下去，": 8929,
      "##想起": 8930,
      "##看来": 8931,
      "##老板": 8932,
      "##自由": 8933,
      "##在他": 8934,
      "##中华": 8935,
      "##中的一": 8936,
      "##放到": 8937,
      "##贪官": 8938,
      "##明显": 8939,
      "##找到了": 8940,
      "##变成了": 8941,
      "##远镜": 8942,
      "##具体": 8943,
      "##夜空": 8944,
      "##11": 8945,
      "##负责": 8946,
      "##遇到": 8947,
      "##改革": 8948,
      "##自己，": 8949,
      "##太阳的": 8950,
      "##红岸基地": 8951,
      "##审判日号": 8952,
      "方块": 8953,
      "##你，": 8954,
      "##啊……": 8955,
      "##？！": 8956,
      "##就像": 8957,
      "##不错": 8958,
      "##说得": 8959,
      "##手：": 8960,
      "##住了": 8961,
      "##眼镜": 8962,
      "##在一起": 8963,
      "##放在": 8964,
      "##或者": 8965,
      "##车，": 8966,
      "##支持": 8967,
      "##史强": 8968,
      "##无比": 8969,
      "##望远镜": 8970,
      "##形状": 8971,
      "##部门": 8972,
      "##分子": 8973,
      "##季检": 8974,
      "##杨冬": 8975,
      "##红卫兵": 8976,
      "##哪个": 8977,
      "##宽容": 8978,
      "##重的": 8979,
      "##呢，": 8980,
      "##温暖": 8981,
      "##斯坦": 8982,
      "##态度": 8983,
      "##故意": 8984,
      "##印象": 8985,
      "##嘛，": 8986,
      "##估计": 8987,
      "##说：我": 8988,
      "##，但他": 8989,
      "##山水度假村": 8990,
      "##大风厂的": 8991,
      "##。诺伊曼": 8992,
      "##星星": 8993,
      "##到达": 8994,
      "##的地方": 8995,
      "##，其": 8996,
      "##，可以": 8997,
      "##这话": 8998,
      "##经验": 8999,
      "##。从": 9000,
      "##和李达康": 9001,
      "##啊。": 9002,
      "##啊，我": 9003,
      "##有啥": 9004,
      "##好。": 9005,
      "##不上": 9006,
      "##不见": 9007,
      "##不禁": 9008,
      "##都要": 9009,
      "##道。": 9010,
      "##老季": 9011,
      "##意，": 9012,
      "##声，": 9013,
      "##地对": 9014,
      "##判断": 9015,
      "##程序": 9016,
      "##根据": 9017,
      "##张华华": 9018,
      "##如今": 9019,
      "##空间": 9020,
      "##利益": 9021,
      "##所谓": 9022,
      "##远处": 9023,
      "##权力": 9024,
      "##交代": 9025,
      "##建设": 9026,
      "##还能": 9027,
      "##认真": 9028,
      "##美食": 9029,
      "##深深": 9030,
      "##油气": 9031,
      "##似的": 9032,
      "##谢谢": 9033,
      "##卫星": 9034,
      "##受贿": 9035,
      "##账本": 9036,
      "##疯狂": 9037,
      "##一个人": 9038,
      "##怎么回事": 9039,
      "##，也许": 9040,
      "##这么多": 9041,
      "##丁义珍的": 9042,
      "##系统的": 9043,
      "##的世界": 9044,
      "##，向": 9045,
      "##，似乎": 9046,
      "##然，": 9047,
      "##这时": 9048,
      "##是你": 9049,
      "##就这样": 9050,
      "##有点": 9051,
      "##不太": 9052,
      "##！他": 9053,
      "##！李达康": 9054,
      "##道路": 9055,
      "##前进": 9056,
      "##纪委书记": 9057,
      "##也就": 9058,
      "##同意": 9059,
      "##感慨": 9060,
      "##从来": 9061,
      "##吃惊": 9062,
      "##恐怕": 9063,
      "##嫌疑": 9064,
      "##休息": 9065,
      "##转向": 9066,
      "##原则": 9067,
      "##赵家": 9068,
      "##指指": 9069,
      "##活动": 9070,
      "##全部": 9071,
      "##满了": 9072,
      "##冷静": 9073,
      "##二人": 9074,
      "##双手": 9075,
      "##雷志": 9076,
      "##受到": 9077,
      "##舰队": 9078,
      "##匆匆": 9079,
      "##梁璐": 9080,
      "##，但我": 9081,
      "##了一些": 9082,
      "##，不要": 9083,
      "审问者：": 9084,
      "##美食城": 9085,
      "郑西坡": 9086,
      "##那一": 9087,
      "##的太阳": 9088,
      "##大量": 9089,
      "##生的": 9090,
      "##生存": 9091,
      "##记录": 9092,
      "##，到": 9093,
      "##，自": 9094,
      "##，看到": 9095,
      "##了起来，": 9096,
      "##办案": 9097,
      "##？他": 9098,
      "##非常": 9099,
      "##都会": 9100,
      "##没错": 9101,
      "##没什么": 9102,
      "##过的": 9103,
      "##过，": 9104,
      "##手上": 9105,
      "##别的": 9106,
      "##苦笑": 9107,
      "##个人": 9108,
      "##每天": 9109,
      "##在那": 9110,
      "##副书记": 9111,
      "##也很": 9112,
      "##出来。": 9113,
      "##风景": 9114,
      "##慢慢": 9115,
      "##伟思": 9116,
      "##瞬间": 9117,
      "##走向": 9118,
      "##跑到": 9119,
      "##条件": 9120,
      "##某种": 9121,
      "##晚上": 9122,
      "##接过": 9123,
      "##哲泰": 9124,
      "##运河": 9125,
      "##市公安局": 9126,
      "##双眼": 9127,
      "##青年": 9128,
      "##迅速": 9129,
      "##涉及": 9130,
      "##范围": 9131,
      "##股份": 9132,
      "##默默": 9133,
      "##，这样": 9134,
      "##，一切": 9135,
      "##三体文明": 9136,
      "##共产党": 9137,
      "##油气集团": 9138,
      "小球": 9139,
      "##队长": 9140,
      "##，最后": 9141,
      "##了好": 9142,
      "##一名": 9143,
      "##一颗": 9144,
      "##。如果": 9145,
      "##。其实": 9146,
      "##是有": 9147,
      "##不愿": 9148,
      "##脑袋": 9149,
      "##震惊": 9150,
      "##下午": 9151,
      "##家伙": 9152,
      "##证实": 9153,
      "##而已": 9154,
      "##学会": 9155,
      "##专家": 9156,
      "##工人们": 9157,
      "##反映": 9158,
      "##目的": 9159,
      "##安慰": 9160,
      "##空中": 9161,
      "##把他": 9162,
      "##回忆": 9163,
      "##电波": 9164,
      "##表示": 9165,
      "##建筑": 9166,
      "##吴老师": 9167,
      "##必要": 9168,
      "##操作": 9169,
      "##案子": 9170,
      "##清醒": 9171,
      "##伊文斯": 9172,
      "##边界": 9173,
      "##恒星": 9174,
      "##拿出": 9175,
      "##泪水": 9176,
      "##等待": 9177,
      "##模糊": 9178,
      "##沐霖": 9179,
      "##胶卷": 9180,
      "##享受": 9181,
      "##燃烧": 9182,
      "##脱水": 9183,
      "##，这么": 9184,
      "##，你会": 9185,
      "##……我": 9186,
      "##，那么": 9187,
      "##的人生": 9188,
      "##，也是": 9189,
      "##，只要": 9190,
      "##是一种": 9191,
      "##科学执政官": 9192,
      "##这一切": 9193,
      "##上面": 9194,
      "##大厅": 9195,
      "##者的": 9196,
      "##，想": 9197,
      "##，被": 9198,
      "##，丁义珍": 9199,
      "##他。": 9200,
      "##公子": 9201,
      "##时，我": 9202,
      "##。这个": 9203,
      "##不多": 9204,
      "##让人": 9205,
      "##身份": 9206,
      "##道，": 9207,
      "##会上": 9208,
      "##着。": 9209,
      "##地说": 9210,
      "##自行": 9211,
      "##现场": 9212,
      "##方式": 9213,
      "##起码": 9214,
      "##比赛": 9215,
      "##多么": 9216,
      "##同样": 9217,
      "##干扰": 9218,
      "##达到": 9219,
      "##无限": 9220,
      "##明天": 9221,
      "##牛顿": 9222,
      "##数据": 9223,
      "##她们": 9224,
      "##分钟": 9225,
      "##升起": 9226,
      "##走。": 9227,
      "##闪烁": 9228,
      "##国际": 9229,
      "##规定": 9230,
      "##价值": 9231,
      "##片刻": 9232,
      "##信心": 9233,
      "##清晰": 9234,
      "##犹豫": 9235,
      "##错误": 9236,
      "##爸爸": 9237,
      "##各种": 9238,
      "##唯一": 9239,
      "##拍了": 9240,
      "##香港": 9241,
      "##了。他": 9242,
      "##达康同志": 9243,
      "##说：你": 9244,
      "##可能是": 9245,
      "##世界的": 9246,
      "##有一种": 9247,
      "##一直在": 9248,
      "##一下子": 9249,
      "##一把手": 9250,
      "##上次": 9251,
      "##的眼睛": 9252,
      "##，下": 9253,
      "##，眼": 9254,
      "##，人": 9255,
      "##，沙瑞金": 9256,
      "##，欧阳菁": 9257,
      "##然而": 9258,
      "##一场": 9259,
      "##一段": 9260,
      "##一边": 9261,
      "##一下，": 9262,
      "##成员": 9263,
      "##话题": 9264,
      "##不已": 9265,
      "##不如": 9266,
      "##很不": 9267,
      "##头儿": 9268,
      "##！祁同伟": 9269,
      "##着的": 9270,
      "##小虎": 9271,
      "##小凤": 9272,
      "##预测": 9273,
      "##动了": 9274,
      "##地说。": 9275,
      "##方面": 9276,
      "##方法": 9277,
      "##张树立": 9278,
      "##名的": 9279,
      "##名字": 9280,
      "##或许": 9281,
      "##最初": 9282,
      "##两人": 9283,
      "##回去": 9284,
      "##形成": 9285,
      "##分之": 9286,
      "##新书记": 9287,
      "##视着": 9288,
      "##落到": 9289,
      "##讨论": 9290,
      "##命运": 9291,
      "##秦始皇": 9292,
      "##坐下，": 9293,
      "##稳定": 9294,
      "##等着": 9295,
      "##仔细": 9296,
      "##市委": 9297,
      "##优秀": 9298,
      "##衣服": 9299,
      "##漫长的": 9300,
      "##勇气": 9301,
      "##粒子": 9302,
      "##昨天": 9303,
      "##，这就是": 9304,
      "##，你就": 9305,
      "##说：“": 9306,
      "##知道你": 9307,
      "##的，是": 9308,
      "##三体问题": 9309,
      "##检察官": 9310,
      "##银行卡": 9311,
      "##物理学": 9312,
      "##开发区": 9313,
      "我们": 9314,
      "##的动": 9315,
      "##的脸": 9316,
      "##的生活": 9317,
      "##的感觉": 9318,
      "##，做": 9319,
      "##，今天": 9320,
      "##后悔": 9321,
      "##一只": 9322,
      "##一块": 9323,
      "##。不": 9324,
      "##。高小琴": 9325,
      "##。欧阳菁": 9326,
      "##警告": 9327,
      "##：哎，": 9328,
      "##和祁同伟": 9329,
      "##和高小琴": 9330,
      "##是从": 9331,
      "##不管": 9332,
      "##很难": 9333,
      "##让她": 9334,
      "##让他们": 9335,
      "##身影": 9336,
      "##说你": 9337,
      "##绝望": 9338,
      "##笑，": 9339,
      "##老百姓": 9340,
      "##精确": 9341,
      "##得多": 9342,
      "##现代": 9343,
      "##副市长": 9344,
      "##方的": 9345,
      "##方案": 9346,
      "##出事": 9347,
      "##黑色": 9348,
      "##放大": 9349,
      "##外的": 9350,
      "##级的": 9351,
      "##射电": 9352,
      "##巨大": 9353,
      "##两名": 9354,
      "##两次": 9355,
      "##年，": 9356,
      "##叶哲泰": 9357,
      "##服装": 9358,
      "##始终": 9359,
      "##表面": 9360,
      "##带来": 9361,
      "##还真": 9362,
      "##原子": 9363,
      "##避免": 9364,
      "##厉害": 9365,
      "##正确": 9366,
      "##汽油": 9367,
      "##智慧": 9368,
      "##微观": 9369,
      "##床上": 9370,
      "##痛苦": 9371,
      "##幽灵": 9372,
      "##爆炸": 9373,
      "##资源": 9374,
      "##青春": 9375,
      "##训练": 9376,
      "##雷达": 9377,
      "##雷政委": 9378,
      "##敏感": 9379,
      "##呀，": 9380,
      "##呀？": 9381,
      "##，这位": 9382,
      "##育良同志": 9383,
      "##，但是": 9384,
      "##，不管": 9385,
      "##人类的": 9386,
      "##一定要": 9387,
      "##怎么办？": 9388,
      "厘米": 9389,
      "易学习": 9390,
      "##的不": 9391,
      "##的样": 9392,
      "##的-": 9393,
      "##的结果": 9394,
      "##，看着": 9395,
      "##，应该": 9396,
      "##，其中": 9397,
      "##了许多": 9398,
      "##后，他": 9399,
      "##。有": 9400,
      "##。季昌明": 9401,
      "##：“": 9402,
      "##：亮平": 9403,
      "##成就": 9404,
      "##平线": 9405,
      "##有可能": 9406,
      "##好了，": 9407,
      "##不清": 9408,
      "##对你": 9409,
      "##本书": 9410,
      "##再说": 9411,
      "##笑着": 9412,
      "##笑了：": 9413,
      "##看守": 9414,
      "##老马": 9415,
      "##意料": 9416,
      "##进一步": 9417,
      "##程度": 9418,
      "##出，": 9419,
      "##张照片": 9420,
      "##高小凤": 9421,
      "##常小虎": 9422,
      "##师母": 9423,
      "##桌上": 9424,
      "##文化": 9425,
      "##心中的": 9426,
      "##反腐": 9427,
      "##强调": 9428,
      "##思考": 9429,
      "##吃饭": 9430,
      "##利用": 9431,
      "##整体": 9432,
      "##性的": 9433,
      "##总局": 9434,
      "##阵列": 9435,
      "##把我": 9436,
      "##轻松": 9437,
      "##瑞山": 9438,
      "##露出": 9439,
      "##电脑": 9440,
      "##服务": 9441,
      "##水平": 9442,
      "##规则": 9443,
      "##取得": 9444,
      "##坚韧": 9445,
      "##原来": 9446,
      "##谨慎": 9447,
      "##死亡": 9448,
      "##频率": 9449,
      "##深处": 9450,
      "##细节": 9451,
      "##丽的": 9452,
      "##十几": 9453,
      "##二维": 9454,
      "##引力": 9455,
      "##试图": 9456,
      "##试验": 9457,
      "##教训": 9458,
      "##涉嫌": 9459,
      "##差点": 9460,
      "##跟着": 9461,
      "##彻底": 9462,
      "##居然": 9463,
      "##，我想": 9464,
      "##，一边": 9465,
      "##怎么会": 9466,
      "##问题，": 9467,
      "##发现，": 9468,
      "##科学家": 9469,
      "##科学边界": 9470,
      "##告诉你": 9471,
      "##的心情": 9472,
      "叶文洁：": 9473,
      "##大家都": 9474,
      "##背景辐射": 9475,
      "##监听员": 9476,
      "##自行车": 9477,
      "##拍了拍": 9478,
      "##来了。": 9479,
      "##的工作": 9480,
      "##的干部": 9481,
      "##，天": 9482,
      "##他是": 9483,
      "##我，": 9484,
      "##我在": 9485,
      "##我也": 9486,
      "##一人": 9487,
      "##。陈海": 9488,
      "##。郑西坡": 9489,
      "##：哎": 9490,
      "##：老": 9491,
      "##成长": 9492,
      "##就得": 9493,
      "##般的": 9494,
      "##不对": 9495,
      "##不及": 9496,
      "##说，他": 9497,
      "##头上": 9498,
      "##头发": 9499,
      "##脑海": 9500,
      "##行贿": 9501,
      "##手里": 9502,
      "##手续": 9503,
      "##笑容": 9504,
      "##老书记": 9505,
      "##实际": 9506,
      "##动的": 9507,
      "##地面": 9508,
      "##为啥": 9509,
      "##在大": 9510,
      "##副省": 9511,
      "##紧急": 9512,
      "##区长": 9513,
      "##常伟思": 9514,
      "##法律": 9515,
      "##文章": 9516,
      "##积极": 9517,
      "##车祸": 9518,
      "##失望": 9519,
      "##制造": 9520,
      "##内的": 9521,
      "##可见": 9522,
      "##金属": 9523,
      "##构成": 9524,
      "##走了。": 9525,
      "##电子": 9526,
      "##仍在": 9527,
      "##随时": 9528,
      "##随意": 9529,
      "##还没有": 9530,
      "##顺利": 9531,
      "##怎样": 9532,
      "##刘总": 9533,
      "##批评": 9534,
      "##彩虹": 9535,
      "##重点": 9536,
      "##案件": 9537,
      "##导致": 9538,
      "##严肃": 9539,
      "##相对": 9540,
      "##相比": 9541,
      "##十一": 9542,
      "##冯。诺伊曼": 9543,
      "##边的": 9544,
      "##寂静": 9545,
      "##灿烂": 9546,
      "##追随": 9547,
      "##赶快": 9548,
      "##忘记": 9549,
      "##左右": 9550,
      "##递给": 9551,
      "##聪明": 9552,
      "##维度": 9553,
      "##牺牲": 9554,
      "##逐渐": 9555,
      "##高育良的": 9556,
      "##，是不是": 9557,
      "##，就像": 9558,
      "##，只能": 9559,
      "##陈海的": 9560,
      "##一次次": 9561,
      "##，有些": 9562,
      "##举报人": 9563,
      "##雷志成": 9564,
      "大史": 9565,
      "##上班": 9566,
      "##星空": 9567,
      "##来说": 9568,
      "##的同": 9569,
      "##，好": 9570,
      "##，如": 9571,
      "##，好像": 9572,
      "##一家": 9573,
      "##成果": 9574,
      "##亮的": 9575,
      "##是对": 9576,
      "##不再": 9577,
      "##不堪": 9578,
      "##说说": 9579,
      "##说出": 9580,
      "##说着，": 9581,
      "##！这": 9582,
      "##行为": 9583,
      "##收拾": 9584,
      "##神秘": 9585,
      "##声色": 9586,
      "##软件": 9587,
      "##也不是": 9588,
      "##出身": 9589,
      "##高，": 9590,
      "##更多": 9591,
      "##打击": 9592,
      "##感受": 9593,
      "##从未": 9594,
      "##并不是": 9595,
      "##心情": 9596,
      "##学术": 9597,
      "##台阶": 9598,
      "##机器": 9599,
      "##失去": 9600,
      "##数量": 9601,
      "##总会": 9602,
      "##间的": 9603,
      "##交流": 9604,
      "##表态": 9605,
      "##东方": 9606,
      "##10": 9607,
      "##.\"": 9608,
      "##十六": 9609,
      "##信访": 9610,
      "##奋斗": 9611,
      "##孤鹰": 9612,
      "##200": 9613,
      "##二百": 9614,
      "##岩台": 9615,
      "##百分之": 9616,
      "##躺在": 9617,
      "##穿过": 9618,
      "##执行": 9619,
      "##焦虑": 9620,
      "##渴望": 9621,
      "##秀秀": 9622,
      "##叛军": 9623,
      "##了，这": 9624,
      "##了。我": 9625,
      "##吗？我": 9626,
      "##，不知": 9627,
      "##怎么样": 9628,
      "##，那个": 9629,
      "##。这位": 9630,
      "##发现了": 9631,
      "##也不会": 9632,
      "##宇宙的": 9633,
      "##宇宙中": 9634,
      "##地球三体": 9635,
      "##反贪总局": 9636,
      "##，说是": 9637,
      "##的老婆": 9638,
      "##复杂的": 9639,
      "##尤其是": 9640,
      "##孤鹰岭": 9641,
      "刘新建": 9642,
      "##上有": 9643,
      "##上校": 9644,
      "##的气": 9645,
      "##的研究": 9646,
      "##大声": 9647,
      "##，三": 9648,
      "##，最": 9649,
      "##，-": 9650,
      "##，满": 9651,
      "##，其实": 9652,
      "##，虽然": 9653,
      "##，咱们": 9654,
      "##了他": 9655,
      "##了些": 9656,
      "##了起来。": 9657,
      "##我不": 9658,
      "##一大": 9659,
      "##一脸": 9660,
      "##一座": 9661,
      "##一遍": 9662,
      "##：好": 9663,
      "##们的": 9664,
      "##就算": 9665,
      "##就没有": 9666,
      "##就这么": 9667,
      "##有多": 9668,
      "##有没有": 9669,
      "##不停": 9670,
      "##长时间": 9671,
      "##都能": 9672,
      "##向他": 9673,
      "##过桥": 9674,
      "##看上去": 9675,
      "##要做": 9676,
      "##着一个": 9677,
      "##意。": 9678,
      "##家庭": 9679,
      "##陈老": 9680,
      "##纣王": 9681,
      "##玩笑": 9682,
      "##欧洲": 9683,
      "##也不能": 9684,
      "##出来的": 9685,
      "##常常": 9686,
      "##天体": 9687,
      "##去找": 9688,
      "##否则": 9689,
      "##之后": 9690,
      "##空气": 9691,
      "##几十": 9692,
      "##思维": 9693,
      "##第一个": 9694,
      "##明确": 9695,
      "##真相": 9696,
      "##举起": 9697,
      "##形象": 9698,
      "##白沐霖": 9699,
      "##走了，": 9700,
      "##电视": 9701,
      "##显得": 9702,
      "##红色": 9703,
      "##提出": 9704,
      "##摇头": 9705,
      "##签字": 9706,
      "##重复": 9707,
      "##落实": 9708,
      "##花园": 9709,
      "##四十": 9710,
      "##改造": 9711,
      "##灾难": 9712,
      "##厚的": 9713,
      "##爆发": 9714,
      "##市局": 9715,
      "##资料": 9716,
      "##丰富": 9717,
      "##即将": 9718,
      "##秒钟": 9719,
      "##配合": 9720,
      "##各个": 9721,
      "##呼吸": 9722,
      "##嘛。": 9723,
      "##恢复": 9724,
      "##迟疑": 9725,
      "##掏出": 9726,
      "##咖啡": 9727,
      "##，不过": 9728,
      "##，不断": 9729,
      "##瑞金同志": 9730,
      "##。这些": 9731,
      "##地球文明": 9732,
      "##一样，": 9733,
      "##出现了": 9734,
      "##。当然": 9735,
      "##所有的": 9736,
      "##城市银行": 9737,
      "##工程师": 9738,
      "##点点头，": 9739,
      "##熟悉的": 9740,
      "##“九一六”事件": 9741,
      "什么": 9742,
      "孙连城": 9743,
      "欧阳": 9744,
      "这是": 9745,
      "##那是": 9746,
      "##那就": 9747,
      "##来得": 9748,
      "##的波": 9749,
      "##的政治": 9750,
      "##的力量": 9751,
      "##大小": 9752,
      "##大部分": 9753,
      "##，开": 9754,
      "##，问": 9755,
      "##，比": 9756,
      "##，打": 9757,
      "##，已经": 9758,
      "##，终于": 9759,
      "##答应": 9760,
      "##了点": 9761,
      "##了半": 9762,
      "##开会": 9763,
      "##室，": 9764,
      "##这场": 9765,
      "##官场": 9766,
      "##：2": 9767,
      "##和陆亦可": 9768,
      "##关心": 9769,
      "##关于": 9770,
      "##就更": 9771,
      "##有所": 9772,
      "##不出": 9773,
      "##不仅": 9774,
      "##给侯亮平": 9775,
      "##说到": 9776,
      "##说！": 9777,
      "##过。": 9778,
      "##笑了": 9779,
      "##害怕": 9780,
      "##小小的": 9781,
      "##证人": 9782,
      "##色彩": 9783,
      "##为止": 9784,
      "##进来，": 9785,
      "##中有": 9786,
      "##人！": 9787,
      "##高兴": 9788,
      "##风雨": 9789,
      "##日的": 9790,
      "##桌子": 9791,
      "##打电话": 9792,
      "##学长": 9793,
      "##请你": 9794,
      "##留下了": 9795,
      "##球体": 9796,
      "##强烈": 9797,
      "##伟大": 9798,
      "##寻常": 9799,
      "##巨摆": 9800,
      "##轻易": 9801,
      "##背后": 9802,
      "##倒在": 9803,
      "##暂时": 9804,
      "##纷纷": 9805,
      "##某些": 9806,
      "##转，": 9807,
      "##夜里": 9808,
      "##八十": 9809,
      "##接到": 9810,
      "##接近": 9811,
      "##号楼": 9812,
      "##提拔": 9813,
      "##摇头：": 9814,
      "##民族": 9815,
      "##才是": 9816,
      "##监督": 9817,
      "##欢迎": 9818,
      "##撞击": 9819,
      "##四处": 9820,
      "##夫妻": 9821,
      "##木星": 9822,
      "##战士": 9823,
      "##科幻": 9824,
      "##职务": 9825,
      "##疲惫": 9826,
      "##军官": 9827,
      "##核心": 9828,
      "##拒绝": 9829,
      "##，这次": 9830,
      "##，不能": 9831,
      "##祁同伟的": 9832,
      "##，那就": 9833,
      "##。这时，": 9834,
      "##啊！侯亮平": 9835,
      "##，我们的": 9836,
      "##沙瑞金书记": 9837,
      "##工作，": 9838,
      "##告诉我": 9839,
      "##发生了": 9840,
      "##光明区": 9841,
      "##秘书长": 9842,
      "##点点头": 9843,
      "##光明湖项目": 9844,
      "##雷达峰": 9845,
      "##追随者": 9846,
      "欧阳菁": 9847,
      "这个": 9848,
      "##那种": 9849,
      "##采取": 9850,
      "##的我": 9851,
      "##的眼": 9852,
      "##的日": 9853,
      "##的女": 9854,
      "##的那个": 9855,
      "##的机会": 9856,
      "##大门": 9857,
      "##大火": 9858,
      "##，绝": 9859,
      "##，得": 9860,
      "##，去": 9861,
      "##，直": 9862,
      "##，全": 9863,
      "##，即使": 9864,
      "##他人": 9865,
      "##后果": 9866,
      "##这儿": 9867,
      "##时期": 9868,
      "##已是": 9869,
      "##一句": 9870,
      "##一百": 9871,
      "##。不过": 9872,
      "##官员": 9873,
      "##：3": 9874,
      "##是不": 9875,
      "##是说": 9876,
      "##是要": 9877,
      "##啥事": 9878,
      "##就行": 9879,
      "##不用": 9880,
      "##不由": 9881,
      "##太多": 9882,
      "##吧，我": 9883,
      "##对他": 9884,
      "##检查": 9885,
      "##过去，": 9886,
      "##想着": 9887,
      "##道理": 9888,
      "##看来，": 9889,
      "##地问": 9890,
      "##自强": 9891,
      "##进化": 9892,
      "##寒冷": 9893,
      "##做过": 9894,
      "##师生": 9895,
      "##多次": 9896,
      "##打个": 9897,
      "##机械": 9898,
      "##传来": 9899,
      "##反动": 9900,
      "##”，": 9901,
      "##点，": 9902,
      "##安置": 9903,
      "##惊奇": 9904,
      "##无意": 9905,
      "##第三": 9906,
      "##三维": 9907,
      "##找不到": 9908,
      "##领域": 9909,
      "##力。": 9910,
      "##回来，": 9911,
      "##远方": 9912,
      "##通知": 9913,
      "##转移": 9914,
      "##国内": 9915,
      "##规划": 9916,
      "##当地": 9917,
      "##路上，": 9918,
      "##陆处长": 9919,
      "##结论": 9920,
      "##监视": 9921,
      "##退休": 9922,
      "##沉重": 9923,
      "##深刻": 9924,
      "##深入": 9925,
      "##群访": 9926,
      "##统帅": 9927,
      "##四下": 9928,
      "##尽快": 9929,
      "##值得": 9930,
      "##沿着": 9931,
      "##雪茄": 9932,
      "##格外": 9933,
      "##双方": 9934,
      "##武器": 9935,
      "##五十": 9936,
      "##挑战": 9937,
      "##炸药": 9938,
      "##招待": 9939,
      "##启动": 9940,
      "##婚姻": 9941,
      "##魏成": 9942,
      "##奸商": 9943,
      "##了，一": 9944,
      "##，这时": 9945,
      "##什么都": 9946,
      "##，但这": 9947,
      "##时间，": 9948,
      "##电话里": 9949,
      "##，让我": 9950,
      "##生活的": 9951,
      "##组织部": 9952,
      "##微笑着": 9953,
      "##指挥中心": 9954,
      "##接收到": 9955,
      "##意味着": 9956,
      "##女孩儿": 9957,
      "##电磁辐射": 9958,
      "##怎么回事？": 9959,
      "如果": 9960,
      "是的，": 9961,
      "赵德汉": 9962,
      "##帮助": 9963,
      "##上前": 9964,
      "##到我": 9965,
      "##来找": 9966,
      "##的名": 9967,
      "##的技术": 9968,
      "##记住": 9969,
      "##，身": 9970,
      "##，会": 9971,
      "##，小": 9972,
      "##，竟": 9973,
      "##，开始": 9974,
      "##，比如": 9975,
      "##，道是": 9976,
      "##了口气": 9977,
      "##开的": 9978,
      "##一分": 9979,
      "##。留一点": 9980,
      "##平时": 9981,
      "##是我们": 9982,
      "##就没": 9983,
      "##不时": 9984,
      "##不解": 9985,
      "##长期": 9986,
      "##对着": 9987,
      "##对象": 9988,
      "##对不起": 9989,
      "##说着": 9990,
      "##说，我": 9991,
      "##向我": 9992,
      "##下车": 9993,
      "##下一步": 9994,
      "##想，": 9995,
      "##会，": 9996,
      "##前面": 9997,
      "##面临": 9998,
      "##地问：": 9999,
      "##地平线": 10000,
      "##自杀": 10001,
      "##现出": 10002,
      "##高能": 10003,
      "##兄弟": 10004,
      "##妹妹": 10005,
      "##简直": 10006,
      "##使他": 10007,
      "##去了。": 10008,
      "##只剩": 10009,
      "##台上": 10010,
      "##理由": 10011,
      "##院长": 10012,
      "##之中": 10013,
      "##”。": 10014,
      "##思索": 10015,
      "##无奈": 10016,
      "##将军": 10017,
      "##最大的": 10018,
      "##极其": 10019,
      "##-的": 10020,
      "##真诚": 10021,
      "##把手": 10022,
      "##任务": 10023,
      "##回头": 10024,
      "##回避": 10025,
      "##回到了": 10026,
      "##绍琳": 10027,
      "##疑惑": 10028,
      "##物种": 10029,
      "##财务": 10030,
      "##画面": 10031,
      "##今晚": 10032,
      "##八年": 10033,
      "##提到": 10034,
      "##提供": 10035,
      "##质押": 10036,
      "##重视": 10037,
      "##美好": 10038,
      "##直升": 10039,
      "##初步": 10040,
      "##严峻": 10041,
      "##屋里": 10042,
      "##威胁": 10043,
      "##吸引": 10044,
      "##尽管": 10045,
      "##微波": 10046,
      "##兵团": 10047,
      "##颤抖": 10048,
      "##资金": 10049,
      "##幸运": 10050,
      "##敌人": 10051,
      "##站起来，": 10052,
      "##庆嫂": 10053,
      "##哥哥": 10054,
      "##穿着": 10055,
      "##勇敢": 10056,
      "##艰难": 10057,
      "##土地": 10058,
      "##呵呵": 10059,
      "##获得": 10060,
      "##描述": 10061,
      "##兆赫": 10062,
      "##宝宝": 10063,
      "##脚步": 10064,
      "##欣赏": 10065,
      "##，他就": 10066,
      "##，你也": 10067,
      "##说：这": 10068,
      "##成功的": 10069,
      "##成功。": 10070,
      "##吗？你": 10071,
      "##，一定": 10072,
      "##希望给自己": 10073,
      "##大风服装": 10074,
      "##省委书记沙瑞金": 10075,
      "##物理学家": 10076,
      "##看了看": 10077,
      "##意味深": 10078,
      "##真正的": 10079,
      "元首": 10080,
      "现在": 10081,
      "##那边": 10082,
      "##的火": 10083,
      "##的，这": 10084,
      "##的天空": 10085,
      "##的速度": 10086,
      "##记忆": 10087,
      "##，给": 10088,
      "##，手": 10089,
      "##，前": 10090,
      "##，咱": 10091,
      "##，太阳": 10092,
      "##，于是": 10093,
      "##了这": 10094,
      "##了我的": 10095,
      "##开心": 10096,
      "##我想": 10097,
      "##一生": 10098,
      "##一路": 10099,
      "##一处": 10100,
      "##。与": 10101,
      "##。赵东来": 10102,
      "##。于是": 10103,
      "##。吴慧芬": 10104,
      "##：在": 10105,
      "##你能": 10106,
      "##是的，": 10107,
      "##是我的": 10108,
      "##？你": 10109,
      "##立案": 10110,
      "##里。": 10111,
      "##像是": 10112,
      "##不成": 10113,
      "##不觉": 10114,
      "##不说": 10115,
      "##不去": 10116,
      "##对自己": 10117,
      "##身后": 10118,
      "##本身": 10119,
      "##本质": 10120,
      "##都很": 10121,
      "##过来。": 10122,
      "##下一": 10123,
      "##下。": 10124,
      "##想了": 10125,
      "##想说": 10126,
      "##事业": 10127,
      "##手一": 10128,
      "##看出": 10129,
      "##住了，": 10130,
      "##老易": 10131,
      "##神情": 10132,
      "##眼泪": 10133,
      "##着头": 10134,
      "##得意": 10135,
      "##家，": 10136,
      "##色，": 10137,
      "##在京州": 10138,
      "##纪检": 10139,
      "##紧紧": 10140,
      "##喇叭": 10141,
      "##风中": 10142,
      "##风险": 10143,
      "##茅台": 10144,
      "##干警": 10145,
      "##放心": 10146,
      "##放松": 10147,
      "##心的": 10148,
      "##心理": 10149,
      "##只得": 10150,
      "##传说": 10151,
      "##失踪": 10152,
      "##思路": 10153,
      "##无论": 10154,
      "##门前": 10155,
      "##可不是": 10156,
      "##以后，": 10157,
      "##回了": 10158,
      "##沙瑞山": 10159,
      "##分别": 10160,
      "##构成的": 10161,
      "##电路": 10162,
      "##电梯": 10163,
      "##场上": 10164,
      "##场。": 10165,
      "##西装": 10166,
      "##转动": 10167,
      "##建造": 10168,
      "##往事": 10169,
      "##往往": 10170,
      "##赵公子": 10171,
      "##视频": 10172,
      "##脸色": 10173,
      "##呢。": 10174,
      "##退路": 10175,
      "##违法": 10176,
      "##相关": 10177,
      "##相互": 10178,
      "##爱情": 10179,
      "##爱因": 10180,
      "##至少": 10181,
      "##设计": 10182,
      "##信号": 10183,
      "##信封": 10184,
      "##皇帝": 10185,
      "##秦老师": 10186,
      "##存贮": 10187,
      "##医生": 10188,
      "##20": 10189,
      "##郑胜利": 10190,
      "##特殊": 10191,
      "##月亮": 10192,
      "##月牙": 10193,
      "##角度": 10194,
      "##考察": 10195,
      "##移动": 10196,
      "##准确": 10197,
      "##拥有": 10198,
      "##五千": 10199,
      "##耳边": 10200,
      "##恶劣": 10201,
      "##承担": 10202,
      "##浸泡": 10203,
      "##阿庆嫂": 10204,
      "##轨道": 10205,
      "##毕业": 10206,
      "##农民": 10207,
      "##昨夜": 10208,
      "##辈子": 10209,
      "##懒政": 10210,
      "##狙击": 10211,
      "##，那些": 10212,
      "##的人们": 10213,
      "##三体时": 10214,
      "##世界上": 10215,
      "##世界，": 10216,
      "##欧阳菁的": 10217,
      "##办公桌": 10218,
      "##不同的": 10219,
      "##其他人": 10220,
      "##内心的": 10221,
      "##不断地": 10222,
      "##简单的": 10223,
      "##毕竟是": 10224,
      "##说罢，": 10225,
      "##看守所": 10226,
      "##招待所": 10227,
      "赵东来": 10228,
      "##的“": 10229,
      "##的学生": 10230,
      "##的第一": 10231,
      "##的精神": 10232,
      "##的目光": 10233,
      "##，走": 10234,
      "##，希望": 10235,
      "##，肯定": 10236,
      "##，才能": 10237,
      "##，竟然": 10238,
      "##，既然": 10239,
      "##，包括": 10240,
      "##他又": 10241,
      "##答案": 10242,
      "##了——": 10243,
      "##时，他": 10244,
      "##我和": 10245,
      "##定了": 10246,
      "##定律": 10247,
      "##一件": 10248,
      "##。赵瑞龙": 10249,
      "##：哦": 10250,
      "##你！": 10251,
      "##是怎么": 10252,
      "##关注": 10253,
      "##就有": 10254,
      "##就把": 10255,
      "##话：": 10256,
      "##里有": 10257,
      "##有过": 10258,
      "##有数": 10259,
      "##不定": 10260,
      "##不顾": 10261,
      "##不止": 10262,
      "##不足": 10263,
      "##让侯亮平": 10264,
      "##都被": 10265,
      "##突变": 10266,
      "##发送": 10267,
      "##向你": 10268,
      "##行的": 10269,
      "##行长": 10270,
      "##收缩": 10271,
      "##笑道：": 10272,
      "##老总": 10273,
      "##眼中": 10274,
      "##陷入": 10275,
      "##样，": 10276,
      "##陈局长": 10277,
      "##地说，": 10278,
      "##地问。": 10279,
      "##此时": 10280,
      "##此人": 10281,
      "##确凿": 10282,
      "##进来": 10283,
      "##在我的": 10284,
      "##也得": 10285,
      "##出门": 10286,
      "##出乎": 10287,
      "##黑球": 10288,
      "##音乐": 10289,
      "##风吹": 10290,
      "##师傅": 10291,
      "##法官": 10292,
      "##用于": 10293,
      "##英雄": 10294,
      "##同事": 10295,
      "##作战": 10296,
      "##从小": 10297,
      "##心头": 10298,
      "##或是": 10299,
      "##麻木": 10300,
      "##持续": 10301,
      "##主持": 10302,
      "##工厂": 10303,
      "##反复": 10304,
      "##之后，": 10305,
      "##窗户": 10306,
      "##失去了": 10307,
      "##低声": 10308,
      "##三年": 10309,
      "##可惜": 10310,
      "##其中的": 10311,
      "##超过": 10312,
      "##真心": 10313,
      "##形势": 10314,
      "##化为": 10315,
      "##部队": 10316,
      "##加快": 10317,
      "##远的": 10318,
      "##通讯": 10319,
      "##表达": 10320,
      "##戴着": 10321,
      "##新来的": 10322,
      "##见了": 10323,
      "##见面": 10324,
      "##当真": 10325,
      "##接地": 10326,
      "##火海": 10327,
      "##赵东": 10328,
      "##赵局长": 10329,
      "##嘴里": 10330,
      "##毫不": 10331,
      "##气氛": 10332,
      "##才会": 10333,
      "##灯光": 10334,
      "##至今": 10335,
      "##合适": 10336,
      "##清白": 10337,
      "##挥手": 10338,
      "##层次": 10339,
      "##流逝": 10340,
      "##梦中": 10341,
      "##似的。": 10342,
      "##阴影": 10343,
      "##烟，": 10344,
      "##遭遇": 10345,
      "##宁静": 10346,
      "##透过": 10347,
      "##模拟": 10348,
      "##造成": 10349,
      "##悬崖": 10350,
      "##森林": 10351,
      "##教室": 10352,
      "##教育": 10353,
      "##故事": 10354,
      "##食堂": 10355,
      "##习惯": 10356,
      "##茶杯": 10357,
      "##护厂": 10358,
      "##董事": 10359,
      "##军事": 10360,
      "##聚会": 10361,
      "##译解": 10362,
      "##杏枝": 10363,
      "##尝试": 10364,
      "##，我和": 10365,
      "##一个大": 10366,
      "##，这里": 10367,
      "##了。这": 10368,
      "##没有任何": 10369,
      "##了一会儿": 10370,
      "##了一口气": 10371,
      "##，在这": 10372,
      "##太阳运行": 10373,
      "##高小琴的": 10374,
      "##看到的": 10375,
      "##希望。": 10376,
      "##是一位": 10377,
      "##生活中": 10378,
      "##信息的": 10379,
      "##应该是": 10380,
      "##成了一个": 10381,
      "##红岸工程": 10382,
      "##明白了，": 10383,
      "##的那一": 10384,
      "##政法委书记": 10385,
      "##父亲的": 10386,
      "##产生的": 10387,
      "##三体世界的": 10388,
      "##离开了": 10389,
      "##拯救派": 10390,
      "##嫌疑人": 10391,
      "##安置费": 10392,
      "##爱因斯坦": 10393,
      "##上来": 10394,
      "##上帝": 10395,
      "##的面": 10396,
      "##大多": 10397,
      "##大楼": 10398,
      "##大厦": 10399,
      "##生物": 10400,
      "##，刘新建": 10401,
      "##，为了": 10402,
      "##，很快": 10403,
      "##，需要": 10404,
      "##他在": 10405,
      "##他妈": 10406,
      "##了呢？": 10407,
      "##后者": 10408,
      "##开口": 10409,
      "##这份": 10410,
      "##已被": 10411,
      "##一怔": 10412,
      "##一支": 10413,
      "##一口": 10414,
      "##一股": 10415,
      "##一份": 10416,
      "##一看，": 10417,
      "##。对": 10418,
      "##。老师": 10419,
      "##。然而": 10420,
      "##：1": 10421,
      "##：0": 10422,
      "##：这个": 10423,
      "##：侯局长": 10424,
      "##成立": 10425,
      "##和山水集团": 10426,
      "##是为": 10427,
      "##是由": 10428,
      "##是啊，": 10429,
      "##啥都": 10430,
      "##话。": 10431,
      "##话筒": 10432,
      "##不为": 10433,
      "##不满": 10434,
      "##不明白": 10435,
      "##不下去": 10436,
      "##对面": 10437,
      "##对方": 10438,
      "##对自己的": 10439,
      "##很大的": 10440,
      "##给我们": 10441,
      "##装具": 10442,
      "##！季昌明": 10443,
      "##发，": 10444,
      "##行。": 10445,
      "##过一": 10446,
      "##下令": 10447,
      "##下来的": 10448,
      "##想要": 10449,
      "##道德": 10450,
      "##会的": 10451,
      "##会不会": 10452,
      "##摆锤": 10453,
      "##摆手：": 10454,
      "##手下": 10455,
      "##要有": 10456,
      "##老同学": 10457,
      "##着急": 10458,
      "##小区": 10459,
      "##意儿": 10460,
      "##动作": 10461,
      "##地点": 10462,
      "##地上，": 10463,
      "##自身": 10464,
      "##玩意儿": 10465,
      "##进攻": 10466,
      "##在一个": 10467,
      "##中考": 10468,
      "##dp": 10469,
      "##究竟": 10470,
      "##方面的": 10471,
      "##出现在": 10472,
      "##黑白": 10473,
      "##天下": 10474,
      "##语言": 10475,
      "##听着": 10476,
      "##干啥？": 10477,
      "##打着": 10478,
      "##打算": 10479,
      "##感叹": 10480,
      "##但是": 10481,
      "##少年": 10482,
      "##只好": 10483,
      "##专车": 10484,
      "##台球": 10485,
      "##之外": 10486,
      "##安岭": 10487,
      "##几年": 10488,
      "##无关": 10489,
      "##无力": 10490,
      "##明，": 10491,
      "##门。": 10492,
      "##最好": 10493,
      "##以及": 10494,
      "##两位": 10495,
      "##金山": 10496,
      "##宣布": 10497,
      "##加上": 10498,
      "##交给": 10499,
      "##随便": 10500,
      "##具有": 10501,
      "##光速": 10502,
      "##镜面": 10503,
      "##新大风": 10504,
      "##哪怕": 10505,
      "##见过": 10506,
      "##国的": 10507,
      "##充分": 10508,
      "##推测": 10509,
      "##接待": 10510,
      "##培养": 10511,
      "##步枪": 10512,
      "##h大学": 10513,
      "##阻止": 10514,
      "##舒服": 10515,
      "##固定": 10516,
      "##美女": 10517,
      "##美好的": 10518,
      "##正好": 10519,
      "##严厉": 10520,
      "##相反": 10521,
      "##快步": 10522,
      "##爱的": 10523,
      "##爱好": 10524,
      "##信任": 10525,
      "##石头": 10526,
      "##投入": 10527,
      "##智能": 10528,
      "##拿马": 10529,
      "##等于": 10530,
      "##仰望": 10531,
      "##侦察": 10532,
      "##静静": 10533,
      "##兴安岭": 10534,
      "##代价": 10535,
      "##gdp": 10536,
      "##联合": 10537,
      "##误会": 10538,
      "##嘲讽": 10539,
      "##差不多": 10540,
      "##故障": 10541,
      "##诗人": 10542,
      "##党和": 10543,
      "##毛病": 10544,
      "##宏观": 10545,
      "##军人": 10546,
      "##笼罩": 10547,
      "##浑身": 10548,
      "##巡视": 10549,
      "##博士": 10550,
      "##依法": 10551,
      "##谦虚": 10552,
      "##覆盖": 10553,
      "##了，就": 10554,
      "##侯亮平，": 10555,
      "##侯亮平说：": 10556,
      "##，你说": 10557,
      "##没有？": 10558,
      "##什么。": 10559,
      "##的，就是": 10560,
      "##的一次": 10561,
      "##的人，": 10562,
      "##。这次": 10563,
      "##问题。": 10564,
      "##后，她": 10565,
      "##，有时": 10566,
      "##今天的": 10567,
      "##，他们的": 10568,
      "##，对于": 10569,
      "##进行了": 10570,
      "##告诉他": 10571,
      "##感觉到": 10572,
      "##，当然": 10573,
      "##那么多": 10574,
      "##过去了，": 10575,
      "##微笑给自己": 10576,
      "##，每个": 10577,
      "##充满了": 10578,
      "##会议室": 10579,
      "##太空中的": 10580,
      "##月牙湖": 10581,
      "吴彩霞": 10582,
      "红色": 10583,
      "##那天": 10584,
      "##上访": 10585,
      "##上任": 10586,
      "##到了，": 10587,
      "##的《": 10588,
      "##的确": 10589,
      "##的白": 10590,
      "##的分": 10591,
      "##的同志": 10592,
      "##的电话": 10593,
      "##的意思": 10594,
      "##的时代": 10595,
      "##大片": 10596,
      "##大臣": 10597,
      "##，长": 10598,
      "##，早": 10599,
      "##，发现": 10600,
      "##，宇宙": 10601,
      "##，赵瑞龙": 10602,
      "##，同时": 10603,
      "##，由于": 10604,
      "##了三": 10605,
      "##开玩笑": 10606,
      "##我说": 10607,
      "##一时": 10608,
      "##一手": 10609,
      "##一年": 10610,
      "##一号": 10611,
      "##。对于": 10612,
      "##警觉": 10613,
      "##和她": 10614,
      "##和丁义珍": 10615,
      "##和季昌明": 10616,
      "##平面": 10617,
      "##平凡": 10618,
      "##是为了": 10619,
      "##？这": 10620,
      "##话，": 10621,
      "##示意": 10622,
      "##！”": 10623,
      "##向上": 10624,
      "##手段": 10625,
      "##看不到": 10626,
      "##住了。": 10627,
      "##要在": 10628,
      "##老同志": 10629,
      "##家的": 10630,
      "##地，": 10631,
      "##地站": 10632,
      "##此刻": 10633,
      "##每次": 10634,
      "##在哪里": 10635,
      "##副院长": 10636,
      "##而且": 10637,
      "##也太": 10638,
      "##也就是": 10639,
      "##出于": 10640,
      "##出逃": 10641,
      "##厂区": 10642,
      "##厂子": 10643,
      "##天气": 10644,
      "##更好的": 10645,
      "##同时，": 10646,
      "##万一": 10647,
      "##作业": 10648,
      "##干净": 10649,
      "##打了": 10650,
      "##打断": 10651,
      "##打破": 10652,
      "##感应": 10653,
      "##持股": 10654,
      "##机构": 10655,
      "##之处": 10656,
      "##几次": 10657,
      "##强势": 10658,
      "##练习": 10659,
      "##-.": 10660,
      "##她，": 10661,
      "##部的": 10662,
      "##部下": 10663,
      "##分之一": 10664,
      "##叶文": 10665,
      "##走上": 10666,
      "##走，": 10667,
      "##财富": 10668,
      "##底线": 10669,
      "##杨母": 10670,
      "##光。": 10671,
      "##组合": 10672,
      "##喝酒": 10673,
      "##春天": 10674,
      "##春林": 10675,
[...]
