{
  "version": "1.0",
  "truncation": null,
  "padding": null,
  "added_tokens": [
    {
      "id": 0,
      "content": "[UNK]",
      "single_word": false,
      "lstrip": false,
      "rstrip": false,
      "normalized": false,
      "special": true
    },
    {
      "id": 1,
      "content": "[PAD]",
      "single_word": false,
      "lstrip": false,
      "rstrip": false,
      "normalized": false,
      "special": true
    },
    {
      "id": 2,
      "content": "[CLS]",
      "single_word": false,
      "lstrip": false,
      "rstrip": false,
      "normalized": false,
      "special": true
    },
    {
      "id": 3,
      "content": "[SEP]",
      "single_word": false,
      "lstrip": false,
      "rstrip": false,
      "normalized": false,
      "special": true
    },
    {
      "id": 4,
      "content": "[MASK]",
      "single_word": false,
      "lstrip": false,
      "rstrip": false,
      "normalized": false,
      "special": true
    }
  ],
  "normalizer": {
    "type": "Sequence",
    "normalizers": [
      {
        "type": "NFD"
      },
      {
        "type": "Lowercase"
      }
    ]
  },
  "pre_tokenizer": {
    "type": "WhitespaceSplit"
  },
  "post_processor": null,
  "decoder": null,
  "model": {
    "type": "WordPiece",
    "unk_token": "[UNK]",
    "continuing_subword_prefix": "##",
    "max_input_chars_per_word": 100,
    "vocab": {
      "[UNK]": 0,
      "[PAD]": 1,
      "[CLS]": 2,
      "[SEP]": 3,
      "[MASK]": 4,
      "\"": 5,
      "&": 6,
      "'": 7,
      "*": 8,
      "+": 9,
      "-": 10,
      ".": 11,
      "/": 12,
      "0": 13,
      "1": 14,
      "2": 15,
      "3": 16,
      "4": 17,
      "5": 18,
      "6": 19,
      "7": 20,
      "8": 21,
      "9": 22,
      ";": 23,
      "=": 24,
      ">": 25,
      "?": 26,
      "]": 27,
      "_": 28,
      "a": 29,
      "b": 30,
      "c": 31,
      "d": 32,
      "e": 33,
      "f": 34,
      "g": 35,
      "h": 36,
      "i": 37,
      "j": 38,
      "k": 39,
      "l": 40,
      "m": 41,
      "n": 42,
      "o": 43,
      "p": 44,
      "q": 45,
      "r": 46,
      "s": 47,
      "t": 48,
      "u": 49,
      "v": 50,
      "w": 51,
      "x": 52,
      "y": 53,
      "z": 54,
      "{": 55,
      "}": 56,
      "~": 57,
      "§": 58,
      "±": 59,
      "ε": 60,
      "π": 61,
      "—": 62,
      "―": 63,
      "…": 64,
      "℃": 65,
      "ⅰ": 66,
      "ⅱ": 67,
      "ⅲ": 68,
      "、": 69,
      "。": 70,
      "《": 71,
      "》": 72,
      "「": 73,
      "」": 74,
      "一": 75,
      "丁": 76,
      "七": 77,
      "万": 78,
      "丈": 79,
      "三": 80,
      "上": 81,
      "下": 82,
      "不": 83,
      "与": 84,
      "丐": 85,
      "丑": 86,
      "专": 87,
      "且": 88,
      "世": 89,
      "丘": 90,
      "业": 91,
      "丛": 92,
      "东": 93,
      "丝": 94,
      "丢": 95,
      "两": 96,
      "严": 97,
      "丧": 98,
      "个": 99,
      "丫": 100,
      "中": 101,
      "丰": 102,
      "串": 103,
      "临": 104,
      "为": 105,
      "主": 106,
      "丽": 107,
      "举": 108,
      "久": 109,
      "么": 110,
      "义": 111,
      "之": 112,
      "乌": 113,
      "乎": 114,
      "乏": 115,
      "乐": 116,
      "乒": 117,
      "乓": 118,
      "乖": 119,
      "乘": 120,
      "九": 121,
      "乞": 122,
      "也": 123,
      "习": 124,
      "乡": 125,
      "书": 126,
      "买": 127,
      "乱": 128,
      "乳": 129,
      "了": 130,
      "予": 131,
      "争": 132,
      "事": 133,
      "二": 134,
      "于": 135,
      "亏": 136,
      "云": 137,
      "互": 138,
      "五": 139,
      "井": 140,
      "亘": 141,
      "亚": 142,
      "些": 143,
      "亡": 144,
      "交": 145,
      "产": 146,
      "亩": 147,
      "享": 148,
      "京": 149,
      "亭": 150,
      "亮": 151,
      "亲": 152,
      "人": 153,
      "亿": 154,
      "什": 155,
      "仁": 156,
      "仅": 157,
      "仆": 158,
      "仇": 159,
      "今": 160,
      "介": 161,
      "仍": 162,
      "从": 163,
      "仓": 164,
      "仔": 165,
      "他": 166,
      "付": 167,
      "仙": 168,
      "仟": 169,
      "代": 170,
      "令": 171,
      "以": 172,
      "仪": 173,
      "们": 174,
      "仰": 175,
      "件": 176,
      "价": 177,
      "任": 178,
      "份": 179,
      "仿": 180,
      "企": 181,
      "伊": 182,
      "伍": 183,
      "伏": 184,
      "伐": 185,
      "休": 186,
      "众": 187,
      "优": 188,
      "伙": 189,
      "会": 190,
      "伟": 191,
      "传": 192,
      "伤": 193,
      "伦": 194,
      "伪": 195,
      "伯": 196,
      "估": 197,
      "伴": 198,
      "伸": 199,
      "似": 200,
      "伽": 201,
      "但": 202,
      "位": 203,
      "低": 204,
      "住": 205,
      "佑": 206,
      "体": 207,
      "何": 208,
      "余": 209,
      "佛": 210,
      "作": 211,
      "你": 212,
      "佩": 213,
      "佳": 214,
      "使": 215,
      "侃": 216,
      "侈": 217,
      "例": 218,
      "供": 219,
      "依": 220,
      "侥": 221,
      "侦": 222,
      "侧": 223,
      "侵": 224,
      "便": 225,
      "促": 226,
      "俄": 227,
      "俏": 228,
      "俑": 229,
      "俗": 230,
      "保": 231,
      "信": 232,
      "俩": 233,
      "修": 234,
      "俱": 235,
      "俺": 236,
      "倍": 237,
      "倒": 238,
      "候": 239,
      "借": 240,
      "倦": 241,
      "值": 242,
      "倾": 243,
      "假": 244,
      "偏": 245,
      "做": 246,
      "停": 247,
      "健": 248,
      "偶": 249,
      "偷": 250,
      "偿": 251,
      "傅": 252,
      "傍": 253,
      "储": 254,
      "催": 255,
      "傲": 256,
      "傻": 257,
      "像": 258,
      "僧": 259,
      "僵": 260,
      "僻": 261,
      "儒": 262,
      "儿": 263,
      "允": 264,
      "元": 265,
      "兄": 266,
      "充": 267,
      "兆": 268,
      "先": 269,
      "光": 270,
      "克": 271,
      "免": 272,
      "兑": 273,
      "兔": 274,
      "党": 275,
      "兜": 276,
      "入": 277,
      "全": 278,
      "八": 279,
      "公": 280,
      "六": 281,
      "兮": 282,
      "兰": 283,
      "共": 284,
      "关": 285,
      "兴": 286,
      "兵": 287,
      "其": 288,
      "具": 289,
      "典": 290,
      "兹": 291,
      "养": 292,
      "兼": 293,
      "兽": 294,
      "内": 295,
      "冈": 296,
      "册": 297,
      "再": 298,
      "冒": 299,
      "冕": 300,
      "冗": 301,
      "写": 302,
      "军": 303,
      "农": 304,
      "冠": 305,
      "冤": 306,
      "冥": 307,
      "冬": 308,
      "冯": 309,
      "冰": 310,
      "冲": 311,
      "决": 312,
      "况": 313,
      "冶": 314,
      "冷": 315,
      "冻": 316,
      "净": 317,
      "凄": 318,
      "准": 319,
      "凉": 320,
      "凌": 321,
      "减": 322,
      "凑": 323,
      "凝": 324,
      "几": 325,
      "凡": 326,
      "凤": 327,
      "凭": 328,
      "凯": 329,
      "凳": 330,
      "凶": 331,
      "出": 332,
      "击": 333,
      "函": 334,
      "凿": 335,
      "刀": 336,
      "刁": 337,
      "刃": 338,
      "分": 339,
      "切": 340,
      "刊": 341,
      "刑": 342,
      "划": 343,
      "列": 344,
      "刘": 345,
      "则": 346,
      "刚": 347,
      "创": 348,
      "初": 349,
      "删": 350,
      "判": 351,
      "利": 352,
      "别": 353,
      "刮": 354,
      "到": 355,
      "制": 356,
      "刹": 357,
      "刺": 358,
      "刻": 359,
      "剂": 360,
      "削": 361,
      "前": 362,
      "剐": 363,
      "剑": 364,
      "剔": 365,
      "剖": 366,
      "剥": 367,
      "剧": 368,
      "剩": 369,
      "剪": 370,
      "副": 371,
      "割": 372,
      "力": 373,
      "劝": 374,
      "办": 375,
      "功": 376,
      "加": 377,
      "务": 378,
      "劣": 379,
      "动": 380,
      "助": 381,
      "努": 382,
      "劫": 383,
      "劲": 384,
      "劳": 385,
      "势": 386,
      "勃": 387,
      "勇": 388,
      "勉": 389,
      "勒": 390,
      "勘": 391,
      "募": 392,
      "勤": 393,
      "勾": 394,
      "勿": 395,
      "匀": 396,
      "包": 397,
      "匆": 398,
      "匕": 399,
      "化": 400,
      "北": 401,
      "匙": 402,
      "匠": 403,
      "匣": 404,
      "匹": 405,
      "区": 406,
      "医": 407,
      "匿": 408,
      "十": 409,
      "千": 410,
      "升": 411,
      "午": 412,
      "半": 413,
      "华": 414,
      "协": 415,
      "卑": 416,
      "卒": 417,
      "卓": 418,
      "单": 419,
      "卖": 420,
      "南": 421,
      "博": 422,
      "卜": 423,
      "占": 424,
      "卡": 425,
      "卦": 426,
      "卧": 427,
      "卫": 428,
      "印": 429,
      "危": 430,
      "即": 431,
      "却": 432,
      "卵": 433,
      "卷": 434,
      "卸": 435,
      "厂": 436,
      "厅": 437,
      "历": 438,
      "厉": 439,
      "压": 440,
      "厌": 441,
      "厘": 442,
      "厚": 443,
      "原": 444,
      "厢": 445,
      "厦": 446,
      "厨": 447,
      "去": 448,
      "县": 449,
      "参": 450,
      "又": 451,
      "叉": 452,
      "及": 453,
      "友": 454,
      "双": 455,
      "反": 456,
      "发": 457,
      "取": 458,
      "受": 459,
      "变": 460,
      "叙": 461,
      "叛": 462,
      "叠": 463,
      "口": 464,
      "古": 465,
      "句": 466,
      "另": 467,
      "叨": 468,
      "只": 469,
      "叫": 470,
      "召": 471,
      "叭": 472,
      "可": 473,
      "台": 474,
      "史": 475,
      "右": 476,
      "叶": 477,
      "号": 478,
      "司": 479,
      "叹": 480,
      "吁": 481,
      "吃": 482,
      "各": 483,
      "合": 484,
      "吉": 485,
      "吊": 486,
      "吋": 487,
      "同": 488,
      "名": 489,
      "后": 490,
      "吐": 491,
      "向": 492,
      "吓": 493,
      "吗": 494,
      "吝": 495,
      "吞": 496,
      "吟": 497,
      "否": 498,
      "吧": 499,
      "吨": 500,
      "吩": 501,
      "含": 502,
      "听": 503,
      "启": 504,
      "吱": 505,
      "吴": 506,
      "吵": 507,
      "吸": 508,
      "吹": 509,
      "吻": 510,
      "吼": 511,
      "呀": 512,
      "呆": 513,
      "呈": 514,
      "告": 515,
      "呐": 516,
      "呓": 517,
      "呕": 518,
      "呗": 519,
      "员": 520,
      "呛": 521,
      "呜": 522,
      "呢": 523,
      "周": 524,
      "味": 525,
      "呵": 526,
      "呸": 527,
      "呼": 528,
      "命": 529,
      "咋": 530,
      "和": 531,
      "咐": 532,
      "咒": 533,
      "咔": 534,
      "咕": 535,
      "咖": 536,
      "咙": 537,
      "咚": 538,
      "咝": 539,
      "咣": 540,
      "咦": 541,
      "咧": 542,
      "咪": 543,
      "咫": 544,
      "咬": 545,
      "咯": 546,
      "咱": 547,
      "咸": 548,
      "咽": 549,
      "哀": 550,
      "品": 551,
      "哄": 552,
      "哆": 553,
      "哇": 554,
      "哈": 555,
      "响": 556,
      "哑": 557,
      "哒": 558,
      "哗": 559,
      "哥": 560,
      "哦": 561,
      "哨": 562,
      "哪": 563,
      "哭": 564,
      "哲": 565,
      "哺": 566,
      "哼": 567,
      "唉": 568,
      "唐": 569,
      "唤": 570,
      "唯": 571,
      "唱": 572,
      "唾": 573,
      "啃": 574,
      "商": 575,
      "啊": 576,
      "啐": 577,
      "啡": 578,
      "啤": 579,
      "啥": 580,
      "啦": 581,
      "啪": 582,
      "啬": 583,
      "啰": 584,
      "啷": 585,
      "啸": 586,
      "啼": 587,
      "啾": 588,
      "喂": 589,
      "善": 590,
      "喇": 591,
      "喉": 592,
      "喊": 593,
      "喘": 594,
      "喜": 595,
      "喝": 596,
      "喧": 597,
      "喷": 598,
      "喻": 599,
      "嗅": 600,
      "嗉": 601,
      "嗓": 602,
      "嗔": 603,
      "嗡": 604,
      "嗤": 605,
      "嗯": 606,
      "嘛": 607,
      "嘟": 608,
      "嘲": 609,
      "嘴": 610,
      "嘶": 611,
      "嘹": 612,
      "嘿": 613,
      "噢": 614,
      "器": 615,
      "噩": 616,
      "噪": 617,
      "噬": 618,
      "噼": 619,
      "嚓": 620,
      "囔": 621,
      "四": 622,
      "回": 623,
      "因": 624,
      "团": 625,
      "园": 626,
      "困": 627,
      "围": 628,
      "固": 629,
      "国": 630,
      "图": 631,
      "圆": 632,
      "圈": 633,
      "土": 634,
      "圣": 635,
      "在": 636,
      "地": 637,
      "场": 638,
      "圾": 639,
      "址": 640,
      "均": 641,
      "坍": 642,
      "坏": 643,
      "坐": 644,
      "坑": 645,
      "块": 646,
      "坚": 647,
      "坝": 648,
      "坞": 649,
      "坟": 650,
      "坠": 651,
      "坡": 652,
      "坦": 653,
      "坪": 654,
      "坯": 655,
      "垂": 656,
      "垃": 657,
      "垄": 658,
      "型": 659,
      "垒": 660,
      "垦": 661,
      "垩": 662,
      "垫": 663,
      "垮": 664,
      "埂": 665,
      "埃": 666,
      "埋": 667,
      "城": 668,
      "域": 669,
      "培": 670,
      "基": 671,
      "堂": 672,
      "堆": 673,
      "堕": 674,
      "堤": 675,
      "堪": 676,
      "堵": 677,
      "塌": 678,
      "塑": 679,
      "塔": 680,
      "塞": 681,
      "填": 682,
      "境": 683,
      "墅": 684,
      "墓": 685,
      "墙": 686,
      "增": 687,
      "墟": 688,
      "墨": 689,
      "墩": 690,
      "壁": 691,
      "壕": 692,
      "壤": 693,
      "士": 694,
      "壮": 695,
      "声": 696,
      "壳": 697,
      "处": 698,
      "备": 699,
      "复": 700,
      "夏": 701,
      "夕": 702,
      "外": 703,
      "多": 704,
      "夜": 705,
      "够": 706,
      "大": 707,
      "天": 708,
      "太": 709,
      "夫": 710,
      "夭": 711,
      "央": 712,
      "失": 713,
      "头": 714,
      "夷": 715,
      "夸": 716,
      "夹": 717,
      "夺": 718,
      "奇": 719,
      "奈": 720,
      "奉": 721,
      "奋": 722,
      "奏": 723,
      "奔": 724,
      "奖": 725,
      "套": 726,
      "奠": 727,
      "奢": 728,
      "奥": 729,
      "女": 730,
      "奴": 731,
      "奶": 732,
      "奸": 733,
      "她": 734,
      "好": 735,
      "如": 736,
      "妇": 737,
      "妈": 738,
      "妙": 739,
      "妥": 740,
      "妮": 741,
      "妹": 742,
      "妻": 743,
      "姆": 744,
      "始": 745,
      "姐": 746,
      "姑": 747,
      "姓": 748,
      "委": 749,
      "姬": 750,
      "姻": 751,
      "姿": 752,
      "威": 753,
      "娃": 754,
      "娇": 755,
      "娘": 756,
      "娟": 757,
      "娱": 758,
      "娶": 759,
      "婆": 760,
      "婉": 761,
      "婚": 762,
      "婴": 763,
      "婷": 764,
      "媒": 765,
      "媚": 766,
      "媳": 767,
      "嫁": 768,
      "嫌": 769,
      "嫩": 770,
      "嬴": 771,
      "子": 772,
      "孔": 773,
      "孕": 774,
      "字": 775,
      "存": 776,
      "孙": 777,
      "季": 778,
      "孤": 779,
      "学": 780,
      "孩": 781,
      "宁": 782,
      "它": 783,
      "宇": 784,
      "守": 785,
      "安": 786,
      "完": 787,
      "宏": 788,
      "宗": 789,
      "官": 790,
      "宙": 791,
      "定": 792,
      "宜": 793,
      "宝": 794,
      "实": 795,
      "审": 796,
      "客": 797,
      "宣": 798,
      "室": 799,
      "宫": 800,
      "害": 801,
      "宴": 802,
      "宵": 803,
      "家": 804,
      "容": 805,
      "宽": 806,
      "宾": 807,
      "宿": 808,
      "寂": 809,
      "寄": 810,
      "密": 811,
      "富": 812,
      "寐": 813,
      "寒": 814,
      "寞": 815,
      "察": 816,
      "寡": 817,
      "寥": 818,
      "寸": 819,
      "对": 820,
      "寺": 821,
      "寻": 822,
      "导": 823,
      "寿": 824,
      "封": 825,
      "射": 826,
      "将": 827,
      "尉": 828,
      "尊": 829,
      "小": 830,
      "少": 831,
      "尔": 832,
      "尖": 833,
      "尘": 834,
      "尚": 835,
      "尝": 836,
      "尤": 837,
      "尬": 838,
      "就": 839,
      "尴": 840,
      "尸": 841,
      "尺": 842,
      "尼": 843,
      "尽": 844,
      "尾": 845,
      "尿": 846,
      "局": 847,
      "屁": 848,
      "层": 849,
      "居": 850,
      "屈": 851,
      "届": 852,
      "屋": 853,
      "屎": 854,
      "屏": 855,
      "屑": 856,
      "展": 857,
      "属": 858,
      "履": 859,
      "屯": 860,
      "山": 861,
      "岁": 862,
      "岂": 863,
      "岔": 864,
      "岗": 865,
      "岛": 866,
      "岩": 867,
      "岭": 868,
      "岸": 869,
      "峨": 870,
      "峭": 871,
      "峰": 872,
      "峻": 873,
      "崇": 874,
      "崖": 875,
      "崩": 876,
      "崭": 877,
      "嵌": 878,
      "巍": 879,
      "川": 880,
      "巡": 881,
      "巢": 882,
      "工": 883,
      "左": 884,
      "巧": 885,
      "巨": 886,
      "巫": 887,
      "差": 888,
      "己": 889,
      "已": 890,
      "巴": 891,
      "市": 892,
      "布": 893,
      "帅": 894,
      "帆": 895,
      "师": 896,
      "希": 897,
      "帐": 898,
      "帘": 899,
      "帜": 900,
      "帝": 901,
      "带": 902,
      "席": 903,
      "帮": 904,
      "常": 905,
      "帽": 906,
      "幅": 907,
      "幕": 908,
      "幢": 909,
      "干": 910,
      "平": 911,
      "年": 912,
      "并": 913,
      "幸": 914,
      "幻": 915,
      "幼": 916,
      "幽": 917,
      "广": 918,
      "庄": 919,
      "庆": 920,
      "床": 921,
      "序": 922,
      "库": 923,
      "应": 924,
      "底": 925,
      "店": 926,
      "庙": 927,
      "府": 928,
      "庞": 929,
      "废": 930,
      "度": 931,
      "座": 932,
      "庭": 933,
      "庶": 934,
      "康": 935,
      "庸": 936,
      "廊": 937,
      "廓": 938,
      "延": 939,
      "建": 940,
      "开": 941,
      "异": 942,
      "弃": 943,
      "弄": 944,
      "式": 945,
      "弓": 946,
      "引": 947,
      "弗": 948,
      "弛": 949,
      "弟": 950,
      "张": 951,
      "弥": 952,
      "弦": 953,
      "弧": 954,
      "弯": 955,
      "弱": 956,
      "弹": 957,
      "强": 958,
      "归": 959,
      "当": 960,
      "录": 961,
      "形": 962,
      "彩": 963,
      "彬": 964,
      "彭": 965,
      "影": 966,
      "彳": 967,
      "彻": 968,
      "彼": 969,
      "往": 970,
      "征": 971,
      "径": 972,
      "待": 973,
      "很": 974,
      "徊": 975,
      "律": 976,
      "徐": 977,
      "徒": 978,
      "得": 979,
      "徘": 980,
      "徙": 981,
      "御": 982,
      "循": 983,
      "微": 984,
      "德": 985,
      "心": 986,
      "必": 987,
      "忆": 988,
      "忌": 989,
      "忍": 990,
      "忏": 991,
      "志": 992,
      "忘": 993,
      "忙": 994,
      "忠": 995,
      "忧": 996,
      "忪": 997,
      "快": 998,
      "念": 999,
      "忽": 1000,
      "怀": 1001,
      "态": 1002,
      "怎": 1003,
      "怒": 1004,
      "怕": 1005,
      "怖": 1006,
      "怜": 1007,
      "思": 1008,
      "怡": 1009,
      "急": 1010,
      "性": 1011,
      "怨": 1012,
      "怪": 1013,
      "怯": 1014,
      "总": 1015,
      "恋": 1016,
      "恍": 1017,
      "恐": 1018,
      "恒": 1019,
      "恕": 1020,
      "恢": 1021,
      "恨": 1022,
      "恩": 1023,
      "恫": 1024,
      "息": 1025,
      "恰": 1026,
      "恶": 1027,
      "恻": 1028,
      "恼": 1029,
      "悄": 1030,
      "悉": 1031,
      "悔": 1032,
      "悟": 1033,
      "悠": 1034,
      "患": 1035,
      "悦": 1036,
      "您": 1037,
      "悬": 1038,
      "悲": 1039,
      "悸": 1040,
      "悻": 1041,
      "情": 1042,
      "惊": 1043,
      "惑": 1044,
      "惕": 1045,
      "惚": 1046,
      "惜": 1047,
      "惧": 1048,
      "惨": 1049,
      "惩": 1050,
      "惫": 1051,
      "惯": 1052,
      "想": 1053,
      "惶": 1054,
      "惺": 1055,
      "愁": 1056,
      "愈": 1057,
      "愉": 1058,
      "意": 1059,
      "愚": 1060,
      "感": 1061,
      "愣": 1062,
      "愤": 1063,
      "愿": 1064,
      "慈": 1065,
      "慌": 1066,
      "慎": 1067,
      "慑": 1068,
      "慕": 1069,
      "慢": 1070,
      "慧": 1071,
      "慨": 1072,
      "慰": 1073,
      "憎": 1074,
      "憾": 1075,
      "懂": 1076,
      "懊": 1077,
      "懒": 1078,
      "戈": 1079,
      "戎": 1080,
      "戏": 1081,
      "成": 1082,
      "我": 1083,
      "戒": 1084,
      "或": 1085,
      "战": 1086,
      "戟": 1087,
      "截": 1088,
      "戴": 1089,
      "户": 1090,
      "戾": 1091,
      "房": 1092,
      "所": 1093,
      "扁": 1094,
      "扇": 1095,
      "手": 1096,
      "才": 1097,
      "扎": 1098,
      "扑": 1099,
      "打": 1100,
      "扔": 1101,
      "托": 1102,
      "扛": 1103,
      "扣": 1104,
      "执": 1105,
      "扩": 1106,
      "扫": 1107,
      "扬": 1108,
      "扭": 1109,
      "扯": 1110,
      "扰": 1111,
      "扳": 1112,
      "扶": 1113,
      "批": 1114,
      "扼": 1115,
      "找": 1116,
      "承": 1117,
      "技": 1118,
      "抄": 1119,
      "把": 1120,
      "抑": 1121,
      "抓": 1122,
      "投": 1123,
      "抖": 1124,
      "抗": 1125,
      "折": 1126,
      "抚": 1127,
      "抛": 1128,
      "抡": 1129,
      "抢": 1130,
      "护": 1131,
      "报": 1132,
      "披": 1133,
      "抬": 1134,
      "抱": 1135,
      "抵": 1136,
      "抹": 1137,
      "押": 1138,
      "抽": 1139,
      "拂": 1140,
      "拄": 1141,
      "担": 1142,
      "拆": 1143,
      "拇": 1144,
      "拉": 1145,
      "拍": 1146,
      "拎": 1147,
      "拐": 1148,
      "拒": 1149,
      "拓": 1150,
      "拔": 1151,
      "拖": 1152,
      "拙": 1153,
      "招": 1154,
      "拜": 1155,
      "拟": 1156,
      "拢": 1157,
      "拣": 1158,
      "拥": 1159,
      "拦": 1160,
      "拧": 1161,
      "拨": 1162,
      "择": 1163,
      "括": 1164,
      "拯": 1165,
      "拱": 1166,
      "拳": 1167,
      "拼": 1168,
      "拽": 1169,
      "拾": 1170,
      "拿": 1171,
      "持": 1172,
      "挂": 1173,
      "指": 1174,
      "按": 1175,
      "挑": 1176,
      "挖": 1177,
      "挟": 1178,
      "挡": 1179,
      "挣": 1180,
      "挤": 1181,
      "挥": 1182,
      "挨": 1183,
      "挪": 1184,
      "振": 1185,
      "挺": 1186,
      "挽": 1187,
      "捂": 1188,
      "捉": 1189,
      "捍": 1190,
      "捐": 1191,
      "捕": 1192,
      "捞": 1193,
      "损": 1194,
      "捡": 1195,
      "换": 1196,
      "捣": 1197,
      "捧": 1198,
      "据": 1199,
      "捷": 1200,
      "授": 1201,
      "掉": 1202,
      "掌": 1203,
      "掏": 1204,
      "排": 1205,
      "掘": 1206,
      "掠": 1207,
      "探": 1208,
      "接": 1209,
      "控": 1210,
      "推": 1211,
      "掩": 1212,
      "措": 1213,
      "揉": 1214,
      "描": 1215,
      "提": 1216,
      "插": 1217,
      "握": 1218,
      "揣": 1219,
      "揪": 1220,
      "揭": 1221,
      "援": 1222,
      "揽": 1223,
      "搀": 1224,
      "搁": 1225,
      "搂": 1226,
      "搐": 1227,
      "搜": 1228,
      "搞": 1229,
      "搬": 1230,
      "搭": 1231,
      "携": 1232,
      "摄": 1233,
      "摆": 1234,
      "摇": 1235,
      "摊": 1236,
      "摔": 1237,
      "摘": 1238,
      "摞": 1239,
      "摧": 1240,
      "摩": 1241,
      "摸": 1242,
      "撂": 1243,
      "撑": 1244,
      "撒": 1245,
      "撕": 1246,
      "撞": 1247,
      "撤": 1248,
      "撩": 1249,
      "播": 1250,
      "撮": 1251,
      "撰": 1252,
      "撼": 1253,
      "擀": 1254,
      "擅": 1255,
      "操": 1256,
      "擎": 1257,
      "擦": 1258,
      "攀": 1259,
      "攘": 1260,
      "攥": 1261,
      "支": 1262,
      "收": 1263,
      "改": 1264,
      "攻": 1265,
      "放": 1266,
      "政": 1267,
      "故": 1268,
      "效": 1269,
      "敌": 1270,
      "敏": 1271,
      "救": 1272,
      "教": 1273,
      "敞": 1274,
      "敢": 1275,
      "散": 1276,
      "敦": 1277,
      "敬": 1278,
      "数": 1279,
      "敲": 1280,
      "整": 1281,
      "敷": 1282,
      "文": 1283,
      "斑": 1284,
      "斓": 1285,
      "斗": 1286,
      "料": 1287,
      "斜": 1288,
      "斟": 1289,
      "斤": 1290,
      "斥": 1291,
      "斧": 1292,
      "斩": 1293,
      "断": 1294,
      "斯": 1295,
      "新": 1296,
      "方": 1297,
      "施": 1298,
      "旁": 1299,
      "旅": 1300,
      "旋": 1301,
      "族": 1302,
      "旗": 1303,
      "无": 1304,
      "既": 1305,
      "日": 1306,
      "旦": 1307,
      "旧": 1308,
      "旨": 1309,
      "早": 1310,
      "旭": 1311,
      "旱": 1312,
      "时": 1313,
      "旷": 1314,
      "旺": 1315,
      "昂": 1316,
      "昆": 1317,
      "昌": 1318,
      "明": 1319,
      "昏": 1320,
      "易": 1321,
      "昔": 1322,
      "昕": 1323,
      "星": 1324,
      "映": 1325,
      "春": 1326,
      "昧": 1327,
      "昨": 1328,
      "是": 1329,
      "昼": 1330,
      "显": 1331,
      "晃": 1332,
      "晌": 1333,
      "晒": 1334,
      "晕": 1335,
      "晖": 1336,
      "晗": 1337,
      "晚": 1338,
      "晨": 1339,
      "普": 1340,
      "景": 1341,
      "晰": 1342,
      "晴": 1343,
      "晶": 1344,
      "晷": 1345,
      "智": 1346,
      "暂": 1347,
      "暖": 1348,
      "暗": 1349,
      "暮": 1350,
      "暴": 1351,
      "曙": 1352,
      "曦": 1353,
      "曲": 1354,
      "曳": 1355,
      "更": 1356,
      "曹": 1357,
      "曼": 1358,
      "曾": 1359,
      "替": 1360,
      "最": 1361,
      "月": 1362,
      "有": 1363,
      "朋": 1364,
      "服": 1365,
      "朕": 1366,
      "朗": 1367,
      "望": 1368,
      "朝": 1369,
      "期": 1370,
      "朦": 1371,
      "木": 1372,
      "未": 1373,
      "末": 1374,
      "本": 1375,
      "札": 1376,
      "术": 1377,
      "朴": 1378,
      "朵": 1379,
      "机": 1380,
      "朽": 1381,
      "杀": 1382,
      "杂": 1383,
      "权": 1384,
      "杆": 1385,
      "杉": 1386,
      "李": 1387,
      "材": 1388,
      "村": 1389,
      "杖": 1390,
      "束": 1391,
      "条": 1392,
      "来": 1393,
      "杨": 1394,
      "杯": 1395,
      "杰": 1396,
      "杳": 1397,
      "松": 1398,
      "板": 1399,
      "极": 1400,
      "构": 1401,
      "析": 1402,
      "枕": 1403,
      "林": 1404,
      "枚": 1405,
      "果": 1406,
      "枝": 1407,
      "枪": 1408,
      "枫": 1409,
      "枯": 1410,
      "架": 1411,
      "柄": 1412,
      "某": 1413,
      "染": 1414,
      "柔": 1415,
      "柜": 1416,
      "柞": 1417,
      "查": 1418,
      "柬": 1419,
      "柯": 1420,
      "柱": 1421,
      "柳": 1422,
      "柴": 1423,
      "标": 1424,
      "栈": 1425,
      "栋": 1426,
      "栎": 1427,
      "栏": 1428,
      "树": 1429,
      "栓": 1430,
      "栗": 1431,
      "校": 1432,
      "栩": 1433,
      "样": 1434,
      "核": 1435,
      "根": 1436,
      "格": 1437,
      "栽": 1438,
      "桃": 1439,
      "框": 1440,
      "案": 1441,
      "桌": 1442,
      "桑": 1443,
      "档": 1444,
      "桥": 1445,
      "桦": 1446,
      "桩": 1447,
      "桶": 1448,
      "梦": 1449,
      "梧": 1450,
      "梭": 1451,
      "梯": 1452,
      "械": 1453,
      "梵": 1454,
      "检": 1455,
      "棉": 1456,
      "棋": 1457,
      "棒": 1458,
      "棕": 1459,
      "棘": 1460,
      "棚": 1461,
      "森": 1462,
      "棱": 1463,
      "棵": 1464,
      "椅": 1465,
      "植": 1466,
      "椎": 1467,
      "椭": 1468,
      "楔": 1469,
      "楚": 1470,
      "楠": 1471,
      "楼": 1472,
      "概": 1473,
      "榄": 1474,
      "榆": 1475,
      "榔": 1476,
      "榴": 1477,
      "槛": 1478,
      "樟": 1479,
      "模": 1480,
      "横": 1481,
      "橄": 1482,
      "橇": 1483,
      "橘": 1484,
      "橙": 1485,
      "橱": 1486,
      "欠": 1487,
      "次": 1488,
      "欢": 1489,
      "欣": 1490,
      "欧": 1491,
      "欲": 1492,
      "欺": 1493,
      "款": 1494,
      "歇": 1495,
      "歉": 1496,
      "歌": 1497,
      "止": 1498,
      "正": 1499,
      "此": 1500,
      "步": 1501,
      "武": 1502,
      "歧": 1503,
      "歪": 1504,
      "死": 1505,
      "殊": 1506,
      "残": 1507,
      "段": 1508,
      "殷": 1509,
      "殿": 1510,
      "毁": 1511,
      "毅": 1512,
      "母": 1513,
      "每": 1514,
      "毒": 1515,
      "比": 1516,
      "毕": 1517,
      "毙": 1518,
      "毛": 1519,
      "毫": 1520,
      "毯": 1521,
      "氏": 1522,
      "民": 1523,
      "气": 1524,
      "氛": 1525,
      "氢": 1526,
      "氦": 1527,
      "氧": 1528,
      "氮": 1529,
      "水": 1530,
      "永": 1531,
      "求": 1532,
      "汇": 1533,
      "汉": 1534,
      "汐": 1535,
      "汗": 1536,
      "汛": 1537,
      "江": 1538,
      "池": 1539,
      "污": 1540,
      "汤": 1541,
      "汪": 1542,
      "汰": 1543,
      "汲": 1544,
      "汹": 1545,
      "汽": 1546,
      "沉": 1547,
      "沌": 1548,
      "沐": 1549,
      "沙": 1550,
      "沟": 1551,
      "没": 1552,
      "沥": 1553,
      "沧": 1554,
      "沫": 1555,
      "沮": 1556,
      "河": 1557,
      "沸": 1558,
      "油": 1559,
      "治": 1560,
      "沽": 1561,
      "沾": 1562,
      "沿": 1563,
      "泄": 1564,
      "泉": 1565,
      "泊": 1566,
      "法": 1567,
      "泛": 1568,
      "泞": 1569,
      "泡": 1570,
      "波": 1571,
      "泣": 1572,
      "泥": 1573,
      "注": 1574,
      "泪": 1575,
      "泰": 1576,
      "泳": 1577,
      "泼": 1578,
      "泽": 1579,
      "洁": 1580,
      "洋": 1581,
      "洒": 1582,
      "洗": 1583,
      "洛": 1584,
      "洞": 1585,
      "津": 1586,
      "洪": 1587,
      "洲": 1588,
      "活": 1589,
      "洼": 1590,
      "派": 1591,
      "流": 1592,
      "浅": 1593,
      "浆": 1594,
      "浊": 1595,
      "测": 1596,
      "济": 1597,
      "浏": 1598,
      "浑": 1599,
      "浓": 1600,
      "浦": 1601,
      "浩": 1602,
      "浪": 1603,
      "浮": 1604,
      "浴": 1605,
      "海": 1606,
      "浸": 1607,
      "涂": 1608,
      "消": 1609,
      "涉": 1610,
      "涌": 1611,
      "涓": 1612,
      "涕": 1613,
      "涛": 1614,
      "涟": 1615,
      "涡": 1616,
      "涤": 1617,
      "润": 1618,
      "涨": 1619,
      "涯": 1620,
      "液": 1621,
      "涵": 1622,
      "涸": 1623,
      "淋": 1624,
      "淌": 1625,
      "淘": 1626,
      "淡": 1627,
      "淤": 1628,
      "淫": 1629,
      "深": 1630,
      "混": 1631,
      "淹": 1632,
      "淼": 1633,
      "清": 1634,
      "渊": 1635,
      "渐": 1636,
      "渗": 1637,
      "渠": 1638,
      "渡": 1639,
      "渣": 1640,
      "渥": 1641,
      "温": 1642,
      "港": 1643,
      "渲": 1644,
      "渴": 1645,
      "游": 1646,
      "渺": 1647,
      "湍": 1648,
      "湖": 1649,
      "湘": 1650,
      "湛": 1651,
      "湮": 1652,
      "湿": 1653,
      "溃": 1654,
      "溏": 1655,
      "源": 1656,
      "溜": 1657,
      "溢": 1658,
      "溪": 1659,
      "溶": 1660,
      "滑": 1661,
      "滔": 1662,
      "滚": 1663,
      "滞": 1664,
      "满": 1665,
      "滤": 1666,
      "滥": 1667,
      "滩": 1668,
      "滴": 1669,
      "漂": 1670,
      "漆": 1671,
      "漉": 1672,
      "漏": 1673,
      "漓": 1674,
      "演": 1675,
      "漠": 1676,
      "漪": 1677,
      "漫": 1678,
      "潘": 1679,
      "潜": 1680,
      "潦": 1681,
      "潭": 1682,
      "潮": 1683,
      "澈": 1684,
      "激": 1685,
      "濒": 1686,
      "灌": 1687,
      "火": 1688,
      "灭": 1689,
      "灯": 1690,
      "灰": 1691,
      "灵": 1692,
      "灼": 1693,
      "灾": 1694,
      "灿": 1695,
      "炉": 1696,
      "炊": 1697,
      "炕": 1698,
      "炙": 1699,
      "炬": 1700,
      "炭": 1701,
      "炮": 1702,
      "炯": 1703,
      "炸": 1704,
      "点": 1705,
      "炼": 1706,
      "炽": 1707,
      "烁": 1708,
      "烂": 1709,
      "烈": 1710,
      "烛": 1711,
      "烟": 1712,
      "烤": 1713,
      "烦": 1714,
      "烧": 1715,
      "烫": 1716,
      "烬": 1717,
      "热": 1718,
      "焉": 1719,
      "焊": 1720,
      "焚": 1721,
      "焦": 1722,
      "焰": 1723,
      "然": 1724,
      "煌": 1725,
      "煤": 1726,
      "煦": 1727,
      "照": 1728,
      "煮": 1729,
      "熄": 1730,
      "熊": 1731,
      "熏": 1732,
      "熔": 1733,
      "熙": 1734,
      "熟": 1735,
      "熬": 1736,
      "熵": 1737,
      "燃": 1738,
      "燎": 1739,
      "燕": 1740,
      "燥": 1741,
      "爆": 1742,
      "爬": 1743,
      "爱": 1744,
      "爵": 1745,
      "父": 1746,
      "爸": 1747,
      "爽": 1748,
      "片": 1749,
      "版": 1750,
      "牌": 1751,
      "牙": 1752,
      "牛": 1753,
      "牢": 1754,
      "牧": 1755,
      "物": 1756,
      "牲": 1757,
      "牵": 1758,
      "特": 1759,
      "牺": 1760,
      "犀": 1761,
      "犁": 1762,
      "犄": 1763,
      "犯": 1764,
      "状": 1765,
      "犹": 1766,
      "狂": 1767,
      "狍": 1768,
      "狗": 1769,
      "狙": 1770,
      "狞": 1771,
      "狠": 1772,
      "狩": 1773,
      "独": 1774,
      "狭": 1775,
      "狱": 1776,
      "狼": 1777,
      "猎": 1778,
      "猖": 1779,
      "猛": 1780,
      "猜": 1781,
      "猪": 1782,
      "猫": 1783,
      "献": 1784,
      "玄": 1785,
      "率": 1786,
      "玉": 1787,
      "王": 1788,
      "玩": 1789,
      "玫": 1790,
      "环": 1791,
      "现": 1792,
      "玻": 1793,
      "珍": 1794,
      "珠": 1795,
      "班": 1796,
      "球": 1797,
      "理": 1798,
      "琐": 1799,
      "琳": 1800,
      "琴": 1801,
      "瑞": 1802,
      "瑰": 1803,
      "瑶": 1804,
      "璃": 1805,
      "瓜": 1806,
      "瓢": 1807,
      "瓦": 1808,
      "瓮": 1809,
      "瓶": 1810,
      "瓷": 1811,
      "甄": 1812,
      "甚": 1813,
      "生": 1814,
      "用": 1815,
      "甩": 1816,
      "田": 1817,
      "由": 1818,
      "甲": 1819,
      "申": 1820,
      "电": 1821,
      "男": 1822,
      "甸": 1823,
      "画": 1824,
      "界": 1825,
      "畏": 1826,
      "畔": 1827,
      "留": 1828,
      "略": 1829,
      "畸": 1830,
      "疆": 1831,
      "疏": 1832,
      "疑": 1833,
      "疗": 1834,
      "疙": 1835,
      "疯": 1836,
      "疲": 1837,
      "疼": 1838,
      "疾": 1839,
      "病": 1840,
      "症": 1841,
      "痒": 1842,
      "痕": 1843,
      "痛": 1844,
      "痴": 1845,
      "痹": 1846,
      "瘙": 1847,
      "瘠": 1848,
      "瘦": 1849,
      "瘩": 1850,
      "瘫": 1851,
      "瘴": 1852,
      "癌": 1853,
      "癫": 1854,
      "登": 1855,
      "白": 1856,
      "百": 1857,
      "的": 1858,
      "皆": 1859,
      "皇": 1860,
      "皈": 1861,
      "皙": 1862,
      "皮": 1863,
      "皱": 1864,
      "皲": 1865,
      "盆": 1866,
      "盈": 1867,
      "益": 1868,
      "盏": 1869,
      "监": 1870,
      "盒": 1871,
      "盔": 1872,
      "盖": 1873,
      "盗": 1874,
      "盘": 1875,
      "盛": 1876,
      "盟": 1877,
      "盥": 1878,
      "目": 1879,
      "盯": 1880,
      "盲": 1881,
      "直": 1882,
      "相": 1883,
      "盹": 1884,
      "盼": 1885,
      "盾": 1886,
      "省": 1887,
      "眉": 1888,
      "看": 1889,
      "真": 1890,
      "眠": 1891,
      "眨": 1892,
      "眩": 1893,
      "眯": 1894,
      "眷": 1895,
      "眸": 1896,
      "眺": 1897,
      "眼": 1898,
      "着": 1899,
      "睁": 1900,
      "睑": 1901,
      "睛": 1902,
      "睡": 1903,
      "督": 1904,
      "睦": 1905,
      "睬": 1906,
      "睹": 1907,
      "睽": 1908,
      "瞄": 1909,
      "瞌": 1910,
      "瞎": 1911,
      "瞒": 1912,
      "瞟": 1913,
      "瞥": 1914,
      "瞪": 1915,
      "瞬": 1916,
      "瞳": 1917,
      "矗": 1918,
      "矛": 1919,
      "矢": 1920,
      "知": 1921,
      "矩": 1922,
      "短": 1923,
      "矮": 1924,
      "石": 1925,
      "码": 1926,
      "砌": 1927,
      "砍": 1928,
      "研": 1929,
      "砖": 1930,
      "砚": 1931,
      "砰": 1932,
      "破": 1933,
      "砸": 1934,
      "础": 1935,
      "硕": 1936,
      "硬": 1937,
      "确": 1938,
      "碌": 1939,
      "碍": 1940,
      "碎": 1941,
      "碑": 1942,
      "碗": 1943,
      "碘": 1944,
      "碟": 1945,
      "碧": 1946,
      "碰": 1947,
      "碳": 1948,
      "碴": 1949,
      "磁": 1950,
      "磅": 1951,
      "磐": 1952,
      "磨": 1953,
      "礁": 1954,
      "礴": 1955,
      "示": 1956,
      "礼": 1957,
      "社": 1958,
      "祈": 1959,
      "祖": 1960,
      "祝": 1961,
      "神": 1962,
      "祥": 1963,
      "祷": 1964,
      "祸": 1965,
      "禁": 1966,
      "福": 1967,
      "离": 1968,
      "秀": 1969,
      "私": 1970,
      "秃": 1971,
      "秆": 1972,
      "秋": 1973,
      "种": 1974,
      "科": 1975,
      "秒": 1976,
      "秘": 1977,
      "租": 1978,
      "秤": 1979,
      "秦": 1980,
      "秩": 1981,
      "积": 1982,
      "称": 1983,
      "移": 1984,
      "稀": 1985,
      "程": 1986,
      "稍": 1987,
      "稚": 1988,
      "稠": 1989,
      "稳": 1990,
      "稻": 1991,
      "稼": 1992,
      "稿": 1993,
      "穴": 1994,
      "究": 1995,
      "穷": 1996,
      "穹": 1997,
      "空": 1998,
      "穿": 1999,
      "突": 2000,
      "窃": 2001,
      "窄": 2002,
      "窑": 2003,
      "窒": 2004,
      "窗": 2005,
      "窘": 2006,
      "窜": 2007,
      "窝": 2008,
      "窟": 2009,
      "窥": 2010,
      "立": 2011,
      "竖": 2012,
      "站": 2013,
      "竞": 2014,
      "竟": 2015,
      "章": 2016,
      "童": 2017,
      "竭": 2018,
      "端": 2019,
      "竹": 2020,
      "笑": 2021,
      "笔": 2022,
      "笛": 2023,
      "符": 2024,
      "笨": 2025,
      "第": 2026,
      "笼": 2027,
      "等": 2028,
      "筋": 2029,
      "筑": 2030,
      "筒": 2031,
      "答": 2032,
      "策": 2033,
      "筝": 2034,
      "签": 2035,
      "简": 2036,
      "算": 2037,
      "管": 2038,
      "箭": 2039,
      "箱": 2040,
      "篇": 2041,
      "篝": 2042,
      "篡": 2043,
      "篮": 2044,
      "篷": 2045,
      "簧": 2046,
      "簸": 2047,
      "籍": 2048,
      "米": 2049,
      "类": 2050,
      "粉": 2051,
      "粒": 2052,
      "粗": 2053,
      "粘": 2054,
      "粪": 2055,
      "粮": 2056,
      "粱": 2057,
      "粹": 2058,
      "粼": 2059,
      "精": 2060,
      "糊": 2061,
      "糙": 2062,
      "糟": 2063,
      "系": 2064,
      "紊": 2065,
      "素": 2066,
      "索": 2067,
      "紧": 2068,
      "紫": 2069,
      "累": 2070,
      "繁": 2071,
      "纂": 2072,
      "纠": 2073,
      "红": 2074,
      "纣": 2075,
      "纤": 2076,
      "约": 2077,
      "级": 2078,
      "纪": 2079,
      "纯": 2080,
      "纱": 2081,
      "纲": 2082,
      "纳": 2083,
      "纵": 2084,
      "纷": 2085,
      "纸": 2086,
      "纹": 2087,
      "线": 2088,
      "练": 2089,
      "组": 2090,
      "细": 2091,
      "织": 2092,
      "终": 2093,
      "绊": 2094,
      "绍": 2095,
      "绎": 2096,
      "经": 2097,
      "绑": 2098,
      "绒": 2099,
      "结": 2100,
      "绕": 2101,
      "绘": 2102,
      "给": 2103,
      "绚": 2104,
      "络": 2105,
      "绝": 2106,
      "绞": 2107,
      "统": 2108,
      "绢": 2109,
      "绣": 2110,
      "继": 2111,
      "绩": 2112,
      "绪": 2113,
      "续": 2114,
      "绳": 2115,
      "维": 2116,
      "绵": 2117,
      "绷": 2118,
      "综": 2119,
      "绽": 2120,
      "绿": 2121,
      "缀": 2122,
      "缆": 2123,
      "缓": 2124,
      "缕": 2125,
      "编": 2126,
      "缘": 2127,
      "缚": 2128,
      "缝": 2129,
      "缠": 2130,
      "缤": 2131,
      "缩": 2132,
      "缰": 2133,
      "缸": 2134,
      "缺": 2135,
      "罐": 2136,
      "网": 2137,
      "罕": 2138,
      "罗": 2139,
      "罚": 2140,
      "罩": 2141,
      "罪": 2142,
      "置": 2143,
      "署": 2144,
      "羊": 2145,
      "美": 2146,
      "羔": 2147,
      "羞": 2148,
      "羟": 2149,
      "羡": 2150,
      "群": 2151,
      "羲": 2152,
      "羽": 2153,
      "翁": 2154,
      "翅": 2155,
      "翔": 2156,
      "翘": 2157,
      "翠": 2158,
      "翩": 2159,
      "翻": 2160,
      "翼": 2161,
      "耀": 2162,
      "老": 2163,
      "考": 2164,
      "者": 2165,
      "而": 2166,
      "耍": 2167,
      "耐": 2168,
      "耕": 2169,
      "耗": 2170,
      "耳": 2171,
      "耸": 2172,
      "耻": 2173,
      "耽": 2174,
      "耿": 2175,
      "聆": 2176,
      "聊": 2177,
      "聋": 2178,
      "职": 2179,
      "联": 2180,
      "聚": 2181,
      "聪": 2182,
      "肃": 2183,
      "肉": 2184,
      "肌": 2185,
      "肘": 2186,
      "肚": 2187,
      "肝": 2188,
      "肠": 2189,
      "股": 2190,
      "肢": 2191,
      "肤": 2192,
      "肥": 2193,
      "肩": 2194,
      "肮": 2195,
      "肯": 2196,
      "育": 2197,
      "肴": 2198,
      "肺": 2199,
      "肾": 2200,
      "胀": 2201,
      "胁": 2202,
      "胃": 2203,
      "胆": 2204,
      "背": 2205,
      "胎": 2206,
      "胜": 2207,
      "胞": 2208,
      "胡": 2209,
      "胧": 2210,
      "胳": 2211,
      "胶": 2212,
      "胸": 2213,
      "能": 2214,
      "脆": 2215,
      "脉": 2216,
      "脊": 2217,
      "脏": 2218,
      "脑": 2219,
      "脖": 2220,
      "脚": 2221,
      "脯": 2222,
      "脱": 2223,
      "脸": 2224,
      "脾": 2225,
      "腊": 2226,
      "腋": 2227,
      "腐": 2228,
      "腔": 2229,
      "腥": 2230,
      "腰": 2231,
      "腹": 2232,
      "腾": 2233,
      "腿": 2234,
      "膀": 2235,
      "膊": 2236,
      "膏": 2237,
      "膛": 2238,
      "膜": 2239,
      "膝": 2240,
      "膨": 2241,
      "臂": 2242,
      "臆": 2243,
      "臣": 2244,
      "自": 2245,
      "臭": 2246,
      "至": 2247,
      "致": 2248,
      "舌": 2249,
      "舍": 2250,
      "舒": 2251,
      "舔": 2252,
      "舞": 2253,
      "舟": 2254,
      "航": 2255,
      "般": 2256,
      "舰": 2257,
      "舱": 2258,
      "舶": 2259,
      "舷": 2260,
      "船": 2261,
      "艇": 2262,
      "艘": 2263,
      "艮": 2264,
      "良": 2265,
      "艰": 2266,
      "色": 2267,
      "艳": 2268,
      "艺": 2269,
      "节": 2270,
      "芒": 2271,
      "芬": 2272,
      "芯": 2273,
      "花": 2274,
      "芽": 2275,
      "苍": 2276,
      "苏": 2277,
      "苗": 2278,
      "苟": 2279,
      "若": 2280,
      "苦": 2281,
      "英": 2282,
      "范": 2283,
      "茄": 2284,
      "茨": 2285,
      "茫": 2286,
      "茶": 2287,
      "草": 2288,
      "荐": 2289,
      "荒": 2290,
      "荡": 2291,
      "荣": 2292,
      "荧": 2293,
      "药": 2294,
      "荷": 2295,
      "莫": 2296,
      "莱": 2297,
      "获": 2298,
      "莹": 2299,
      "菇": 2300,
      "菌": 2301,
      "菜": 2302,
      "菩": 2303,
      "菱": 2304,
      "菲": 2305,
      "萄": 2306,
      "萌": 2307,
      "萤": 2308,
      "营": 2309,
      "萦": 2310,
      "萨": 2311,
      "落": 2312,
      "著": 2313,
      "葛": 2314,
      "葡": 2315,
      "董": 2316,
      "葬": 2317,
      "葵": 2318,
      "蒂": 2319,
      "蒙": 2320,
      "蒜": 2321,
      "蒸": 2322,
      "蓝": 2323,
      "蓬": 2324,
      "蔑": 2325,
      "蔓": 2326,
      "蔚": 2327,
      "蔬": 2328,
      "蔼": 2329,
      "蔽": 2330,
      "蕞": 2331,
      "蕴": 2332,
      "蕾": 2333,
      "薄": 2334,
      "藉": 2335,
      "藏": 2336,
      "藕": 2337,
      "藤": 2338,
      "蘑": 2339,
      "虎": 2340,
      "虑": 2341,
      "虔": 2342,
      "虚": 2343,
      "虫": 2344,
      "虹": 2345,
      "虻": 2346,
      "虽": 2347,
      "蚀": 2348,
      "蚁": 2349,
      "蚂": 2350,
      "蚊": 2351,
      "蚕": 2352,
      "蚜": 2353,
      "蚪": 2354,
      "蛇": 2355,
      "蛋": 2356,
      "蛛": 2357,
      "蛮": 2358,
      "蜂": 2359,
      "蜒": 2360,
      "蜡": 2361,
      "蜻": 2362,
      "蜿": 2363,
      "蝇": 2364,
      "蝌": 2365,
      "蝗": 2366,
      "蝴": 2367,
      "蝶": 2368,
      "融": 2369,
      "螺": 2370,
      "蠕": 2371,
      "蠢": 2372,
      "血": 2373,
      "衅": 2374,
      "行": 2375,
      "衍": 2376,
      "衔": 2377,
      "街": 2378,
      "衡": 2379,
      "衣": 2380,
      "补": 2381,
      "表": 2382,
      "衫": 2383,
      "衬": 2384,
      "衰": 2385,
      "衷": 2386,
      "袄": 2387,
      "袅": 2388,
      "袋": 2389,
      "袍": 2390,
      "袒": 2391,
      "袖": 2392,
      "被": 2393,
      "袭": 2394,
      "裁": 2395,
      "裂": 2396,
      "装": 2397,
      "裔": 2398,
      "裕": 2399,
      "裤": 2400,
      "裸": 2401,
      "裹": 2402,
      "褐": 2403,
      "褥": 2404,
      "褪": 2405,
      "褶": 2406,
      "西": 2407,
      "要": 2408,
      "覆": 2409,
      "见": 2410,
      "观": 2411,
      "规": 2412,
      "视": 2413,
      "览": 2414,
      "觉": 2415,
      "觑": 2416,
      "角": 2417,
      "解": 2418,
      "触": 2419,
      "言": 2420,
      "誉": 2421,
      "誊": 2422,
      "警": 2423,
      "计": 2424,
      "订": 2425,
      "认": 2426,
      "讥": 2427,
      "讨": 2428,
      "让": 2429,
      "训": 2430,
      "议": 2431,
      "讯": 2432,
      "记": 2433,
      "讲": 2434,
      "讳": 2435,
      "许": 2436,
      "论": 2437,
      "讽": 2438,
      "设": 2439,
      "访": 2440,
      "证": 2441,
      "评": 2442,
      "识": 2443,
      "诉": 2444,
      "词": 2445,
      "诏": 2446,
      "译": 2447,
      "试": 2448,
      "诗": 2449,
      "诚": 2450,
      "话": 2451,
      "诞": 2452,
      "诠": 2453,
      "诡": 2454,
      "询": 2455,
      "诣": 2456,
      "该": 2457,
      "详": 2458,
      "诧": 2459,
      "诬": 2460,
      "语": 2461,
      "误": 2462,
      "诱": 2463,
      "诲": 2464,
      "说": 2465,
      "诵": 2466,
      "请": 2467,
      "诸": 2468,
      "诺": 2469,
      "读": 2470,
      "课": 2471,
      "谁": 2472,
      "调": 2473,
      "谅": 2474,
      "谈": 2475,
      "谋": 2476,
      "谎": 2477,
      "谐": 2478,
      "谓": 2479,
      "谙": 2480,
      "谜": 2481,
      "谢": 2482,
      "谣": 2483,
      "谨": 2484,
      "谱": 2485,
      "谷": 2486,
      "豆": 2487,
      "象": 2488,
      "豪": 2489,
      "豫": 2490,
      "貌": 2491,
      "贝": 2492,
      "负": 2493,
      "贡": 2494,
      "财": 2495,
      "责": 2496,
      "败": 2497,
      "账": 2498,
      "货": 2499,
      "质": 2500,
      "贫": 2501,
      "购": 2502,
      "贮": 2503,
      "贯": 2504,
      "贱": 2505,
      "贴": 2506,
      "贵": 2507,
      "贸": 2508,
      "费": 2509,
      "贼": 2510,
      "资": 2511,
      "赋": 2512,
      "赌": 2513,
      "赎": 2514,
      "赏": 2515,
      "赖": 2516,
      "赚": 2517,
      "赛": 2518,
      "赞": 2519,
      "赢": 2520,
      "赤": 2521,
      "赫": 2522,
      "走": 2523,
      "赴": 2524,
      "赵": 2525,
      "赶": 2526,
      "起": 2527,
      "趁": 2528,
      "超": 2529,
      "越": 2530,
      "趋": 2531,
      "趟": 2532,
      "趣": 2533,
      "足": 2534,
      "趴": 2535,
      "跃": 2536,
      "跌": 2537,
      "跑": 2538,
      "跚": 2539,
      "距": 2540,
      "跟": 2541,
      "跨": 2542,
      "跪": 2543,
      "路": 2544,
      "跳": 2545,
      "践": 2546,
      "踏": 2547,
      "踪": 2548,
      "踱": 2549,
      "踹": 2550,
      "蹄": 2551,
      "蹈": 2552,
      "蹒": 2553,
      "蹬": 2554,
      "蹭": 2555,
      "蹲": 2556,
      "躁": 2557,
      "身": 2558,
      "躬": 2559,
      "躯": 2560,
      "躲": 2561,
      "躺": 2562,
      "车": 2563,
      "轧": 2564,
      "轨": 2565,
      "转": 2566,
      "轮": 2567,
      "软": 2568,
      "轰": 2569,
      "轴": 2570,
      "轻": 2571,
      "载": 2572,
      "较": 2573,
      "辅": 2574,
      "辆": 2575,
      "辈": 2576,
      "辉": 2577,
      "辐": 2578,
      "辑": 2579,
      "输": 2580,
      "辛": 2581,
      "辜": 2582,
      "辞": 2583,
      "辟": 2584,
      "辣": 2585,
      "辨": 2586,
      "辩": 2587,
      "辰": 2588,
      "边": 2589,
      "辽": 2590,
      "达": 2591,
      "迁": 2592,
      "迄": 2593,
      "迅": 2594,
      "过": 2595,
      "迈": 2596,
      "迎": 2597,
      "运": 2598,
      "近": 2599,
      "返": 2600,
      "还": 2601,
      "这": 2602,
      "进": 2603,
      "远": 2604,
      "违": 2605,
      "连": 2606,
      "迟": 2607,
      "迢": 2608,
      "迫": 2609,
      "述": 2610,
      "迷": 2611,
      "迸": 2612,
      "迹": 2613,
      "追": 2614,
      "退": 2615,
      "送": 2616,
      "适": 2617,
      "逃": 2618,
      "逆": 2619,
      "选": 2620,
      "逊": 2621,
      "透": 2622,
      "逐": 2623,
      "递": 2624,
      "途": 2625,
      "通": 2626,
      "逛": 2627,
      "逝": 2628,
      "速": 2629,
      "造": 2630,
      "逸": 2631,
      "逻": 2632,
      "逼": 2633,
      "逾": 2634,
      "遁": 2635,
      "遇": 2636,
      "遍": 2637,
      "遏": 2638,
      "道": 2639,
      "遗": 2640,
      "遛": 2641,
      "遣": 2642,
      "遥": 2643,
      "遭": 2644,
      "遮": 2645,
      "遵": 2646,
      "避": 2647,
      "邀": 2648,
      "邃": 2649,
      "那": 2650,
      "邦": 2651,
      "邪": 2652,
      "邮": 2653,
      "邸": 2654,
      "邻": 2655,
      "郁": 2656,
      "郊": 2657,
      "郎": 2658,
      "郑": 2659,
      "部": 2660,
      "郭": 2661,
      "都": 2662,
      "鄙": 2663,
      "鄢": 2664,
      "酉": 2665,
      "酌": 2666,
      "配": 2667,
      "酒": 2668,
      "酪": 2669,
      "酱": 2670,
      "酷": 2671,
      "酸": 2672,
      "醉": 2673,
      "醒": 2674,
      "采": 2675,
      "释": 2676,
      "里": 2677,
      "重": 2678,
      "野": 2679,
      "量": 2680,
      "金": 2681,
      "鉴": 2682,
      "针": 2683,
      "钉": 2684,
      "钓": 2685,
      "钟": 2686,
      "钢": 2687,
      "钥": 2688,
      "钩": 2689,
      "钮": 2690,
      "钱": 2691,
      "钻": 2692,
      "铁": 2693,
      "铃": 2694,
      "铅": 2695,
      "铜": 2696,
      "铠": 2697,
      "铭": 2698,
      "铰": 2699,
      "银": 2700,
      "铺": 2701,
      "链": 2702,
      "销": 2703,
      "锁": 2704,
      "锄": 2705,
      "锅": 2706,
      "锈": 2707,
      "锋": 2708,
      "锐": 2709,
      "错": 2710,
      "锢": 2711,
      "锤": 2712,
      "锥": 2713,
      "锨": 2714,
      "键": 2715,
      "锯": 2716,
      "锵": 2717,
      "锹": 2718,
      "镀": 2719,
      "镇": 2720,
      "镊": 2721,
      "镜": 2722,
      "镰": 2723,
      "镶": 2724,
      "长": 2725,
      "门": 2726,
      "闪": 2727,
      "闭": 2728,
      "问": 2729,
      "闯": 2730,
      "闲": 2731,
      "间": 2732,
      "闷": 2733,
      "闸": 2734,
      "闹": 2735,
      "闺": 2736,
      "闻": 2737,
      "阂": 2738,
      "阅": 2739,
      "阈": 2740,
      "阔": 2741,
      "阙": 2742,
      "队": 2743,
      "阱": 2744,
      "防": 2745,
      "阳": 2746,
      "阴": 2747,
      "阵": 2748,
      "阶": 2749,
      "阻": 2750,
      "阿": 2751,
      "附": 2752,
      "际": 2753,
      "陆": 2754,
      "陈": 2755,
      "陋": 2756,
      "陌": 2757,
      "降": 2758,
      "限": 2759,
      "陕": 2760,
      "陛": 2761,
      "陡": 2762,
      "院": 2763,
      "除": 2764,
      "陨": 2765,
      "险": 2766,
      "陪": 2767,
      "陶": 2768,
      "陷": 2769,
      "隆": 2770,
      "隋": 2771,
      "随": 2772,
      "隐": 2773,
      "隔": 2774,
      "隙": 2775,
      "障": 2776,
      "隧": 2777,
      "隶": 2778,
      "难": 2779,
      "雀": 2780,
      "雄": 2781,
      "雅": 2782,
      "集": 2783,
      "雇": 2784,
      "雕": 2785,
      "雨": 2786,
      "雪": 2787,
      "雳": 2788,
      "零": 2789,
      "雷": 2790,
      "雾": 2791,
      "需": 2792,
      "霆": 2793,
      "震": 2794,
      "霉": 2795,
      "霍": 2796,
      "霏": 2797,
      "霓": 2798,
      "霖": 2799,
      "霜": 2800,
      "霞": 2801,
      "露": 2802,
      "霸": 2803,
      "霹": 2804,
      "霾": 2805,
      "青": 2806,
      "靓": 2807,
      "静": 2808,
      "非": 2809,
      "靠": 2810,
      "面": 2811,
      "革": 2812,
      "靶": 2813,
      "鞋": 2814,
      "鞘": 2815,
      "鞠": 2816,
      "鞭": 2817,
      "韦": 2818,
      "音": 2819,
      "韵": 2820,
      "页": 2821,
      "顶": 2822,
      "项": 2823,
      "顺": 2824,
      "须": 2825,
      "顽": 2826,
      "顾": 2827,
      "顿": 2828,
      "颁": 2829,
      "颂": 2830,
      "预": 2831,
      "颅": 2832,
      "领": 2833,
      "颇": 2834,
      "颈": 2835,
      "频": 2836,
      "颖": 2837,
      "颗": 2838,
      "题": 2839,
      "颚": 2840,
      "颜": 2841,
      "额": 2842,
      "颠": 2843,
      "颤": 2844,
      "风": 2845,
      "飒": 2846,
      "飘": 2847,
      "飞": 2848,
      "食": 2849,
      "餐": 2850,
      "饭": 2851,
      "饮": 2852,
      "饰": 2853,
      "饱": 2854,
      "饶": 2855,
      "饺": 2856,
      "饿": 2857,
      "馅": 2858,
      "馆": 2859,
      "馒": 2860,
      "首": 2861,
      "香": 2862,
      "马": 2863,
      "驰": 2864,
      "驱": 2865,
      "驳": 2866,
      "驴": 2867,
      "驶": 2868,
      "驻": 2869,
      "驾": 2870,
      "骂": 2871,
      "骄": 2872,
      "骇": 2873,
      "验": 2874,
      "骑": 2875,
      "骗": 2876,
      "骚": 2877,
      "骤": 2878,
      "骨": 2879,
      "骷": 2880,
      "骸": 2881,
      "骼": 2882,
      "髅": 2883,
      "髓": 2884,
      "高": 2885,
      "鬈": 2886,
      "鬼": 2887,
      "魁": 2888,
      "魂": 2889,
      "魄": 2890,
      "魅": 2891,
      "魏": 2892,
      "魔": 2893,
      "鱼": 2894,
      "鲁": 2895,
      "鲜": 2896,
      "鲸": 2897,
      "鳞": 2898,
      "鸟": 2899,
      "鸡": 2900,
      "鸣": 2901,
      "鸭": 2902,
      "鸿": 2903,
      "鹅": 2904,
      "鹤": 2905,
      "麦": 2906,
      "麻": 2907,
      "黄": 2908,
      "黎": 2909,
      "黏": 2910,
      "黑": 2911,
      "默": 2912,
      "黝": 2913,
      "黯": 2914,
      "鼎": 2915,
      "鼓": 2916,
      "鼠": 2917,
      "鼻": 2918,
      "齐": 2919,
      "齿": 2920,
      "龄": 2921,
      "龙": 2922,
      "！": 2923,
      "（": 2924,
      "）": 2925,
      "＊": 2926,
      "，": 2927,
      "－": 2928,
      "９": 2929,
      "：": 2930,
      "；": 2931,
      "？": 2932,
      "］": 2933,
      "ｂ": 2934,
      "ｉ": 2935,
      "ｌ": 2936,
      "～": 2937,
      "##体": 2938,
      "##精": 2939,
      "##神": 2940,
      "##万": 2941,
      "##岁": 2942,
      "##！": 2943,
      "##我": 2944,
      "##们": 2945,
      "##是": 2946,
      "##顽": 2947,
      "##强": 2948,
      "##的": 2949,
      "##种": 2950,
      "##子": 2951,
      "##，": 2952,
      "##野": 2953,
      "##火": 2954,
      "##烧": 2955,
      "##不": 2956,
      "##尽": 2957,
      "##征": 2958,
      "##你": 2959,
      "##说": 2960,
      "##会": 2961,
      "##？": 2962,
      "##争": 2963,
      "##爆": 2964,
      "##发": 2965,
      "##了": 2966,
      "##战": 2967,
      "##当": 2968,
      "##然": 2969,
      "##军": 2970,
      "##队": 2971,
      "##事": 2972,
      "##儿": 2973,
      "##。": 2974,
      "##和": 2975,
      "##一": 2976,
      "##样": 2977,
      "##开": 2978,
      "##始": 2979,
      "##以": 2980,
      "##为": 2981,
      "##他": 2982,
      "##在": 2983,
      "##梦": 2984,
      "##话": 2985,
      "##可": 2986,
      "##真": 2987,
      "##没": 2988,
      "##玩": 2989,
      "##笑": 2990,
      "##现": 2991,
      "##部": 2992,
      "##确": 2993,
      "##实": 2994,
      "##处": 2995,
      "##于": 2996,
      "##临": 2997,
      "##状": 2998,
      "##态": 2999,
      "##这": 3000,
      "##-": 3001,
      "##作": 3002,
      "##中": 3003,
      "##心": 3004,
      "##全": 3005,
      "##球": 3006,
      "##有": 3007,
      "##二": 3008,
      "##十": 3009,
      "##多": 3010,
      "##个": 3011,
      "##上": 3012,
      "##面": 3013,
      "##还": 3014,
      "##级": 3015,
      "##但": 3016,
      "##谁": 3017,
      "##都": 3018,
      "##知": 3019,
      "##道": 3020,
      "##什": 3021,
      "##么": 3022,
      "##如": 3023,
      "##果": 3024,
      "##那": 3025,
      "##苏": 3026,
      "##联": 3027,
      "##人": 3028,
      "##所": 3029,
      "##设": 3030,
      "##想": 3031,
      "##ⅱ": 3032,
      "##ⅲ": 3033,
      "##型": 3034,
      "##文": 3035,
      "##明": 3036,
      "##存": 3037,
      "##应": 3038,
      "##该": 3039,
      "##能": 3040,
      "##够": 3041,
      "##听": 3042,
      "##到": 3043,
      "##声": 3044,
      "##音": 3045,
      "##叶": 3046,
      "##啊": 3047,
      "##对": 3048,
      "##射": 3049,
      "##系": 3050,
      "##统": 3051,
      "##块": 3052,
      "##已": 3053,
      "##经": 3054,
      "##很": 3055,
      "##熟": 3056,
      "##悉": 3057,
      "##也": 3058,
      "##红": 3059,
      "##岸": 3060,
      "##攻": 3061,
      "##击": 3062,
      "##分": 3063,
      "##它": 3064,
      "##主": 3065,
      "##套": 3066,
      "##整": 3067,
      "##看": 3068,
      "##法": 3069,
      "##雷": 3070,
      "##政": 3071,
      "##委": 3072,
      "##时": 3073,
      "##坐": 3074,
      "##达": 3075,
      "##峰": 3076,
      "##悬": 3077,
      "##崖": 3078,
      "##前": 3079,
      "##里": 3080,
      "##基": 3081,
      "##地": 3082,
      "##最": 3083,
      "##僻": 3084,
      "##静": 3085,
      "##笔": 3086,
      "##直": 3087,
      "##绝": 3088,
      "##壁": 3089,
      "##似": 3090,
      "##乎": 3091,
      "##深": 3092,
      "##见": 3093,
      "##底": 3094,
      "##初": 3095,
      "##令": 3096,
      "##洁": 3097,
      "##胆": 3098,
      "##惊": 3099,
      "##她": 3100,
      "##喜": 3101,
      "##欢": 3102,
      "##来": 3103,
      "##大": 3104,
      "##三": 3105,
      "##舰": 3106,
      "##启": 3107,
      "##航": 3108,
      "##目": 3109,
      "##标": 3110,
      "##太": 3111,
      "##阳": 3112,
      "##将": 3113,
      "##四": 3114,
      "##百": 3115,
      "##五": 3116,
      "##年": 3117,
      "##后": 3118,
      "##脸": 3119,
      "##仍": 3120,
      "##片": 3121,
      "##平": 3122,
      "##使": 3123,
      "##震": 3124,
      "##角": 3125,
      "##青": 3126,
      "##色": 3127,
      "##方": 3128,
      "##类": 3129,
      "##别": 3130,
      "##：": 3131,
      "##甲": 3132,
      "##；": 3133,
      "##序": 3134,
      "##号": 3135,
      "##b": 3136,
      "##n": 3137,
      "##2": 3138,
      "##0": 3139,
      "##l": 3140,
      "##9": 3141,
      "##7": 3142,
      "##f": 3143,
      "##定": 3144,
      "##位": 3145,
      "##校": 3146,
      "##核": 3147,
      "##完": 3148,
      "##毕": 3149,
      "##5": 3150,
      "##秒": 3151,
      "##倒": 3152,
      "##数": 3153,
      "##下": 3154,
      "##马": 3155,
      "##叫": 3156,
      "##家": 3157,
      "##齐": 3158,
      "##向": 3159,
      "##去": 3160,
      "##金": 3161,
      "##字": 3162,
      "##塔": 3163,
      "##脚": 3164,
      "##行": 3165,
      "##进": 3166,
      "##骑": 3167,
      "##兵": 3168,
      "##飘": 3169,
      "##远": 3170,
      "##蹄": 3171,
      "##才": 3172,
      "##着": 3173,
      "##次": 3174,
      "##又": 3175,
      "##几": 3176,
      "##奔": 3177,
      "##跑": 3178,
      "##迈": 3179,
      "##步": 3180,
      "##就": 3181,
      "##跃": 3182,
      "##出": 3183,
      "##米": 3184,
      "##每": 3185,
      "##落": 3186,
      "##缓": 3187,
      "##慢": 3188,
      "##名": 3189,
      "##卫": 3190,
      "##士": 3191,
      "##试": 3192,
      "##跳": 3193,
      "##轻": 3194,
      "##易": 3195,
      "##高": 3196,
      "##度": 3197,
      "##汪": 3198,
      "##淼": 3199,
      "##常": 3200,
      "##伟": 3201,
      "##思": 3202,
      "##把": 3203,
      "##调": 3204,
      "##理": 3205,
      "##外": 3206,
      "##表": 3207,
      "##粗": 3208,
      "##俗": 3209,
      "##伙": 3210,
      "##眼": 3211,
      "##睛": 3212,
      "##跟": 3213,
      "##刀": 3214,
      "##许": 3215,
      "##好": 3216,
      "##警": 3217,
      "##察": 3218,
      "##狠": 3219,
      "##生": 3220,
      "##活": 3221,
      "##偶": 3222,
      "##世": 3223,
      "##界": 3224,
      "##变": 3225,
      "##幻": 3226,
      "##莫": 3227,
      "##测": 3228,
      "##因": 3229,
      "##素": 3230,
      "##却": 3231,
      "##故": 3232,
      "##半": 3233,
      "##天": 3234,
      "##白": 3235,
      "##间": 3236,
      "##感": 3237,
      "##自": 3238,
      "##己": 3239,
      "##窒": 3240,
      "##息": 3241,
      "##由": 3242,
      "##低": 3243,
      "##沉": 3244,
      "##被": 3245,
      "##醒": 3246,
      "##妻": 3247,
      "##恐": 3248,
      "##慌": 3249,
      "##探": 3250,
      "##问": 3251,
      "##努": 3252,
      "##力": 3253,
      "##镇": 3254,
      "##安": 3255,
      "##慰": 3256,
      "##躺": 3257,
      "##回": 3258,
      "##床": 3259,
      "##闭": 3260,
      "##幽": 3261,
      "##灵": 3262,
      "##计": 3263,
      "##照": 3264,
      "##耀": 3265,
      "##艰": 3266,
      "##难": 3267,
      "##过": 3268,
      "##剩": 3269,
      "##夜": 3270,
      "##晚": 3271,
      "##怕": 3272,
      "##东": 3273,
      "##西": 3274,
      "##越": 3275,
      "##厉": 3276,
      "##害": 3277,
      "##致": 3278,
      "##命": 3279,
      "##要": 3280,
      "##帅": 3281,
      "##考": 3282,
      "##虑": 3283,
      "##同": 3284,
      "##志": 3285,
      "##负": 3286,
      "##责": 3287,
      "##任": 3288,
      "##告": 3289,
      "##诉": 3290,
      "##降": 3291,
      "##派": 3292,
      "##8": 3293,
      "##e": 3294,
      "##.": 3295,
      "##\"": 3296,
      "##走": 3297,
      "##医": 3298,
      "##宽": 3299,
      "##容": 3300,
      "##视": 3301,
      "##影": 3302,
      "##响": 3303,
      "##程": 3304,
      "##吗": 3305,
      "##月": 3306,
      "##收": 3307,
      "##治": 3308,
      "##女": 3309,
      "##孩": 3310,
      "##六": 3311,
      "##吧": 3312,
      "##教": 3313,
      "##室": 3314,
      "##突": 3315,
      "##失": 3316,
      "##检": 3317,
      "##查": 3318,
      "##正": 3319,
      "##科": 3320,
      "##专": 3321,
      "##疗": 3322,
      "##恢": 3323,
      "##复": 3324,
      "##浪": 3325,
      "##费": 3326,
      "##起": 3327,
      "##身": 3328,
      "##管": 3329,
      "##只": 3330,
      "##题": 3331,
      "##请": 3332,
      "##通": 3333,
      "##用": 3334,
      "##移": 3335,
      "##厘": 3336,
      "##从": 3337,
      "##书": 3338,
      "##抬": 3339,
      "##头": 3340,
      "##意": 3341,
      "##怎": 3342,
      "##呢": 3343,
      "##伊": 3344,
      "##斯": 3345,
      "##股": 3346,
      "##怒": 3347,
      "##气": 3348,
      "##拯": 3349,
      "##救": 3350,
      "##称": 3351,
      "##得": 3352,
      "##而": 3353,
      "##物": 3354,
      "##件": 3355,
      "##小": 3356,
      "##给": 3357,
      "##尊": 3358,
      "##贵": 3359,
      "##需": 3360,
      "##1": 3361,
      "##比": 3362,
      "##冒": 3363,
      "##充": 3364,
      "##先": 3365,
      "##连": 3366,
      "##周": 3367,
      "##王": 3368,
      "##算": 3369,
      "##追": 3370,
      "##随": 3371,
      "##者": 3372,
      "##冲": 3373,
      "##屑": 3374,
      "##摇": 3375,
      "##刚": 3376,
      "##佛": 3377,
      "##父": 3378,
      "##亲": 3379,
      "##些": 3380,
      "##材": 3381,
      "##料": 3382,
      "##放": 3383,
      "##原": 3384,
      "##承": 3385,
      "##担": 3386,
      "##重": 3387,
      "##课": 3388,
      "##电": 3389,
      "##观": 3390,
      "##久": 3391,
      "##组": 3392,
      "##选": 3393,
      "##址": 3394,
      "##纯": 3395,
      "##技": 3396,
      "##术": 3397,
      "##与": 3398,
      "##传": 3399,
      "##质": 3400,
      "##量": 3401,
      "##光": 3402,
      "##干": 3403,
      "##扰": 3404,
      "##求": 3405,
      "##避": 3406,
      "##免": 3407,
      "##非": 3408,
      "##频": 3409,
      "##段": 3410,
      "##磁": 3411,
      "##择": 3412,
      "##环": 3413,
      "##境": 3414,
      "##优": 3415,
      "##点": 3416,
      "##北": 3417,
      "##偏": 3418,
      "##山": 3419,
      "##区": 3420,
      "##肘": 3421,
      "##终": 3422,
      "##惧": 3423,
      "##右": 3424,
      "##监": 3425,
      "##内": 3426,
      "##简": 3427,
      "##单": 3428,
      "##敌": 3429,
      "##空": 3430,
      "##动": 3431,
      "##包": 3432,
      "##括": 3433,
      "##器": 3434,
      "##讯": 3435,
      "##控": 3436,
      "##门": 3437,
      "##配": 3438,
      "##合": 3439,
      "##锁": 3440,
      "##轨": 3441,
      "##置": 3442,
      "##提": 3443,
      "##供": 3444,
      "##依": 3445,
      "##据": 3446,
      "##蓝": 3447,
      "##相": 3448,
      "##机": 3449,
      "##拍": 3450,
      "##摄": 3451,
      "##排": 3452,
      "##除": 3453,
      "##或": 3454,
      "##性": 3455,
      "##无": 3456,
      "##让": 3457,
      "##加": 3458,
      "##之": 3459,
      "##更": 3460,
      "##诡": 3461,
      "##异": 3462,
      "##结": 3463,
      "##胶": 3464,
      "##卷": 3465,
      "##其": 3466,
      "##代": 3467,
      "##奇": 3468,
      "##谈": 3469,
      "##沙": 3470,
      "##瑞": 3471,
      "##怪": 3472,
      "##答": 3473,
      "##再": 3474,
      "##显": 3475,
      "##严": 3476,
      "##允": 3477,
      "##违": 3478,
      "##反": 3479,
      "##业": 3480,
      "##识": 3481,
      "##兴": 3482,
      "##趣": 3483,
      "##率": 3484,
      "##国": 3485,
      "##台": 3486,
      "##亘": 3487,
      "##古": 3488,
      "##罕": 3489,
      "##日": 3490,
      "##珠": 3491,
      "##颗": 3492,
      "##成": 3493,
      "##条": 3494,
      "##线": 3495,
      "##速": 3496,
      "##围": 3497,
      "##绕": 3498,
      "##星": 3499,
      "##运": 3500,
      "##顶": 3501,
      "##端": 3502,
      "##紫": 3503,
      "##河": 3504,
      "##船": 3505,
      "##闸": 3506,
      "##手": 3507,
      "##审": 3508,
      "##判": 3509,
      "##巴": 3510,
      "##拿": 3511,
      "##尺": 3512,
      "##（": 3513,
      "##注": 3514,
      "##海": 3515,
      "##轮": 3516,
      "##）": 3517,
      "##填": 3518,
      "##满": 3519,
      "##飞": 3520,
      "##刃": 3521,
      "##丝": 3522,
      "##长": 3523,
      "##左": 3524,
      "##距": 3525,
      "##立": 3526,
      "##柱": 3527,
      "##拉": 3528,
      "##操": 3529,
      "##特": 3530,
      "##水": 3531,
      "##4": 3532,
      "##建": 3533,
      "##第": 3534,
      "##炮": 3535,
      "##构": 3536,
      "##「": 3537,
      "##未": 3538,
      "##解": 3539,
      "##密": 3540,
      "##」": 3541,
      "##短": 3542,
      "##挂": 3543,
      "##断": 3544,
      "##赶": 3545,
      "##史": 3546,
      "##男": 3547,
      "##黑": 3548,
      "##灯": 3549,
      "##房": 3550,
      "##窗": 3551,
      "##汽": 3552,
      "##车": 3553,
      "##瞥": 3554,
      "##打": 3555,
      "##徐": 3556,
      "##冰": 3557,
      "##站": 3558,
      "##边": 3559,
      "##紧": 3560,
      "##张": 3561,
      "##概": 3562,
      "##场": 3563,
      "##快": 3564,
      "##枪": 3565,
      "##插": 3566,
      "##胸": 3567,
      "##桑": 3568,
      "##纳": 3569,
      "##清": 3570,
      "##封": 3571,
      "##入": 3572,
      "##口": 3573,
      "##奶": 3574,
      "##溜": 3575,
      "##顾": 3576,
      "##墙": 3577,
      "##弹": 3578,
      "##洞": 3579,
      "##扫": 3580,
      "##散": 3581,
      "##壳": 3582,
      "##两": 3583,
      "##蹲": 3584,
      "##验": 3585,
      "##尸": 3586,
      "##偷": 3587,
      "##旁": 3588,
      "##魏": 3589,
      "##义": 3590,
      "##民": 3591,
      "##坦": 3592,
      "##毁": 3593,
      "##灭": 3594,
      "##像": 3595,
      "##孙": 3596,
      "##脑": 3597,
      "##老": 3598,
      "##哲": 3599,
      "##学": 3600,
      "##翘": 3601,
      "##烟": 3602,
      "##斗": 3603,
      "##柄": 3604,
      "##弃": 3605,
      "##奥": 3606,
      "##吸": 3607,
      "##引": 3608,
      "##邃": 3609,
      "##涵": 3610,
      "##怖": 3611,
      "##美": 3612,
      "##逻": 3613,
      "##辑": 3614,
      "##隐": 3615,
      "##藏": 3616,
      "##象": 3617,
      "##信": 3618,
      "##细": 3619,
      "##节": 3620,
      "##迷": 3621,
      "##网": 3622,
      "##友": 3623,
      "##极": 3624,
      "##装": 3625,
      "##扯": 3626,
      "##淡": 3627,
      "##露": 3628,
      "##切": 3629,
      "##授": 3630,
      "##改": 3631,
      "##侧": 3632,
      "##拼": 3633,
      "##凑": 3634,
      "##议": 3635,
      "##桌": 3636,
      "##堆": 3637,
      "##杂": 3638,
      "##情": 3639,
      "##疲": 3640,
      "##惫": 3641,
      "##衣": 3642,
      "##服": 3643,
      "##皱": 3644,
      "##领": 3645,
      "##带": 3646,
      "##熬": 3647,
      "##持": 3648,
      "##陆": 3649,
      "##少": 3650,
      "##介": 3651,
      "##绍": 3652,
      "##员": 3653,
      "##参": 3654,
      "##望": 3655,
      "##且": 3656,
      "##研": 3657,
      "##究": 3658,
      "##础": 3659,
      "##软": 3660,
      "##t": 3661,
      "##h": 3662,
      "##r": 3663,
      "##o": 3664,
      "##d": 3665,
      "##y": 3666,
      "##默": 3667,
      "##顿": 3668,
      "##官": 3669,
      "##挥": 3670,
      "##示": 3671,
      "##喊": 3672,
      "##坏": 3673,
      "##众": 3674,
      "##支": 3675,
      "##雪": 3676,
      "##茄": 3677,
      "##塞": 3678,
      "##嘴": 3679,
      "##另": 3680,
      "##揣": 3681,
      "##袋": 3682,
      "##织": 3683,
      "##截": 3684,
      "##留": 3685,
      "##登": 3686,
      "##座": 3687,
      "##刻": 3688,
      "##树": 3689,
      "##林": 3690,
      "##积": 3691,
      "##差": 3692,
      "##木": 3693,
      "##曾": 3694,
      "##扩": 3695,
      "##砍": 3696,
      "##伐": 3697,
      "##—": 3698,
      "##热": 3699,
      "##朝": 3700,
      "##各": 3701,
      "##蚜": 3702,
      "##虫": 3703,
      "##蚕": 3704,
      "##食": 3705,
      "##绿": 3706,
      "##消": 3707,
      "##村": 3708,
      "##附": 3709,
      "##近": 3710,
      "##斧": 3711,
      "##板": 3712,
      "##锯": 3713,
      "##棵": 3714,
      "##拖": 3715,
      "##牛": 3716,
      "##激": 3717,
      "##烈": 3718,
      "##执": 3719,
      "##工": 3720,
      "##师": 3721,
      "##、": 3722,
      "##丈": 3723,
      "##夫": 3724,
      "##扬": 3725,
      "##宁": 3726,
      "##制": 3727,
      "##规": 3728,
      "##载": 3729,
      "##化": 3730,
      "##振": 3731,
      "##幅": 3732,
      "##破": 3733,
      "##屏": 3734,
      "##蔽": 3735,
      "##防": 3736,
      "##护": 3737,
      "##恩": 3738,
      "##琴": 3739,
      "##臣": 3740,
      "##茫": 3741,
      "##份": 3742,
      "##您": 3743,
      "##印": 3744,
      "##宏": 3745,
      "##论": 3746,
      "##受": 3747,
      "##普": 3748,
      "##维": 3749,
      "##展": 3750,
      "##某": 3751,
      "##宇": 3752,
      "##宙": 3753,
      "##炸": 3754,
      "##漫": 3755,
      "##局": 3756,
      "##熵": 3757,
      "##增": 3758,
      "##…": 3759,
      "##根": 3760,
      "##本": 3761,
      "##丁": 3762,
      "##仪": 3763,
      "##翻": 3764,
      "##找": 3765,
      "##案": 3766,
      "##游": 3767,
      "##戏": 3768,
      "##硬": 3769,
      "##虚": 3770,
      "##拟": 3771,
      "##景": 3772,
      "##效": 3773,
      "##档": 3774,
      "##续": 3775,
      "##导": 3776,
      "##敢": 3777,
      "##接": 3778,
      "##玄": 3779,
      "##肯": 3780,
      "##遭": 3781,
      "##否": 3782,
      "##决": 3783,
      "##波": 3784,
      "##析": 3785,
      "##映": 3786,
      "##辐": 3787,
      "##杨": 3788,
      "##背": 3789,
      "##骗": 3790,
      "##项": 3791,
      "##例": 3792,
      "##寒": 3793,
      "##温": 3794,
      "##急": 3795,
      "##骤": 3796,
      "##公": 3797,
      "##脱": 3798,
      "##贮": 3799,
      "##暗": 3800,
      "##笼": 3801,
      "##罩": 3802,
      "##死": 3803,
      "##寂": 3804,
      "##巨": 3805,
      "##膜": 3806,
      "##微": 3807,
      "##弱": 3808,
      "##晕": 3809,
      "##晃": 3810,
      "##尔": 3811,
      "##集": 3812,
      "##路": 3813,
      "##蚀": 3814,
      "##凝": 3815,
      "##固": 3816,
      "##石": 3817,
      "##般": 3818,
      "##嗡": 3819,
      "##翼": 3820,
      "##怯": 3821,
      "##江": 3822,
      "##》": 3823,
      "##鲁": 3824,
      "##诺": 3825,
      "##亚": 3826,
      "##德": 3827,
      "##指": 3828,
      "##具": 3829,
      "##焦": 3830,
      "##胡": 3831,
      "##溢": 3832,
      "##渡": 3833,
      "##镜": 3834,
      "##流": 3835,
      "##层": 3836,
      "##沸": 3837,
      "##腾": 3838,
      "##液": 3839,
      "##首": 3840,
      "##穿": 3841,
      "##透": 3842,
      "##功": 3843,
      "##超": 3844,
      "##阈": 3845,
      "##值": 3846,
      "##皇": 3847,
      "##纣": 3848,
      "##粒": 3849,
      "##碰": 3850,
      "##撞": 3851,
      "##仅": 3852,
      "##鬼": 3853,
      "##捣": 3854,
      "##吃": 3855,
      "##饭": 3856,
      "##喝": 3857,
      "##睡": 3858,
      "##掌": 3859,
      "##握": 3860,
      "##转": 3861,
      "##莱": 3862,
      "##卡": 3863,
      "##俩": 3864,
      "##咔": 3865,
      "##嚓": 3866,
      "##疯": 3867,
      "##狂": 3868,
      "##丢": 3869,
      "##闪": 3870,
      "##措": 3871,
      "##泪": 3872,
      "##涌": 3873,
      "##瘦": 3874,
      "##躯": 3875,
      "##投": 3876,
      "##社": 3877,
      "##希": 3878,
      "##申": 3879,
      "##玉": 3880,
      "##菲": 3881,
      "##吐": 3882,
      "##司": 3883,
      "##哦": 3884,
      "##漆": 3885,
      "##况": 3886,
      "##域": 3887,
      "##利": 3888,
      "##福": 3889,
      "##尼": 3890,
      "##蒙": 3891,
      "##哥": 3892,
      "##黎": 3893,
      "##七": 3894,
      "##克": 3895,
      "##兹": 3896,
      "##阿": 3897,
      "##尚": 3898,
      "##做": 3899,
      "##逼": 3900,
      "##稳": 3901,
      "##形": 3902,
      "##适": 3903,
      "##迹": 3904,
      "##尾": 3905,
      "##衔": 3906,
      "##衷": 3907,
      "##寻": 3908,
      "##殊": 3909,
      "##乐": 3910,
      "##止": 3911,
      "##画": 3912,
      "##足": 3913,
      "##办": 3914,
      "##模": 3915,
      "##何": 3916,
      "##矢": 3917,
      "##预": 3918,
      "##渴": 3919,
      "##割": 3920,
      "##累": 3921,
      "##待": 3922,
      "##离": 3923,
      "##拨": 3924,
      "##码": 3925,
      "##铃": 3926,
      "##啷": 3927,
      "##扔": 3928,
      "##剑": 3929,
      "##廊": 3930,
      "##殿": 3931,
      "##坚": 3932,
      "##抗": 3933,
      "##著": 3934,
      "##双": 3935,
      "##僵": 3936,
      "##律": 3937,
      "##洋": 3938,
      "##秦": 3939,
      "##嬴": 3940,
      "##踱": 3941,
      "##摆": 3942,
      "##格": 3943,
      "##总": 3944,
      "##寞": 3945,
      "##图": 3946,
      "##寥": 3947,
      "##描": 3948,
      "##述": 3949,
      "##秋": 3950,
      "##龙": 3951,
      "##赋": 3952,
      "##予": 3953,
      "##永": 3954,
      "##暴": 3955,
      "##雨": 3956,
      "##休": 3957,
      "##乡": 3958,
      "##舞": 3959,
      "##蹈": 3960,
      "##奏": 3961,
      "##期": 3962,
      "##限": 3963,
      "##耐": 3964,
      "##住": 3965,
      "##借": 3966,
      "##燥": 3967,
      "##纤": 3968,
      "##躲": 3969,
      "##恶": 3970,
      "##劣": 3971,
      "##候": 3972,
      "##章": 3973,
      "##认": 3974,
      "##渐": 3975,
      "##略": 3976,
      "##>": 3977,
      "##策": 3978,
      "##则": 3979,
      "##并": 3980,
      "##披": 3981,
      "##花": 3982,
      "##兽": 3983,
      "##皮": 3984,
      "##浓": 3985,
      "##阴": 3986,
      "##融": 3987,
      "##苍": 3988,
      "##仿": 3989,
      "##浮": 3990,
      "##店": 3991,
      "##早": 3992,
      "##等": 3993,
      "##八": 3994,
      "##备": 3995,
      "##沿": 3996,
      "##焉": 3997,
      "##潜": 3998,
      "##彩": 3999,
      "##困": 4000,
      "##创": 4001,
      "##造": 4002,
      "##送": 4003,
      "##劳": 4004,
      "##价": 4005,
      "##觉": 4006,
      "##唐": 4007,
      "##准": 4008,
      "##巫": 4009,
      "##勤": 4010,
      "##谷": 4011,
      "##浸": 4012,
      "##际": 4013,
      "##此": 4014,
      "##弥": 4015,
      "##裂": 4016,
      "##痕": 4017,
      "##元": 4018,
      "##写": 4019,
      "##膨": 4020,
      "##胀": 4021,
      "##缩": 4022,
      "##风": 4023,
      "##懒": 4024,
      "##碗": 4025,
      "##洗": 4026,
      "##叠": 4027,
      "##习": 4028,
      "##甚": 4029,
      "##至": 4030,
      "##糊": 4031,
      "##混": 4032,
      "##划": 4033,
      "##6": 4034,
      "##黄": 4035,
      "##匠": 4036,
      "##绩": 4037,
      "##团": 4038,
      "##糟": 4039,
      "##推": 4040,
      "##九": 4041,
      "##误": 4042,
      "##忙": 4043,
      "##午": 4044,
      "##邀": 4045,
      "##串": 4046,
      "##语": 4047,
      "##央": 4048,
      "##智": 4049,
      "##言": 4050,
      "##巡": 4051,
      "##错": 4052,
      "##轰": 4053,
      "##鸣": 4054,
      "##械": 4055,
      "##钻": 4056,
      "##源": 4057,
      "##既": 4058,
      "##堂": 4059,
      "##狱": 4060,
      "##便": 4061,
      "##睁": 4062,
      "##盏": 4063,
      "##嵌": 4064,
      "##铁": 4065,
      "##昏": 4066,
      "##属": 4067,
      "##呗": 4068,
      "##钢": 4069,
      "##桩": 4070,
      "##昨": 4071,
      "##关": 4072,
      "##虽": 4073,
      "##共": 4074,
      "##呀": 4075,
      "##停": 4076,
      "##府": 4077,
      "##愣": 4078,
      "##松": 4079,
      "##宣": 4080,
      "##布": 4081,
      "##竟": 4082,
      "##纲": 4083,
      "##阵": 4084,
      "##列": 4085,
      "##钟": 4086,
      "##读": 4087,
      "##潮": 4088,
      "##式": 4089,
      "##拥": 4090,
      "##抱": 4091,
      "##遗": 4092,
      "##憾": 4093,
      "##品": 4094,
      "##缺": 4095,
      "##魂": 4096,
      "##斩": 4097,
      "##埋": 4098,
      "##较": 4099,
      "##耿": 4100,
      "##怀": 4101,
      "##愿": 4102,
      "##交": 4103,
      "##权": 4104,
      "##占": 4105,
      "##典": 4106,
      "##兄": 4107,
      "##胳": 4108,
      "##膊": 4109,
      "##拽": 4110,
      "##酒": 4111,
      "##哪": 4112,
      "##良": 4113,
      "##冷": 4114,
      "##酷": 4115,
      "##哈": 4116,
      "##卧": 4117,
      "##蜂": 4118,
      "##奋": 4119,
      "##挣": 4120,
      "##绳": 4121,
      "##索": 4122,
      "##燃": 4123,
      "##荡": 4124,
      "##滚": 4125,
      "##乱": 4126,
      "##纪": 4127,
      "##曙": 4128,
      "##迅": 4129,
      "##升": 4130,
      "##径": 4131,
      "##暖": 4132,
      "##扑": 4133,
      "##今": 4134,
      "##旷": 4135,
      "##怡": 4136,
      "##魔": 4137,
      "##c": 4138,
      "##j": 4139,
      "##}": 4140,
      "##{": 4141,
      "##盘": 4142,
      "##慧": 4143,
      "##敏": 4144,
      "##摞": 4145,
      "##纸": 4146,
      "##取": 4147,
      "##盒": 4148,
      "##馒": 4149,
      "##咸": 4150,
      "##菜": 4151,
      "##草": 4152,
      "##啃": 4153,
      "##凉": 4154,
      "##换": 4155,
      "##招": 4156,
      "##呼": 4157,
      "##惑": 4158,
      "##搬": 4159,
      "##客": 4160,
      "##厅": 4161,
      "##靠": 4162,
      "##掏": 4163,
      "##拾": 4164,
      "##陷": 4165,
      "##危": 4166,
      "##奉": 4167,
      "##献": 4168,
      "##华": 4169,
      "##贡": 4170,
      "##陌": 4171,
      "##残": 4172,
      "##折": 4173,
      "##磨": 4174,
      "##庭": 4175,
      "##归": 4176,
      "##资": 4177,
      "##吹": 4178,
      "##烫": 4179,
      "##晨": 4180,
      "##曦": 4181,
      "##亮": 4182,
      "##哨": 4183,
      "##剪": 4184,
      "##往": 4185,
      "##柜": 4186,
      "##练": 4187,
      "##扳": 4188,
      "##班": 4189,
      "##乏": 4190,
      "##扭": 4191,
      "##继": 4192,
      "##瞌": 4193,
      "##遍": 4194,
      "##报": 4195,
      "##叛": 4196,
      "##证": 4197,
      "##居": 4198,
      "##杀": 4199,
      "##批": 4200,
      "##阅": 4201,
      "##狗": 4202,
      "##屁": 4203,
      "##贴": 4204,
      "##革": 4205,
      "##郑": 4206,
      "##讨": 4207,
      "##泰": 4208,
      "##忘": 4209,
      "##鼠": 4210,
      "##壮": 4211,
      "##麻": 4212,
      "##独": 4213,
      "##臂": 4214,
      "##银": 4215,
      "##恒": 4216,
      "##均": 4217,
      "##匀": 4218,
      "##群": 4219,
      "##善": 4220,
      "##蒸": 4221,
      "##疑": 4222,
      "##踪": 4223,
      "##琳": 4224,
      "##城": 4225,
      "##市": 4226,
      "##楼": 4227,
      "##脆": 4228,
      "##邪": 4229,
      "##垃": 4230,
      "##圾": 4231,
      "##誉": 4232,
      "##译": 4233,
      "##绘": 4234,
      "##岛": 4235,
      "##港": 4236,
      "##企": 4237,
      "##k": 4238,
      "##侦": 4239,
      "##舱": 4240,
      "##递": 4241,
      "##泄": 4242,
      "##漏": 4243,
      "##冬": 4244,
      "##育": 4245,
      "##浅": 4246,
      "##触": 4247,
      "##抽": 4248,
      "##吴": 4249,
      "##健": 4250,
      "##雄": 4251,
      "##杰": 4252,
      "##李": 4253,
      "##互": 4254,
      "##守": 4255,
      "##必": 4256,
      "##保": 4257,
      "##龄": 4258,
      "##猜": 4259,
      "##森": 4260,
      "##眠": 4261,
      "##豆": 4262,
      "##产": 4263,
      "##=": 4264,
      "##'": 4265,
      "##3": 4266,
      "##/": 4267,
      "##i": 4268,
      "##m": 4269,
      "##《": 4270,
      "##枫": 4271,
      "##武": 4272,
      "##墓": 4273,
      "##历": 4274,
      "##泡": 4275,
      "##束": 4276,
      "##获": 4277,
      "##新": 4278,
      "##享": 4279,
      "##沐": 4280,
      "##浴": 4281,
      "##春": 4282,
      "##赞": 4283,
      "##诸": 4284,
      "##篝": 4285,
      "##荒": 4286,
      "##废": 4287,
      "##喧": 4288,
      "##闹": 4289,
      "##彻": 4290,
      "##迎": 4291,
      "##穷": 4292,
      "##托": 4293,
      "##院": 4294,
      "##败": 4295,
      "##助": 4296,
      "##诣": 4297,
      "##途": 4298,
      "##凌": 4299,
      "##病": 4300,
      "##假": 4301,
      "##瑶": 4302,
      "##补": 4303,
      "##训": 4304,
      "##伽": 4305,
      "##按": 4306,
      "##逐": 4307,
      "##丽": 4308,
      "##枝": 4309,
      "##签": 4310,
      "##咱": 4311,
      "##疙": 4312,
      "##瘩": 4313,
      "##哄": 4314,
      "##录": 4315,
      "##遇": 4316,
      "##剧": 4317,
      "##痛": 4318,
      "##血": 4319,
      "##冥": 4320,
      "##灼": 4321,
      "##刺": 4322,
      "##炙": 4323,
      "##烤": 4324,
      "##朦": 4325,
      "##胧": 4326,
      "##宿": 4327,
      "##惩": 4328,
      "##罚": 4329,
      "##腹": 4330,
      "##苦": 4331,
      "##退": 4332,
      "##晶": 4333,
      "##莹": 4334,
      "##爽": 4335,
      "##疼": 4336,
      "##减": 4337,
      "##句": 4338,
      "##搞": 4339,
      "##敷": 4340,
      "##衍": 4341,
      "##辆": 4342,
      "##笛": 4343,
      "##戴": 4344,
      "##墅": 4345,
      "##碌": 4346,
      "##油": 4347,
      "##味": 4348,
      "##副": 4349,
      "##柔": 4350,
      "##漂": 4351,
      "##楚": 4352,
      "##犯": 4353,
      "##谨": 4354,
      "##慎": 4355,
      "##狭": 4356,
      "##窄": 4357,
      "##铺": 4358,
      "##肉": 4359,
      "##妈": 4360,
      "##鱼": 4361,
      "##买": 4362,
      "##即": 4363,
      "##母": 4364,
      "##纷": 4365,
      "##诚": 4366,
      "##躁": 4367,
      "##鸟": 4368,
      "##症": 4369,
      "##掉": 4370,
      "##墨": 4371,
      "##召": 4372,
      "##夺": 4373,
      "##秘": 4374,
      "##帘": 4375,
      "##曳": 4376,
      "##夏": 4377,
      "##盯": 4378,
      "##缠": 4379,
      "##逃": 4380,
      "##哭": 4381,
      "##释": 4382,
      "##横": 4383,
      "##倾": 4384,
      "##斜": 4385,
      "##泳": 4386,
      "##笨": 4387,
      "##拙": 4388,
      "##肢": 4389,
      "##蛛": 4390,
      "##缝": 4391,
      "##灰": 4392,
      "##浆": 4393,
      "##崩": 4394,
      "##隙": 4395,
      "##煮": 4396,
      "##伏": 4397,
      "##毅": 4398,
      "##鼎": 4399,
      "##缚": 4400,
      "##刑": 4401,
      "##吟": 4402,
      "##懊": 4403,
      "##恼": 4404,
      "##署": 4405,
      "##讲": 4406,
      "##帝": 4407,
      "##佑": 4408,
      "##蔓": 4409,
      "##延": 4410,
      "##压": 4411,
      "##抑": 4412,
      "##绪": 4413,
      "##泼": 4414,
      "##盆": 4415,
      "##坟": 4416,
      "##仰": 4417,
      "##弟": 4418,
      "##噩": 4419,
      "##键": 4420,
      "##输": 4421,
      "##愤": 4422,
      "##幸": 4423,
      "##茨": 4424,
      "##涉": 4425,
      "##及": 4426,
      "##帮": 4427,
      "##挪": 4428,
      "##颁": 4429,
      "##潘": 4430,
      "##稍": 4431,
      "##灾": 4432,
      "##库": 4433,
      "##播": 4434,
      "##撒": 4435,
      "##毒": 4436,
      "##厂": 4437,
      "##汇": 4438,
      "##隔": 4439,
      "##迟": 4440,
      "##耗": 4441,
      "##唤": 4442,
      "##遥": 4443,
      "##诱": 4444,
      "##卑": 4445,
      "##懂": 4446,
      "##嫌": 4447,
      "##烦": 4448,
      "##纠": 4449,
      "##旗": 4450,
      "##约": 4451,
      "##a": 4452,
      "##亡": 4453,
      "##啸": 4454,
      "##愈": 4455,
      "##广": 4456,
      "##阔": 4457,
      "##剂": 4458,
      "##滥": 4459,
      "##撼": 4460,
      "##蕾": 4461,
      "##呆": 4462,
      "##昔": 4463,
      "##衫": 4464,
      "##烂": 4465,
      "##尘": 4466,
      "##粪": 4467,
      "##篇": 4468,
      "##杯": 4469,
      "##旋": 4470,
      "##肚": 4471,
      "##悟": 4472,
      "##聪": 4473,
      "##嗅": 4474,
      "##举": 4475,
      "##欧": 4476,
      "##姆": 4477,
      "##阻": 4478,
      "##麦": 4479,
      "##韦": 4480,
      "##朗": 4481,
      "##阶": 4482,
      "##威": 4483,
      "##窃": 4484,
      "##袖": 4485,
      "##职": 4486,
      "##旧": 4487,
      "##赫": 4488,
      "##千": 4489,
      "##毫": 4490,
      "##屯": 4491,
      "##农": 4492,
      "##辅": 4493,
      "##昧": 4494,
      "##吝": 4495,
      "##啬": 4496,
      "##禁": 4497,
      "##臭": 4498,
      "##伤": 4499,
      "##辜": 4500,
      "##颤": 4501,
      "##抖": 4502,
      "##畸": 4503,
      "##耸": 4504,
      "##兑": 4505,
      "##捧": 4506,
      "##桦": 4507,
      "##页": 4508,
      "##熄": 4509,
      "##记": 4510,
      "##昂": 4511,
      "##洲": 4512,
      "##湘": 4513,
      "##赚": 4514,
      "##钱": 4515,
      "##惯": 4516,
      "##植": 4517,
      "##姓": 4518,
      "##谱": 4519,
      "##符": 4520,
      "##~": 4521,
      "##涨": 4522,
      "##挤": 4523,
      "##障": 4524,
      "##碍": 4525,
      "##媒": 4526,
      "##揭": 4527,
      "##?": 4528,
      "##修": 4529,
      "##省": 4530,
      "##堪": 4531,
      "##益": 4532,
      "##遮": 4533,
      "##弯": 4534,
      "##堵": 4535,
      "##霞": 4536,
      "##瞬": 4537,
      "##逝": 4538,
      "##幕": 4539,
      "##盖": 4540,
      "##烬": 4541,
      "##炉": 4542,
      "##夹": 4543,
      "##炭": 4544,
      "##雾": 4545,
      "##炽": 4546,
      "##沌": 4547,
      "##焰": 4548,
      "##汉": 4549,
      "##霖": 4550,
      "##携": 4551,
      "##趁": 4552,
      "##阱": 4553,
      "##扎": 4554,
      "##徒": 4555,
      "##详": 4556,
      "##闻": 4557,
      "##劝": 4558,
      "##架": 4559,
      "##末": 4560,
      "##鞠": 4561,
      "##躬": 4562,
      "##姿": 4563,
      "##势": 4564,
      "##冯": 4565,
      "##曼": 4566,
      "##爱": 4567,
      "##撕": 4568,
      "##q": 4569,
      "##u": 4570,
      "##;": 4571,
      "##亿": 4572,
      "##衰": 4573,
      "##愁": 4574,
      "##霏": 4575,
      "##孤": 4576,
      "##帽": 4577,
      "##粉": 4578,
      "##沫": 4579,
      "##覆": 4580,
      "##滑": 4581,
      "##圆": 4582,
      "##斑": 4583,
      "##顺": 4584,
      "##厚": 4585,
      "##泥": 4586,
      "##湮": 4587,
      "##倍": 4588,
      "##遏": 4589,
      "##谐": 4590,
      "##繁": 4591,
      "##荣": 4592,
      "##罪": 4593,
      "##抛": 4594,
      "##媚": 4595,
      "##拇": 4596,
      "##筒": 4597,
      "##肠": 4598,
      "##伍": 4599,
      "##熊": 4600,
      "##踹": 4601,
      "##溃": 4602,
      "##歪": 4603,
      "##帜": 4604,
      "##辽": 4605,
      "##井": 4606,
      "##罗": 4607,
      "##亭": 4608,
      "##仓": 4609,
      "##筑": 4610,
      "##尖": 4611,
      "##迫": 4612,
      "##须": 4613,
      "##欲": 4614,
      "##坠": 4615,
      "##垮": 4616,
      "##抵": 4617,
      "##赖": 4618,
      "##若": 4619,
      "##旅": 4620,
      "##v": 4621,
      "##兆": 4622,
      "##忍": 4623,
      "##眉": 4624,
      "##颖": 4625,
      "##稿": 4626,
      "##付": 4627,
      "##凭": 4628,
      "##妙": 4629,
      "##桥": 4630,
      "##博": 4631,
      "##愚": 4632,
      "##蠢": 4633,
      "##宜": 4634,
      "##栽": 4635,
      "##甩": 4636,
      "##盔": 4637,
      "##翅": 4638,
      "##膀": 4639,
      "##唯": 4640,
      "##谅": 4641,
      "##咝": 4642,
      "##呈": 4643,
      "##袍": 4644,
      "##裹": 4645,
      "##肮": 4646,
      "##脏": 4647,
      "##铜": 4648,
      "##箱": 4649,
      "##眸": 4650,
      "##劫": 4651,
      "##擅": 4652,
      "##惨": 4653,
      "##汗": 4654,
      "##秃": 4655,
      "##岭": 4656,
      "##康": 4657,
      "##拜": 4658,
      "##犁": 4659,
      "##粮": 4660,
      "##田": 4661,
      "##漠": 4662,
      "##塑": 4663,
      "##簧": 4664,
      "##秤": 4665,
      "##蔑": 4666,
      "##哗": 4667,
      "##渠": 4668,
      "##弄": 4669,
      "##岔": 4670,
      "##氛": 4671,
      "##峻": 4672,
      "##拆": 4673,
      "##s": 4674,
      "##尴": 4675,
      "##尬": 4676,
      "##睹": 4677,
      "##跨": 4678,
      "##惕": 4679,
      "##伸": 4680,
      "##挡": 4681,
      "##耳": 4682,
      "##蔬": 4683,
      "##药": 4684,
      "##季": 4685,
      "##寄": 4686,
      "##膛": 4687,
      "##柴": 4688,
      "##芒": 4689,
      "##碳": 4690,
      "##陛": 4691,
      "##诠": 4692,
      "##泛": 4693,
      "##z": 4694,
      "##吉": 4695,
      "##堤": 4696,
      "##搜": 4697,
      "##鲸": 4698,
      "##π": 4699,
      "##ε": 4700,
      "##施": 4701,
      "##范": 4702,
      "##驱": 4703,
      "##唱": 4704,
      "##英": 4705,
      "##亩": 4706,
      "##嗤": 4707,
      "##碟": 4708,
      "##忧": 4709,
      "##咯": 4710,
      "##叨": 4711,
      "##闲": 4712,
      "##氧": 4713,
      "##嘛": 4714,
      "##腐": 4715,
      "##膝": 4716,
      "##瘴": 4717,
      "##p": 4718,
      "##烁": 4719,
      "##货": 4720,
      "##县": 4721,
      "##暂": 4722,
      "##伴": 4723,
      "##采": 4724,
      "##综": 4725,
      "##孔": 4726,
      "##摘": 4727,
      "##拦": 4728,
      "##酪": 4729,
      "##啥": 4730,
      "##刮": 4731,
      "##鳞": 4732,
      "##凤": 4733,
      "##针": 4734,
      "##炕": 4735,
      "##屋": 4736,
      "##扣": 4737,
      "##镶": 4738,
      "##脉": 4739,
      "##缀": 4740,
      "##庄": 4741,
      "##舒": 4742,
      "##湿": 4743,
      "##厨": 4744,
      "##怜": 4745,
      "##宫": 4746,
      "##蚂": 4747,
      "##蚁": 4748,
      "##辈": 4749,
      "##矛": 4750,
      "##盾": 4751,
      "##珍": 4752,
      "##渺": 4753,
      "##聚": 4754,
      "##晰": 4755,
      "##谢": 4756,
      "##熏": 4757,
      "##滤": 4758,
      "##叹": 4759,
      "##瞳": 4760,
      "##忽": 4761,
      "##扇": 4762,
      "##涓": 4763,
      "##眨": 4764,
      "##吞": 4765,
      "##厌": 4766,
      "##倦": 4767,
      "##姑": 4768,
      "##娘": 4769,
      "##凄": 4770,
      "##婉": 4771,
      "##香": 4772,
      "##娟": 4773,
      "##秀": 4774,
      "##岂": 4775,
      "##夕": 4776,
      "##姐": 4777,
      "##土": 4778,
      "##贫": 4779,
      "##富": 4780,
      "##裕": 4781,
      "##营": 4782,
      "##污": 4783,
      "##染": 4784,
      "##拒": 4785,
      "##京": 4786,
      "##燕": 4787,
      "##悄": 4788,
      "##谋": 4789,
      "##圈": 4790,
      "##聊": 4791,
      "##忆": 4792,
      "##冻": 4793,
      "##翠": 4794,
      "##翔": 4795,
      "##煦": 4796,
      "##抚": 4797,
      "##摸": 4798,
      "##演": 4799,
      "##咋": 4800,
      "##醉": 4801,
      "##宵": 4802,
      "##灌": 4803,
      "##啤": 4804,
      "##返": 4805,
      "##仇": 4806,
      "##恨": 4807,
      "##财": 4808,
      "##款": 4809,
      "##庞": 4810,
      "##募": 4811,
      "##貌": 4812,
      "##绎": 4813,
      "##魅": 4814,
      "##侵": 4815,
      "##务": 4816,
      "##云": 4817,
      "##骨": 4818,
      "##遣": 4819,
      "##庸": 4820,
      "##替": 4821,
      "##橙": 4822,
      "##胁": 4823,
      "##险": 4824,
      "##缆": 4825,
      "##喷": 4826,
      "##泊": 4827,
      "##爬": 4828,
      "##悲": 4829,
      "##渊": 4830,
      "##妹": 4831,
      "##萤": 4832,
      "##炼": 4833,
      "##荧": 4834,
      "##膏": 4835,
      "##臆": 4836,
      "##惜": 4837,
      "##颠": 4838,
      "##丰": 4839,
      "##蚊": 4840,
      "##浊": 4841,
      "##碘": 4842,
      "##牌": 4843,
      "##傻": 4844,
      "##闷": 4845,
      "##淋": 4846,
      "##漓": 4847,
      "##岩": 4848,
      "##沮": 4849,
      "##丧": 4850,
      "##唉": 4851,
      "##鸡": 4852,
      "##喂": 4853,
      "##捉": 4854,
      "##棚": 4855,
      "##赌": 4856,
      "##届": 4857,
      "##礼": 4858,
      "##销": 4859,
      "##巧": 4860,
      "##蝗": 4861,
      "##埂": 4862,
      "##觑": 4863,
      "##猫": 4864,
      "##弓": 4865,
      "##濒": 4866,
      "##艘": 4867,
      "##词": 4868,
      "##闯": 4869,
      "##南": 4870,
      "##霸": 4871,
      "##谎": 4872,
      "##咧": 4873,
      "##嘹": 4874,
      "##庙": 4875,
      "##丫": 4876,
      "##绽": 4877,
      "##哀": 4878,
      "##竖": 4879,
      "##羞": 4880,
      "##抡": 4881,
      "##鼓": 4882,
      "##崇": 4883,
      "##念": 4884,
      "##辉": 4885,
      "##陶": 4886,
      "##勇": 4887,
      "##豪": 4888,
      "##昼": 4889,
      "##穹": 4890,
      "##削": 4891,
      "##埃": 4892,
      "##眩": 4893,
      "##狙": 4894,
      "##瞄": 4895,
      "##洪": 4896,
      "##淹": 4897,
      "##渗": 4898,
      "##圣": 4899,
      "##歧": 4900,
      "##宗": 4901,
      "##贼": 4902,
      "##燎": 4903,
      "##丑": 4904,
      "##剖": 4905,
      "##&": 4906,
      "##吓": 4907,
      "##仔": 4908,
      "##鞭": 4909,
      "##账": 4910,
      "##冠": 4911,
      "##驶": 4912,
      "##诞": 4913,
      "##冕": 4914,
      "##绞": 4915,
      "##栗": 4916,
      "##卓": 4917,
      "##旦": 4918,
      "##岗": 4919,
      "##卖": 4920,
      "##g": 4921,
      "##浑": 4922,
      "##咣": 4923,
      "##悻": 4924,
      "##协": 4925,
      "##赢": 4926,
      "##肩": 4927,
      "##欣": 4928,
      "##敬": 4929,
      "##奖": 4930,
      "##赏": 4931,
      "##爵": 4932,
      "##匹": 4933,
      "##吋": 4934,
      "##拂": 4935,
      "##炬": 4936,
      "##黯": 4937,
      "##紊": 4938,
      "##吻": 4939,
      "##遵": 4940,
      "##循": 4941,
      "##姬": 4942,
      "##昌": 4943,
      "##碑": 4944,
      "##抓": 4945,
      "##蛇": 4946,
      "##逊": 4947,
      "##刊": 4948,
      "##棱": 4949,
      "##氢": 4950,
      "##拔": 4951,
      "##讥": 4952,
      "##讽": 4953,
      "##晴": 4954,
      "##戒": 4955,
      "##驻": 4956,
      "##猎": 4957,
      "##狍": 4958,
      "##腰": 4959,
      "##促": 4960,
      "##亏": 4961,
      "##尿": 4962,
      "##裤": 4963,
      "##挨": 4964,
      "##寸": 4965,
      "##辨": 4966,
      "##舷": 4967,
      "##络": 4968,
      "##喘": 4969,
      "##馆": 4970,
      "##栋": 4971,
      "##玻": 4972,
      "##璃": 4973,
      "##抹": 4974,
      "##瓢": 4975,
      "##户": 4976,
      "##鲜": 4977,
      "##恍": 4978,
      "##惚": 4979,
      "##煌": 4980,
      "##掠": 4981,
      "##蔚": 4982,
      "##蘑": 4983,
      "##菇": 4984,
      "##御": 4985,
      "##湖": 4986,
      "##趋": 4987,
      "##拳": 4988,
      "##谓": 4989,
      "##版": 4990,
      "##朽": 4991,
      "##辞": 4992,
      "##勃": 4993,
      "##腊": 4994,
      "##鬈": 4995,
      "##咖": 4996,
      "##啡": 4997,
      "##垂": 4998,
      "##吊": 4999,
      "##脯": 5000,
      "##含": 5001,
      "##洛": 5002,
      "##颜": 5003,
      "##碎": 5004,
      "##街": 5005,
      "##刹": 5006,
      "##啼": 5007,
      "##劲": 5008,
      "##磅": 5009,
      "##礴": 5010,
      "##册": 5011,
      "##掩": 5012,
      "##袭": 5013,
      "##锥": 5014,
      "##锐": 5015,
      "##戎": 5016,
      "##菌": 5017,
      "##毛": 5018,
      "##鞋": 5019,
      "##余": 5020,
      "##瞟": 5021,
      "##蛮": 5022,
      "##冗": 5023,
      "##欺": 5024,
      "##锋": 5025,
      "##橱": 5026,
      "##疾": 5027,
      "##灿": 5028,
      "##眯": 5029,
      "##朕": 5030,
      "##捂": 5031,
      "##骚": 5032,
      "##脖": 5033,
      "##艺": 5034,
      "##卜": 5035,
      "##腿": 5036,
      "##汤": 5037,
      "##咕": 5038,
      "##嘟": 5039,
      "##呓": 5040,
      "##坪": 5041,
      "##遛": 5042,
      "##耍": 5043,
      "##奢": 5044,
      "##侈": 5045,
      "##园": 5046,
      "##涸": 5047,
      "##忏": 5048,
      "##悔": 5049,
      "##薄": 5050,
      "##崭": 5051,
      "##陈": 5052,
      "##敲": 5053,
      "##邮": 5054,
      "##粘": 5055,
      "##辛": 5056,
      "##绵": 5057,
      "##敞": 5058,
      "##雇": 5059,
      "##苗": 5060,
      "##翁": 5061,
      "##裁": 5062,
      "##甄": 5063,
      "##督": 5064,
      "##渲": 5065,
      "##惺": 5066,
      "##忪": 5067,
      "##钮": 5068,
      "##秆": 5069,
      "##蠕": 5070,
      "##黏": 5071,
      "##稠": 5072,
      "##撤": 5073,
      "##纹": 5074,
      "##俑": 5075,
      "##毯": 5076,
      "##浦": 5077,
      "##椅": 5078,
      "##悠": 5079,
      "##腥": 5080,
      "##鼻": 5081,
      "##蓬": 5082,
      "##浩": 5083,
      "##弦": 5084,
      "##绷": 5085,
      "##孕": 5086,
      "##饿": 5087,
      "##憎": 5088,
      "##编": 5089,
      "##缘": 5090,
      "##捍": 5091,
      "##撂": 5092,
      "##瓶": 5093,
      "##兰": 5094,
      "##兮": 5095,
      "##欠": 5096,
      "##舌": 5097,
      "##饶": 5098,
      "##羽": 5099,
      "##郁": 5100,
      "##乌": 5101,
      "##坑": 5102,
      "##锅": 5103,
      "##粱": 5104,
      "##溪": 5105,
      "##匆": 5106,
      "##席": 5107,
      "##偿": 5108,
      "##霆": 5109,
      "##斟": 5110,
      "##酌": 5111,
      "##犀": 5112,
      "##歌": 5113,
      "##锤": 5114,
      "##柬": 5115,
      "##夭": 5116,
      "##践": 5117,
      "##恰": 5118,
      "##摧": 5119,
      "##济": 5120,
      "##童": 5121,
      "##诧": 5122,
      "##董": 5123,
      "##痹": 5124,
      "##陪": 5125,
      "##谣": 5126,
      "##铅": 5127,
      "##曲": 5128,
      "##碧": 5129,
      "##肤": 5130,
      "##晒": 5131,
      "##访": 5132,
      "##籍": 5133,
      "##陋": 5134,
      "##坯": 5135,
      "##锄": 5136,
      "##锨": 5137,
      "##酉": 5138,
      "##炊": 5139,
      "##彼": 5140,
      "##池": 5141,
      "##歉": 5142,
      "##淌": 5143,
      "##蹬": 5144,
      "##迸": 5145,
      "##涡": 5146,
      "##肴": 5147,
      "##牺": 5148,
      "##牲": 5149,
      "##竹": 5150,
      "##畏": 5151,
      "##吱": 5152,
      "##哑": 5153,
      "##茶": 5154,
      "##咚": 5155,
      "##储": 5156,
      "##趟": 5157,
      "##瞪": 5158,
      "##损": 5159,
      "##噪": 5160,
      "##祝": 5161,
      "##滔": 5162,
      "##乒": 5163,
      "##乓": 5164,
      "##棉": 5165,
      "##袄": 5166,
      "##兜": 5167,
      "##润": 5168,
      "##涂": 5169,
      "##雕": 5170,
      "##芽": 5171,
      "##缕": 5172,
      "##衡": 5173,
      "##垄": 5174,
      "##尝": 5175,
      "##驳": 5176,
      "##朵": 5177,
      "##搭": 5178,
      "##舟": 5179,
      "##嗓": 5180,
      "##咬": 5181,
      "##９": 5182,
      "##ｌ": 5183,
      "##ｉ": 5184,
      "##嗯": 5185,
      "##搁": 5186,
      "##忌": 5187,
      "##讳": 5188,
      "##窜": 5189,
      "##履": 5190,
      "##～": 5191,
      "##瓦": 5192,
      "##氏": 5193,
      "##忠": 5194,
      "##魁": 5195,
      "##梧": 5196,
      "##沽": 5197,
      "##羊": 5198,
      "##墟": 5199,
      "##藤": 5200,
      "##锈": 5201,
      "##猛": 5202,
      "##_": 5203,
      "##慨": 5204,
      "##虻": 5205,
      "##挺": 5206,
      "##泉": 5207,
      "##靶": 5208,
      "##零": 5209,
      "##邻": 5210,
      "##摔": 5211,
      "##噼": 5212,
      "##啪": 5213,
      "##纵": 5214,
      "##晌": 5215,
      "##拎": 5216,
      "##擀": 5217,
      "##杖": 5218,
      "##棒": 5219,
      "##沟": 5220,
      "##赤": 5221,
      "##耽": 5222,
      "##询": 5223,
      "##瘠": 5224,
      "##坡": 5225,
      "##滴": 5226,
      "##艳": 5227,
      "##汲": 5228,
      "##迢": 5229,
      "##盗": 5230,
      "##墩": 5231,
      "##犹": 5232,
      "##豫": 5233,
      "##拄": 5234,
      "##卒": 5235,
      "##霉": 5236,
      "##葬": 5237,
      "##牵": 5238,
      "##揽": 5239,
      "##颅": 5240,
      "##蜿": 5241,
      "##蜒": 5242,
      "##哒": 5243,
      "##族": 5244,
      "##镊": 5245,
      "##飒": 5246,
      "##衬": 5247,
      "##矮": 5248,
      "##拐": 5249,
      "##挖": 5250,
      "##x": 5251,
      "##刁": 5252,
      "##僧": 5253,
      "##涛": 5254,
      "##粼": 5255,
      "##腋": 5256,
      "##斤": 5257,
      "##逆": 5258,
      "##绣": 5259,
      "##癌": 5260,
      "##胞": 5261,
      "##养": 5262,
      "##瘙": 5263,
      "##痒": 5264,
      "##额": 5265,
      "##桃": 5266,
      "##舶": 5267,
      "##铰": 5268,
      "##筝": 5269,
      "##抢": 5270,
      "##估": 5271,
      "##霜": 5272,
      "##娃": 5273,
      "##嘿": 5274,
      "##狞": 5275,
      "##棋": 5276,
      "##穴": 5277,
      "##肃": 5278,
      "##捷": 5279,
      "##涯": 5280,
      "##堕": 5281,
      "##芬": 5282,
      "##柯": 5283,
      "##潦": 5284,
      "##庶": 5285,
      "##垦": 5286,
      "##卦": 5287,
      "##羲": 5288,
      "##脾": 5289,
      "##乖": 5290,
      "##戾": 5291,
      "##催": 5292,
      "##盹": 5293,
      "##棘": 5294,
      "##竞": 5295,
      "##赛": 5296,
      "##佩": 5297,
      "##铠": 5298,
      "##蹒": 5299,
      "##跚": 5300,
      "##旨": 5301,
      "##噬": 5302,
      "##捕": 5303,
      "##喻": 5304,
      "##摩": 5305,
      "##擦": 5306,
      "##乞": 5307,
      "##丐": 5308,
      "##轧": 5309,
      "##弧": 5310,
      "##祥": 5311,
      "##滞": 5312,
      "##津": 5313,
      "##屈": 5314,
      "##呐": 5315,
      "##幼": 5316,
      "##稚": 5317,
      "##谙": 5318,
      "##辰": 5319,
      "##绒": 5320,
      "##耕": 5321,
      "##厦": 5322,
      "##巍": 5323,
      "##峨": 5324,
      "##逛": 5325,
      "##盈": 5326,
      "##睦": 5327,
      "##祈": 5328,
      "##祷": 5329,
      "##篮": 5330,
      "##蒂": 5331,
      "##煤": 5332,
      "##勒": 5333,
      "##歇": 5334,
      "##删": 5335,
      "##浏": 5336,
      "##览": 5337,
      "##痴": 5338,
      "##泣": 5339,
      "##乘": 5340,
      "##暮": 5341,
      "##榴": 5342,
      "##冈": 5343,
      "##潭": 5344,
      "##矗": 5345,
      "##卸": 5346,
      "##泽": 5347,
      "##稀": 5348,
      "##婴": 5349,
      "##祖": 5350,
      "##诵": 5351,
      "##尤": 5352,
      "##绚": 5353,
      "##鹅": 5354,
      "##揉": 5355,
      "##栏": 5356,
      "##娱": 5357,
      "##钥": 5358,
      "##匙": 5359,
      "##氮": 5360,
      "##旱": 5361,
      "##丛": 5362,
      "##邸": 5363,
      "##邦": 5364,
      "##商": 5365,
      "##贯": 5366,
      "##湍": 5367,
      "##涟": 5368,
      "##漪": 5369,
      "##汹": 5370,
      "##碴": 5371,
      "##瓷": 5372,
      "##酸": 5373,
      "##猪": 5374,
      "##馅": 5375,
      "##饺": 5376,
      "##砌": 5377,
      "##剐": 5378,
      "##隧": 5379,
      "##畔": 5380,
      "##韵": 5381,
      "##牙": 5382,
      "##慑": 5383,
      "##犄": 5384,
      "##逾": 5385,
      "##鸿": 5386,
      "##跪": 5387,
      "##―": 5388,
      "##旺": 5389,
      "##租": 5390,
      "##驾": 5391,
      "##萦": 5392,
      "##椭": 5393,
      "##喉": 5394,
      "##咙": 5395,
      "##咽": 5396,
      "##唾": 5397,
      "##坝": 5398,
      "##胜": 5399,
      "##夸": 5400,
      "##胃": 5401,
      "##盲": 5402,
      "##吁": 5403,
      "##趴": 5404,
      "##挟": 5405,
      "##遁": 5406,
      "##凡": 5407,
      "##垫": 5408,
      "##郊": 5409,
      "##狼": 5410,
      "##藉": 5411,
      "##舍": 5412,
      "##爸": 5413,
      "##驰": 5414,
      "##掘": 5415,
      "##粹": 5416,
      "##呜": 5417,
      "##冶": 5418,
      "##熔": 5419,
      "##榔": 5420,
      "##砸": 5421,
      "##窟": 5422,
      "##刘": 5423,
      "##喇": 5424,
      "##叭": 5425,
      "##逸": 5426,
      "##寺": 5427,
      "##婚": 5428,
      "##幢": 5429,
      "##w": 5430,
      "##摊": 5431,
      "##隆": 5432,
      "##恕": 5433,
      "##篡": 5434,
      "##霾": 5435,
      "##湛": 5436,
      "##楔": 5437,
      "##隋": 5438,
      "##党": 5439,
      "##蹭": 5440,
      "##凿": 5441,
      "##赎": 5442,
      "##泞": 5443,
      "##彳": 5444,
      "##艮": 5445,
      "##箭": 5446,
      "##斥": 5447,
      "##扶": 5448,
      "##勘": 5449,
      "##垩": 5450,
      "##帆": 5451,
      "##簸": 5452,
      "##叙": 5453,
      "##凯": 5454,
      "##骄": 5455,
      "##傲": 5456,
      "##戈": 5457,
      "##昕": 5458,
      "##澈": 5459,
      "##毙": 5460,
      "##枚": 5461,
      "##沾": 5462,
      "##窑": 5463,
      "##囔": 5464,
      "##慈": 5465,
      "##盟": 5466,
      "##锵": 5467,
      "##牢": 5468,
      "##拢": 5469,
      "##乳": 5470,
      "##锢": 5471,
      "##荷": 5472,
      "##枯": 5473,
      "##镰": 5474,
      "##诬": 5475,
      "##奈": 5476,
      "##糙": 5477,
      "##皙": 5478,
      "##颈": 5479,
      "##娇": 5480,
      "##札": 5481,
      "##骼": 5482,
      "##谜": 5483,
      "##扛": 5484,
      "##皆": 5485,
      "##梯": 5486,
      "##撑": 5487,
      "##骇": 5488,
      "##净": 5489,
      "##捞": 5490,
      "##汛": 5491,
      "##陡": 5492,
      "##峭": 5493,
      "##辟": 5494,
      "##勉": 5495,
      "##汰": 5496,
      "##皈": 5497,
      "##滩": 5498,
      "##丘": 5499,
      "##匕": 5500,
      "##蝇": 5501,
      "##楠": 5502,
      "##鸭": 5503,
      "##咪": 5504,
      "##氦": 5505,
      "##贱": 5506,
      "##鉴": 5507,
      "##瞎": 5508,
      "##裸": 5509,
      "##剔": 5510,
      "##稻": 5511,
      "##诗": 5512,
      "##洒": 5513,
      "##缸": 5514,
      "##拣": 5515,
      "##仙": 5516,
      "##鄙": 5517,
      "##夷": 5518,
      "##疆": 5519,
      "##啦": 5520,
      "##钉": 5521,
      "##吨": 5522,
      "##耻": 5523,
      "##恻": 5524,
      "##彬": 5525,
      "##婆": 5526,
      "##寡": 5527,
      "##妇": 5528,
      "##骂": 5529,
      "##俏": 5530,
      "##兔": 5531,
      "##朴": 5532,
      "##贝": 5533,
      "##蒜": 5534,
      "##ｂ": 5535,
      "##挑": 5536,
      "##框": 5537,
      "##攥": 5538,
      "##齿": 5539,
      "##髓": 5540,
      "##苟": 5541,
      "##霹": 5542,
      "##雳": 5543,
      "##迄": 5544,
      "##棕": 5545,
      "##凳": 5546,
      "##杆": 5547,
      "##媳": 5548,
      "##妮": 5549,
      "##渣": 5550,
      "##哺": 5551,
      "##*": 5552,
      "##嫁": 5553,
      "##闺": 5554,
      "##羡": 5555,
      "##慕": 5556,
      "##肌": 5557,
      "##渥": 5558,
      "##患": 5559,
      "##肺": 5560,
      "##嘶": 5561,
      "##竭": 5562,
      "##搂": 5563,
      "##购": 5564,
      "##饰": 5565,
      "##狩": 5566,
      "##吵": 5567,
      "##矩": 5568,
      "##沧": 5569,
      "##骷": 5570,
      "##髅": 5571,
      "##雅": 5572,
      "##颚": 5573,
      "##咦": 5574,
      "##晷": 5575,
      "##鄢": 5576,
      "##袅": 5577,
      "##婷": 5578,
      "##椎": 5579,
      "##搐": 5580,
      "##俄": 5581,
      "##筋": 5582,
      "##焊": 5583,
      "##叉": 5584,
      "##兼": 5585,
      "##侥": 5586,
      "##匣": 5587,
      "##礁": 5588,
      "##沥": 5589,
      "##涤": 5590,
      "##傍": 5591,
      "##瘫": 5592,
      "##洼": 5593,
      "##晖": 5594,
      "##蜡": 5595,
      "##烛": 5596,
      "##驴": 5597,
      "##肝": 5598,
      "##私": 5599,
      "##扁": 5600,
      "##仟": 5601,
      "##褥": 5602,
      "##§": 5603,
      "##凶": 5604,
      "##敦": 5605,
      "##±": 5606,
      "##弗": 5607,
      "##伪": 5608,
      "##寿": 5609,
      "##秩": 5610,
      "##徘": 5611,
      "##徊": 5612,
      "##盼": 5613,
      "##葵": 5614,
      "##栈": 5615,
      "##砖": 5616,
      "##垒": 5617,
      "##宝": 5618,
      "##眺": 5619,
      "##缰": 5620,
      "##辩": 5621,
      "##梭": 5622,
      "##ⅰ": 5623,
      "##葡": 5624,
      "##萄": 5625,
      "##贸": 5626,
      "##淤": 5627,
      "##琐": 5628,
      "##呵": 5629,
      "##纱": 5630,
      "##鞘": 5631,
      "##胎": 5632,
      "##硕": 5633,
      "##郎": 5634,
      "##淘": 5635,
      "##绑": 5636,
      "##坞": 5637,
      "##漉": 5638,
      "##盛": 5639,
      "##嘲": 5640,
      "##聆": 5641,
      "##彭": 5642,
      "##函": 5643,
      "##坍": 5644,
      "##猖": 5645,
      "##咒": 5646,
      "##汐": 5647,
      "##魄": 5648,
      "##藕": 5649,
      "##陨": 5650,
      "##儒": 5651,
      "##捡": 5652,
      "##搀": 5653,
      "##蜻": 5654,
      "##肥": 5655,
      "##拱": 5656,
      "##罐": 5657,
      "##帐": 5658,
      "##篷": 5659,
      "##睑": 5660,
      "##翩": 5661,
      "##橇": 5662,
      "##霓": 5663,
      "##虹": 5664,
      "##褶": 5665,
      "##蝌": 5666,
      "##蚪": 5667,
      "##瓮": 5668,
      "##褐": 5669,
      "##蕞": 5670,
      "##挽": 5671,
      "##戟": 5672,
      "##佳": 5673,
      "##疏": 5674,
      "##钓": 5675,
      "##蛋": 5676,
      "##塌": 5677,
      "##焚": 5678,
      "##嫩": 5679,
      "##俱": 5680,
      "##]": 5681,
      "##梵": 5682,
      "##寐": 5683,
      "##诏": 5684,
      "##玫": 5685,
      "##瑰": 5686,
      "##蔼": 5687,
      "##镀": 5688,
      "##艇": 5689,
      "##链": 5690,
      "##赴": 5691,
      "##仁": 5692,
      "##辣": 5693,
      "##瓜": 5694,
      "##订": 5695,
      "##吼": 5696,
      "##瞒": 5697,
      "##轴": 5698,
      "##饱": 5699,
      "##癫": 5700,
      "##溶": 5701,
      "##曹": 5702,
      "##砰": 5703,
      "##橄": 5704,
      "##榄": 5705,
      "##斓": 5706,
      "##骸": 5707,
      "##惶": 5708,
      "##勿": 5709,
      "##川": 5710,
      "##℃": 5711,
      "##樟": 5712,
      "##伯": 5713,
      "##杉": 5714,
      "##柞": 5715,
      "##榆": 5716,
      "##柳": 5717,
      "##栎": 5718,
      "##熙": 5719,
      "##攘": 5720,
      "##阂": 5721,
      "##睬": 5722,
      "##勾": 5723,
      "##悸": 5724,
      "##－": 5725,
      "##颂": 5726,
      "##裔": 5727,
      "##菱": 5728,
      "##朋": 5729,
      "##栩": 5730,
      "##蕴": 5731,
      "##伦": 5732,
      "##褪": 5733,
      "##桶": 5734,
      "##盥": 5735,
      "##杳": 5736,
      "##饮": 5737,
      "##呕": 5738,
      "##宴": 5739,
      "##餐": 5740,
      "##仆": 5741,
      "##淫": 5742,
      "##培": 5743,
      "##卵": 5744,
      "##誊": 5745,
      "##抄": 5746,
      "##锹": 5747,
      "##磐": 5748,
      "##恫": 5749,
      "##涕": 5750,
      "##诲": 5751,
      "##羔": 5752,
      "##菩": 5753,
      "##萨": 5754,
      "##庆": 5755,
      "##霍": 5756,
      "##窥": 5757,
      "##窘": 5758,
      "##呸": 5759,
      "##缤": 5760,
      "##皲": 5761,
      "##旭": 5762,
      "##脊": 5763,
      "##砚": 5764,
      "##撰": 5765,
      "##靓": 5766,
      "##奸": 5767,
      "##阙": 5768,
      "##厢": 5769,
      "##钩": 5770,
      "##弛": 5771,
      "##溏": 5772,
      "##殷": 5773,
      "##］": 5774,
      "##颇": 5775,
      "##羟": 5776,
      "##黝": 5777,
      "##廓": 5778,
      "##窝": 5779,
      "##撩": 5780,
      "##哆": 5781,
      "##嗉": 5782,
      "##蝴": 5783,
      "##蝶": 5784,
      "##昆": 5785,
      "##绊": 5786,
      "##匿": 5787,
      "##咫": 5788,
      "##奠": 5789,
      "##睽": 5790,
      "##怨": 5791,
      "##枕": 5792,
      "##铭": 5793,
      "##祸": 5794,
      "##肾": 5795,
      "##捐": 5796,
      "##冤": 5797,
      "##迁": 5798,
      "##舔": 5799,
      "##踏": 5800,
      "##郭": 5801,
      "##荐": 5802,
      "##愉": 5803,
      "##鹤": 5804,
      "##擎": 5805,
      "##袒": 5806,
      "##侃": 5807,
      "##跌": 5808,
      "##腔": 5809,
      "##牧": 5810,
      "##徙": 5811,
      "##巢": 5812,
      "##甸": 5813,
      "##宾": 5814,
      "##揪": 5815,
      "##撮": 5816,
      "##啾": 5817,
      "##眷": 5818,
      "##恋": 5819,
      "##剥": 5820,
      "##啰": 5821,
      "##陕": 5822,
      "##壤": 5823,
      "##妥": 5824,
      "##稼": 5825,
      "##炯": 5826,
      "##啐": 5827,
      "##攀": 5828,
      "##奴": 5829,
      "##隶": 5830,
      "##橘": 5831,
      "##绢": 5832,
      "##评": 5833,
      "##姻": 5834,
      "##娶": 5835,
      "##酱": 5836,
      "##衅": 5837,
      "##聋": 5838,
      "##嗔": 5839,
      "##壕": 5840,
      "##虔": 5841,
      "##槛": 5842,
      "##拓": 5843,
      "##纂": 5844,
      "##芯": 5845,
      "##屎": 5846,
      "##雀": 5847,
      "##尉": 5848,
      "##悦": 5849,
      "##螺": 5850,
      "##栓": 5851,
      "##拧": 5852,
      "##晗": 5853,
      "##葛": 5854,
      "##傅": 5855,
      "##赵": 5856,
      "##扼": 5857,
      "##萌": 5858,
      "##呛": 5859,
      "##吩": 5860,
      "##咐": 5861,
      "##援": 5862,
      "##虎": 5863,
      "##+": 5864,
      "##一个": 5865,
      "##汪淼": 5866,
      "##，这": 5867,
      "##文洁": 5868,
      "##，我": 5869,
      "##没有": 5870,
      "##，但": 5871,
      "##，他": 5872,
      "##三体": 5873,
      "##什么": 5874,
      "##了，": 5875,
      "##了。": 5876,
      "##叶文洁": 5877,
      "##的，": 5878,
      "##太阳": 5879,
      "##色的": 5880,
      "##自己": 5881,
      "##文明": 5882,
      "##世界": 5883,
      "##知道": 5884,
      "##了一": 5885,
      "##看到": 5886,
      "##的一": 5887,
      "##，在": 5888,
      "##就是": 5889,
      "##的。": 5890,
      "##这个": 5891,
      "##我们": 5892,
      "##，那": 5893,
      "##可能": 5894,
      "##现在": 5895,
      "##……": 5896,
      "##的人": 5897,
      "##宇宙": 5898,
      "##他们": 5899,
      "##，你": 5900,
      "##吗？": 5901,
      "##，她": 5902,
      "##地球": 5903,
      "##已经": 5904,
      "##来，": 5905,
      "##科学": 5906,
      "##中的": 5907,
      "##信息": 5908,
      "##可以": 5909,
      "##后，": 5910,
      "##时，": 5911,
      "##时间": 5912,
      "##大的": 5913,
      "##人类": 5914,
      "##不是": 5915,
      "##上的": 5916,
      "##到了": 5917,
      "##说。": 5918,
      "##这样": 5919,
      "##上，": 5920,
      "##，我们": 5921,
      "##红岸": 5922,
      "##研究": 5923,
      "##说：": 5924,
      "##那个": 5925,
      "##说，": 5926,
      "##计算": 5927,
      "##小球": 5928,
      "##是一": 5929,
      "##中，": 5930,
      "##问题": 5931,
      "##。这": 5932,
      "##方块": 5933,
      "##厘米": 5934,
      "##发现": 5935,
      "##系统": 5936,
      "##发射": 5937,
      "##色的小球": 5938,
      "##色的方块": 5939,
      "##，一": 5940,
      "##开始": 5941,
      "##，只": 5942,
      "##出现": 5943,
      "##基地": 5944,
      "##部分": 5945,
      "##技术": 5946,
      "##两个": 5947,
      "##，是": 5948,
      "##。他": 5949,
      "叶文洁": 5950,
      "##，它": 5951,
      "##有一": 5952,
      "##，不": 5953,
      "##。汪淼": 5954,
      "##还是": 5955,
      "##东西": 5956,
      "##大史": 5957,
      "##，他们": 5958,
      "##，就": 5959,
      "##都是": 5960,
      "##进行": 5961,
      "##自己的": 5962,
      "##，也": 5963,
      "##的大": 5964,
      "##你们": 5965,
      "##很快": 5966,
      "汪淼": 5967,
      "##运行": 5968,
      "##如果": 5969,
      "##存在": 5970,
      "##下，": 5971,
      "##这种": 5972,
      "##所有": 5973,
      "##看着": 5974,
      "##出来": 5975,
      "##，汪淼": 5976,
      "##一次": 5977,
      "##出了": 5978,
      "##纪元": 5979,
      "##然后": 5980,
      "##。在": 5981,
      "##那些": 5982,
      "##最后": 5983,
      "##呢？": 5984,
      "##一样": 5985,
      "##他的": 5986,
      "##面的": 5987,
      "##三体世界": 5988,
      "##是一个": 5989,
      "##。但": 5990,
      "##卫宁": 5991,
      "##质子": 5992,
      "##监听": 5993,
      "##物理": 5994,
      "##的事": 5995,
      "##工作": 5996,
      "##计算机": 5997,
      "##，其": 5998,
      "##着，": 5999,
      "##回答": 6000,
      "##吧。": 6001,
      "##起来": 6002,
      "##辐射": 6003,
      "##，而": 6004,
      "##发出": 6005,
      "##不知道": 6006,
      "##感觉": 6007,
      "##智子": 6008,
      "##人的": 6009,
      "##去，": 6010,
      "##游戏": 6011,
      "##——": 6012,
      "##背景": 6013,
      "##这里": 6014,
      "##行星": 6015,
      "##长的": 6016,
      "##的是": 6017,
      "##的那": 6018,
      "##孩子": 6019,
      "##怎么": 6020,
      "##文明的": 6021,
      "##不同": 6022,
      "##了一个": 6023,
      "##。我": 6024,
      "##。她": 6025,
      "##还有": 6026,
      "##问。": 6027,
      "##杨卫宁": 6028,
      "##产生": 6029,
      "##，对": 6030,
      "##十厘米": 6031,
      "##太空": 6032,
      "##这么": 6033,
      "##这些": 6034,
      "##声音": 6035,
      "##三个": 6036,
      "##一直": 6037,
      "##真的": 6038,
      "##它们": 6039,
      "##外星": 6040,
      "##天线": 6041,
      "##只有": 6042,
      "##显示": 6043,
      "##，这是": 6044,
      "##。当": 6045,
      "##能够": 6046,
      "##也是": 6047,
      "##政官": 6048,
      "##通过": 6049,
      "##组织": 6050,
      "##来的": 6051,
      "##任何": 6052,
      "##突然": 6053,
      "##正在": 6054,
      "##父亲": 6055,
      "##观测": 6056,
      "##执政官": 6057,
      "##仿佛": 6058,
      "##理论": 6059,
      "##点头": 6060,
      "##这一": 6061,
      "##五厘米": 6062,
      "##计时": 6063,
      "##移十厘米": 6064,
      "##移五厘米": 6065,
      "##工程": 6066,
      "##似乎": 6067,
      "##00": 6068,
      "##眼睛": 6069,
      "##加速": 6070,
      "##成了": 6071,
      "##什么？": 6072,
      "##是在": 6073,
      "##，将": 6074,
      "##，叶文洁": 6075,
      "##，现在": 6076,
      "##数学": 6077,
      "##只是": 6078,
      "##需要": 6079,
      "##结果": 6080,
      "##接收": 6081,
      "##元首": 6082,
      "##的地": 6083,
      "##，像": 6084,
      "##不能": 6085,
      "##不可能": 6086,
      "##发生": 6087,
      "##它的": 6088,
      "##因为": 6089,
      "##力量": 6090,
      "##同时": 6091,
      "##告诉": 6092,
      "##社会": 6093,
      "《三体": 6094,
      "##，有": 6095,
      "##，然后": 6096,
      "##。叶文洁": 6097,
      "##看看": 6098,
      "##展开": 6099,
      "##巨大的": 6100,
      "《三体》": 6101,
      "##一些": 6102,
      "##想象": 6103,
      "##整个": 6104,
      "##许多": 6105,
      "##注意": 6106,
      "##立刻": 6107,
      "##，这个": 6108,
      "##的东西": 6109,
      "##子，": 6110,
      "##不会": 6111,
      "##应该": 6112,
      "##目标": 6113,
      "##点点头": 6114,
      "##的信息": 6115,
      "##地上": 6116,
      "##方向": 6117,
      "##下来": 6118,
      "##其他": 6119,
      "##长长": 6120,
      "##短短": 6121,
      "##玉菲": 6122,
      "##实验": 6123,
      "##中心": 6124,
      "##进入": 6125,
      "##降临": 6126,
      "##显然": 6127,
      "##成的": 6128,
      "##一片": 6129,
      "##字塔": 6130,
      "##，以": 6131,
      "##为了": 6132,
      "##文王": 6133,
      "##她的": 6134,
      "##起来，": 6135,
      "##另一": 6136,
      "##物理学": 6137,
      "##所以": 6138,
      "##想到": 6139,
      "##听到": 6140,
      "##下去": 6141,
      "##出的": 6142,
      "##天文": 6143,
      "##19": 6144,
      "##看到了": 6145,
      "审问": 6146,
      "##是个": 6147,
      "##，使": 6148,
      "##，与": 6149,
      "##你的": 6150,
      "##在一": 6151,
      "##十分": 6152,
      "##金字塔": 6153,
      "##感到": 6154,
      "##复杂": 6155,
      "##结构": 6156,
      "##肯定": 6157,
      "审问者": 6158,
      "##我的": 6159,
      "##，从": 6160,
      "##不到": 6161,
      "##完全": 6162,
      "##倒计时": 6163,
      "##运动": 6164,
      "##丁仪": 6165,
      "##觉得": 6166,
      "##甚至": 6167,
      "##人，": 6168,
      "##几个": 6169,
      "##生命": 6170,
      "##天空": 6171,
      "##成为": 6172,
      "##飞星": 6173,
      "##消失": 6174,
      "##规律": 6175,
      "##乱纪元": 6176,
      "审问者：": 6177,
      "##当然": 6178,
      "##有人": 6179,
      "##人们": 6180,
      "##前的": 6181,
      "##基础": 6182,
      "##来自": 6183,
      "##简单": 6184,
      "##速度": 6185,
      "##历史": 6186,
      "##不可": 6187,
      "##发展": 6188,
      "##状态": 6189,
      "##上去": 6190,
      "##三颗": 6191,
      "##着一": 6192,
      "##思想": 6193,
      "##好像": 6194,
      "##无法": 6195,
      "##申玉菲": 6196,
      "##继续": 6197,
      "##潘寒": 6198,
      "##的话": 6199,
      "##的时": 6200,
      "##的时间": 6201,
      "##，大": 6202,
      "##，如果": 6203,
      "##一下": 6204,
      "##真实": 6205,
      "##那么": 6206,
      "##后的": 6207,
      "##后来": 6208,
      "##汪森": 6209,
      "##由于": 6210,
      "##只能": 6211,
      "##周文王": 6212,
      "##控制": 6213,
      "##判日": 6214,
      "##距离": 6215,
      "##纳米": 6216,
      "##城市": 6217,
      "##，只是": 6218,
      "##精神": 6219,
      "##！！": 6220,
      "##，并": 6221,
      "##，没有": 6222,
      "##始皇": 6223,
      "##在这": 6224,
      "##位置": 6225,
      "##几乎": 6226,
      "##过去": 6227,
      "##材料": 6228,
      "##第一": 6229,
      "##毁灭": 6230,
      "##接触": 6231,
      "##功率": 6232,
      "##，它们": 6233,
      "##判日号": 6234,
      "##的电": 6235,
      "##不要": 6236,
      "##有些": 6237,
      "##文斯": 6238,
      "##很多": 6239,
      "##士兵": 6240,
      "##生活": 6241,
      "##努力": 6242,
      "##小时": 6243,
      "##关系": 6244,
      "##加速器": 6245,
      "##那样": 6246,
      "##年轻": 6247,
      "##数字": 6248,
      "##卫兵": 6249,
      "##内部": 6250,
      "##诺伊": 6251,
      "##首先": 6252,
      "##模型": 6253,
      "##恒纪元": 6254,
      "##降临派": 6255,
      "##，用": 6256,
      "##处于": 6257,
      "##政委": 6258,
      "##变得": 6259,
      "##正常": 6260,
      "##物质": 6261,
      "##刚刚": 6262,
      "##相机": 6263,
      "##之间": 6264,
      "##反射": 6265,
      "##希望": 6266,
      "##太阳的": 6267,
      "##外星文明": 6268,
      "##诺伊曼": 6269,
      "##，每": 6270,
      "##也不": 6271,
      "##前，": 6272,
      "##出一": 6273,
      "##变成": 6274,
      "##变化": 6275,
      "##沉默": 6276,
      "##动，": 6277,
      "##审判日号": 6278,
      "##情况": 6279,
      "##接着": 6280,
      "##粒子": 6281,
      "##渐渐": 6282,
      "##红岸基地": 6283,
      "##的巨": 6284,
      "##的太阳": 6285,
      "##的世界": 6286,
      "##说的": 6287,
      "##。诺伊曼": 6288,
      "##那里": 6289,
      "##红卫兵": 6290,
      "##时代": 6291,
      "##目光": 6292,
      "##斯坦": 6293,
      "##刚才": 6294,
      "##内容": 6295,
      "##之一": 6296,
      "##其实": 6297,
      "##建立": 6298,
      "##第一次": 6299,
      "##史强": 6300,
      "##口口": 6301,
      "##像一": 6302,
      "##学者": 6303,
      "##杨冬": 6304,
      "##虽然": 6305,
      "##什么都": 6306,
      "##，那是": 6307,
      "叶文洁：": 6308,
      "##的光": 6309,
      "##，都": 6310,
      "##设备": 6311,
      "##明白": 6312,
      "##也没有": 6313,
      "##下的": 6314,
      "##要是": 6315,
      "##走到": 6316,
      "##女孩": 6317,
      "##摇头": 6318,
      "##空间": 6319,
      "##清楚": 6320,
      "##，让": 6321,
      "##不过": 6322,
      "##了！": 6323,
      "##作为": 6324,
      "##中。": 6325,
      "##有一个": 6326,
      "##都在": 6327,
      "##看上去": 6328,
      "##雷志": 6329,
      "##地面": 6330,
      "##舰队": 6331,
      "##世纪": 6332,
      "##自然": 6333,
      "##收到": 6334,
      "##11": 6335,
      "##旁边": 6336,
      "##脱水": 6337,
      "##形状": 6338,
      "##认为": 6339,
      "##他们的": 6340,
      "##这样的": 6341,
      "##的-": 6342,
      "##，很": 6343,
      "##，又": 6344,
      "##，一个": 6345,
      "##说话": 6346,
      "##一切": 6347,
      "##确实": 6348,
      "##人。": 6349,
      "##四个": 6350,
      "##完成": 6351,
      "##卫星": 6352,
      "##伟思": 6353,
      "##计划": 6354,
      "##同志": 6355,
      "##意义": 6356,
      "##拯救": 6357,
      "##得到": 6358,
      "##再次": 6359,
      "##成功": 6360,
      "##运河": 6361,
      "##哲泰": 6362,
      "##另外": 6363,
      "##即使": 6364,
      "##三体文明": 6365,
      "##的高": 6366,
      "##了？": 6367,
      "##以前": 6368,
      "##照片": 6369,
      "##伊文斯": 6370,
      "##周围": 6371,
      "##摇摇头": 6372,
      "##胶卷": 6373,
      "##站在": 6374,
      "##边界": 6375,
      "##恒星": 6376,
      "##沐霖": 6377,
      "##挪到": 6378,
      "##，这种": 6379,
      "##科学执政官": 6380,
      "##是什么": 6381,
      "##的一个": 6382,
      "##会议": 6383,
      "##一名": 6384,
      "##一点": 6385,
      "##以后": 6386,
      "##现实": 6387,
      "##作用": 6388,
      "##有什么": 6389,
      "##多的": 6390,
      "##上角": 6391,
      "##知识": 6392,
      "##能量": 6393,
      "##经过": 6394,
      "##下角": 6395,
      "##下来，": 6396,
      "##去。": 6397,
      "##影响": 6398,
      "##教授": 6399,
      "##相当": 6400,
      "##满了": 6401,
      "##侧角": 6402,
      "##指指": 6403,
      "##今天": 6404,
      "##革命": 6405,
      "##，你们": 6406,
      "##，可": 6407,
      "##，要": 6408,
      "##一种": 6409,
      "##开了": 6410,
      "##面，": 6411,
      "##能力": 6412,
      "##坐在": 6413,
      "##大，": 6414,
      "##年前": 6415,
      "##下了": 6416,
      "##缓缓": 6417,
      "##干扰": 6418,
      "##奇怪": 6419,
      "##另一个": 6420,
      "##牛顿": 6421,
      "##普通": 6422,
      "##预测": 6423,
      "##秦始皇": 6424,
      "##三体问题": 6425,
      "##系统的": 6426,
      "##的小": 6427,
      "##？！": 6428,
      "##了解": 6429,
      "##一阵": 6430,
      "##真正": 6431,
      "##没什么": 6432,
      "##于是": 6433,
      "##中的一": 6434,
      "##到达": 6435,
      "##叶哲泰": 6436,
      "##射电": 6437,
      "##雷达": 6438,
      "##雷政委": 6439,
      "##基本": 6440,
      "##妻子": 6441,
      "##吧，": 6442,
      "##吧？": 6443,
      "##起了": 6444,
      "##原子": 6445,
      "##第二": 6446,
      "##漫长的": 6447,
      "##微观": 6448,
      "##盯着": 6449,
      "##，这样": 6450,
      "##的心": 6451,
      "##，您": 6452,
      "##，就是": 6453,
      "##当时": 6454,
      "##确定": 6455,
      "##这次": 6456,
      "##二维": 6457,
      "##上面": 6458,
      "##如何": 6459,
      "##联系": 6460,
      "##到一": 6461,
      "##啊，": 6462,
      "##主义": 6463,
      "##里的": 6464,
      "##来。": 6465,
      "##启动": 6466,
      "##数据": 6467,
      "##就会": 6468,
      "##理想": 6469,
      "##理解": 6470,
      "##好，": 6471,
      "##过程": 6472,
      "##容易": 6473,
      "##环境": 6474,
      "##结束": 6475,
      "##瑞山": 6476,
      "##疯狂": 6477,
      "##阵列": 6478,
      "##升起": 6479,
      "##，他的": 6480,
      "##科学边界": 6481,
      "##人类的": 6482,
      "##监听员": 6483,
      "##背景辐射": 6484,
      "##精确": 6485,
      "##的最": 6486,
      "##，-": 6487,
      "##，比": 6488,
      "##，更": 6489,
      "##，仿佛": 6490,
      "##不知": 6491,
      "##会儿": 6492,
      "##事情": 6493,
      "##。那": 6494,
      "##人员": 6495,
      "##文件": 6496,
      "##熟悉": 6497,
      "##整体": 6498,
      "##政治": 6499,
      "##地看着": 6500,
      "##大小": 6501,
      "##平线": 6502,
      "##使用": 6503,
      "##金属": 6504,
      "##远处": 6505,
      "##远镜": 6506,
      "##就能": 6507,
      "##试验": 6508,
      "##常伟思": 6509,
      "##过了": 6510,
      "##女人": 6511,
      "##专业": 6512,
      "##而已": 6513,
      "##重要": 6514,
      "##重新": 6515,
      "##动的": 6516,
      "##相信": 6517,
      "##机会": 6518,
      "##兴趣": 6519,
      "##两人": 6520,
      "##引力": 6521,
      "##领导": 6522,
      "##介绍": 6523,
      "##维度": 6524,
      "##项目": 6525,
      "##闪烁": 6526,
      "##冯。诺伊曼": 6527,
      "##了一下": 6528,
      "##的一切": 6529,
      "##雷志成": 6530,
      "大史": 6531,
      "##的研究": 6532,
      "##，看到": 6533,
      "##，因为": 6534,
      "##说完": 6535,
      "##以为": 6536,
      "##这是": 6537,
      "##道。": 6538,
      "##看，": 6539,
      "##看了": 6540,
      "##地说。": 6541,
      "##最近": 6542,
      "##直接": 6543,
      "##大量": 6544,
      "##年代": 6545,
      "##数量": 6546,
      "##下面": 6547,
      "##才能": 6548,
      "##出来，": 6549,
      "##伟大的": 6550,
      "##生存": 6551,
      "##要求": 6552,
      "##责任": 6553,
      "##.\"": 6554,
      "##专家": 6555,
      "##追随": 6556,
      "##随着": 6557,
      "##电波": 6558,
      "##频率": 6559,
      "##操作": 6560,
      "##带着": 6561,
      "##望远镜": 6562,
      "##指着": 6563,
      "##叛军": 6564,
      "##句话": 6565,
      "##，这些": 6566,
      "##，这就是": 6567,
      "##宇宙中": 6568,
      "##地球三体": 6569,
      "##的技术": 6570,
      "##说过": 6571,
      "##战争": 6572,
      "##。你": 6573,
      "##一眼": 6574,
      "##在这里": 6575,
      "##多少": 6576,
      "##上校": 6577,
      "##对于": 6578,
      "##很有": 6579,
      "##令人": 6580,
      "##阳光": 6581,
      "##平面": 6582,
      "##好的": 6583,
      "##天体": 6584,
      "##白沐霖": 6585,
      "##东方": 6586,
      "##程度": 6587,
      "##抬头": 6588,
      "##意识": 6589,
      "##得很": 6590,
      "##电话": 6591,
      "##反应": 6592,
      "##国家": 6593,
      "##成员": 6594,
      "##建筑": 6595,
      "##解决": 6596,
      "##学家": 6597,
      "##学术": 6598,
      "##参加": 6599,
      "##软件": 6600,
      "##某种": 6601,
      "##根本": 6602,
      "##纣王": 6603,
      "##永远": 6604,
      "##并没有": 6605,
      "##智慧": 6606,
      "##燃烧": 6607,
      "##必须": 6608,
      "##彻底": 6609,
      "##千万": 6610,
      "##范围": 6611,
      "##世界的": 6612,
      "##宇宙的": 6613,
      "##地球文明": 6614,
      "##出现了": 6615,
      "##这一切": 6616,
      "##工程师": 6617,
      "##的时候": 6618,
      "##追随者": 6619,
      "##子。": 6620,
      "##，还": 6621,
      "##，都是": 6622,
      "##，最后": 6623,
      "##军官": 6624,
      "##。现在": 6625,
      "##一步": 6626,
      "##一起": 6627,
      "##一条": 6628,
      "##为什么": 6629,
      "##全部": 6630,
      "##球体": 6631,
      "##二十": 6632,
      "##面前": 6633,
      "##都不": 6634,
      "##如此": 6635,
      "##想法": 6636,
      "##大家": 6637,
      "##大学": 6638,
      "##四十": 6639,
      "##：1": 6640,
      "##：3": 6641,
      "##200": 6642,
      "##秒钟": 6643,
      "##每个": 6644,
      "##高的": 6645,
      "##表面": 6646,
      "##幽灵": 6647,
      "##夜空": 6648,
      "##程序": 6649,
      "##科幻": 6650,
      "##起身": 6651,
      "##电磁": 6652,
      "##相比": 6653,
      "##构成": 6654,
      "##房间": 6655,
      "##两次": 6656,
      "##两名": 6657,
      "##木星": 6658,
      "##规则": 6659,
      "##巨大": 6660,
      "##巨摆": 6661,
      "##般的": 6662,
      "##转向": 6663,
      "##迅速": 6664,
      "##证实": 6665,
      "##起来。": 6666,
      "##雷达峰": 6667,
      "##是否": 6668,
      "##的波": 6669,
      "##，当": 6670,
      "##不动": 6671,
      "##爆炸": 6672,
      "##-的": 6673,
      "##-，": 6674,
      "##都有": 6675,
      "##统帅": 6676,
      "##很大": 6677,
      "##分子": 6678,
      "##深处": 6679,
      "##见到": 6680,
      "##她们": 6681,
      "##大地": 6682,
      "##三维": 6683,
      "##目前": 6684,
      "##别的": 6685,
      "##出了一": 6686,
      "##意思": 6687,
      "##放到": 6688,
      "##放大": 6689,
      "##原因": 6690,
      "##包括": 6691,
      "##反动": 6692,
      "##星空": 6693,
      "##长时间": 6694,
      "##解释": 6695,
      "##魏成": 6696,
      "##您的": 6697,
      "##本书": 6698,
      "##撞击": 6699,
      "##转身": 6700,
      "##双眼": 6701,
      "##唯一": 6702,
      "##知道，": 6703,
      "##可能是": 6704,
      "##女孩儿": 6705,
      "这是": 6706,
      "##是从": 6707,
      "##的！": 6708,
      "##的问题": 6709,
      "##，似乎": 6710,
      "##了，他": 6711,
      "##一声": 6712,
      "##一定": 6713,
      "##一维": 6714,
      "##里，": 6715,
      "##最初": 6716,
      "##平静": 6717,
      "##别人": 6718,
      "##进化": 6719,
      "##就像": 6720,
      "##试图": 6721,
      "##轻轻": 6722,
      "##高能": 6723,
      "##表现": 6724,
      "##变成了": 6725,
      "##天的": 6726,
      "##恐惧": 6727,
      "##回到": 6728,
      "##同样": 6729,
      "##走进": 6730,
      "##意味": 6731,
      "##物种": 6732,
      "##件事": 6733,
      "##重的": 6734,
      "##观察": 6735,
      "##终于": 6736,
      "##之前": 6737,
      "##更加": 6738,
      "##星星": 6739,
      "##老师": 6740,
      "##绍琳": 6741,
      "##寒冷": 6742,
      "##微波": 6743,
      "##稳定": 6744,
      "##报告": 6745,
      "##兆赫": 6746,
      "##了，你": 6747,
      "##我们的": 6748,
      "##，其中": 6749,
      "##接收到": 6750,
      "##物理学家": 6751,
      "##复杂的": 6752,
      "什么": 6753,
      "元首": 6754,
      "当然": 6755,
      "我们": 6756,
      "##，还有": 6757,
      "##不清": 6758,
      "##了几": 6759,
      "##了……": 6760,
      "##了吗？": 6761,
      "##。这个": 6762,
      "##。我们": 6763,
      "##在大": 6764,
      "##现代": 6765,
      "##中国": 6766,
      "##道：": 6767,
      "##人都": 6768,
      "##存贮": 6769,
      "##地方": 6770,
      "##地平线": 6771,
      "##最终": 6772,
      "##后者": 6773,
      "##仍然": 6774,
      "##：2": 6775,
      "##兵团": 6776,
      "##眼镜": 6777,
      "##恢复": 6778,
      "##身上": 6779,
      "##得多": 6780,
      "##电路": 6781,
      "##门，": 6782,
      "##轨道": 6783,
      "##除了": 6784,
      "##无数": 6785,
      "##无限": 6786,
      "##之外": 6787,
      "##代表": 6788,
      "##沙瑞山": 6789,
      "##兴奋": 6790,
      "##拿起": 6791,
      "##水平": 6792,
      "##黑暗": 6793,
      "##决定": 6794,
      "##镜面": 6795,
      "##形成": 6796,
      "##认识": 6797,
      "##创造": 6798,
      "##至于": 6799,
      "##至少": 6800,
      "##居然": 6801,
      "##新的": 6802,
      "##记录": 6803,
      "##三体时": 6804,
      "##，只有": 6805,
      "##有一种": 6806,
      "##所有的": 6807,
      "##三体世界的": 6808,
      "##的事情": 6809,
      "##的地方": 6810,
      "##注意到": 6811,
      "是的，": 6812,
      "##是不": 6813,
      "##是有": 6814,
      "##的力量": 6815,
      "##，宇宙": 6816,
      "##发送": 6817,
      "##了个": 6818,
      "##他，": 6819,
      "##作战": 6820,
      "##上了": 6821,
      "##上帝": 6822,
      "##都没有": 6823,
      "##能看到": 6824,
      "##很难": 6825,
      "##主要": 6826,
      "##达到": 6827,
      "##里面": 6828,
      "##仍在": 6829,
      "##方案": 6830,
      "##定律": 6831,
      "##核心": 6832,
      "##名字": 6833,
      "##警告": 6834,
      "##生产": 6835,
      "##因斯坦": 6836,
      "##过来": 6837,
      "##负责": 6838,
      "##走出": 6839,
      "##突变": 6840,
      "##正确": 6841,
      "##身体": 6842,
      "##从来": 6843,
      "##建设": 6844,
      "##构成的": 6845,
      "##黑球": 6846,
      "##持续": 6847,
      "##各个": 6848,
      "##受到": 6849,
      "##找到了": 6850,
      "##模糊": 6851,
      "##离开": 6852,
      "##并不": 6853,
      "##证明": 6854,
      "##译解": 6855,
      "##母亲": 6856,
      "##墨子": 6857,
      "##灾难": 6858,
      "##爱因斯坦": 6859,
      "##，但他": 6860,
      "##叶文洁的": 6861,
      "##太阳运行": 6862,
      "##，她的": 6863,
      "##科学家": 6864,
      "##信息的": 6865,
      "##红岸工程": 6866,
      "##拯救派": 6867,
      "##意味着": 6868,
      "##的速度": 6869,
      "##，请": 6870,
      "##，很快": 6871,
      "##，所以": 6872,
      "##，甚至": 6873,
      "##说着": 6874,
      "##。其实": 6875,
      "##球桌": 6876,
      "##都很": 6877,
      "##文革": 6878,
      "##主任": 6879,
      "##看不": 6880,
      "##来越": 6881,
      "##大部分": 6882,
      "##：0": 6883,
      "##去了": 6884,
      "##行动": 6885,
      "##远方": 6886,
      "##故障": 6887,
      "##天边": 6888,
      "##安岭": 6889,
      "##剩下": 6890,
      "##越来越": 6891,
      "##收缩": 6892,
      "##得知": 6893,
      "##小的": 6894,
      "##光速": 6895,
      "##敌人": 6896,
      "##机器": 6897,
      "##兴安岭": 6898,
      "##成果": 6899,
      "##拿马": 6900,
      "##左右": 6901,
      "##建造": 6902,
      "##黑色": 6903,
      "##装具": 6904,
      "##本来": 6905,
      "##接地": 6906,
      "##寂静": 6907,
      "##层次": 6908,
      "##超过": 6909,
      "##摆锤": 6910,
      "##描述": 6911,
      "##准确": 6912,
      "##浸泡": 6913,
      "##停止": 6914,
      "##递给": 6915,
      "##森林": 6916,
      "##欧洲": 6917,
      "##灿烂": 6918,
      "##一个人": 6919,
      "##，我是": 6920,
      "##看到的": 6921,
      "##，那些": 6922,
      "##是一种": 6923,
      "##，一切": 6924,
      "##两个质子": 6925,
      "##最后一": 6926,
      "##，其实": 6927,
      "##，而且": 6928,
      "##产生的": 6929,
      "##太空中的": 6930,
      "##幽灵倒计时": 6931,
      "##，把": 6932,
      "##，再": 6933,
      "##，太阳": 6934,
      "##战士": 6935,
      "##事儿": 6936,
      "##事实": 6937,
      "##。与": 6938,
      "##。如果": 6939,
      "##在内": 6940,
      "##笑着": 6941,
      "##-.": 6942,
      "##有关": 6943,
      "##二百": 6944,
      "##那一": 6945,
      "##叶文": 6946,
      "##也许": 6947,
      "##分钟": 6948,
      "##时的": 6949,
      "##似的": 6950,
      "##令汪淼": 6951,
      "##惊奇": 6952,
      "##三十": 6953,
      "##将军": 6954,
      "##年，": 6955,
      "##色彩": 6956,
      "##：我": 6957,
      "##：在": 6958,
      "##着的": 6959,
      "##就要": 6960,
      "##出去": 6961,
      "##外面": 6962,
      "##好。": 6963,
      "##活动": 6964,
      "##考虑": 6965,
      "##女性": 6966,
      "##通讯": 6967,
      "##用于": 6968,
      "##气层": 6969,
      "##质量": 6970,
      "##右边": 6971,
      "##无意": 6972,
      "##其中": 6973,
      "##国内": 6974,
      "##条件": 6975,
      "##左边": 6976,
      "##学生": 6977,
      "##虫子": 6978,
      "##丈夫": 6979,
      "##宏观": 6980,
      "##杨母": 6981,
      "##具有": 6982,
      "##透明": 6983,
      "##掌握": 6984,
      "##办公": 6985,
      "##模拟": 6986,
      "##沿着": 6987,
      "##哪儿": 6988,
      "##幸运": 6989,
      "##覆盖": 6990,
      "##v装具": 6991,
      "##宗教": 6992,
      "##，那个": 6993,
      "##，不过": 6994,
      "##一样，": 6995,
      "##。当然": 6996,
      "##数学模型": 6997,
      "##长长、": 6998,
      "##196": 6999,
      "右上角": 7000,
      "右下角": 7001,
      "右侧角": 7002,
      "左上角": 7003,
      "左下角": 7004,
      "左侧角": 7005,
      "##强烈": 7006,
      "##的日": 7007,
      "##的手": 7008,
      "##的背景": 7009,
      "##的距离": 7010,
      "##，说": 7011,
      "##，为": 7012,
      "##，没": 7013,
      "##，直": 7014,
      "##，智子": 7015,
      "##，即使": 7016,
      "##火海": 7017,
      "##不断": 7018,
      "##。他们": 7019,
      "##一号": 7020,
      "##样子": 7021,
      "##他。": 7022,
      "##这时": 7023,
      "##中央": 7024,
      "##个人": 7025,
      "##上。": 7026,
      "##上一": 7027,
      "##上移十厘米": 7028,
      "##上移五厘米": 7029,
      "##面积": 7030,
      "##还没有": 7031,
      "##级的": 7032,
      "##到现在": 7033,
      "##对我": 7034,
      "##对汪淼": 7035,
      "##已被": 7036,
      "##分别": 7037,
      "##分之一": 7038,
      "##地问。": 7039,
      "##初步": 7040,
      "##后面": 7041,
      "##震惊": 7042,
      "##方法": 7043,
      "##别墅": 7044,
      "##0兆赫": 7045,
      "##下去，": 7046,
      "##下移十厘米": 7047,
      "##下移五厘米": 7048,
      "##着一个": 7049,
      "##常规": 7050,
      "##表情": 7051,
      "##眼前": 7052,
      "##警官": 7053,
      "##天，": 7054,
      "##感应": 7055,
      "##低声": 7056,
      "##过的": 7057,
      "##者的": 7058,
      "##重大": 7059,
      "##重复": 7060,
      "##组合": 7061,
      "##右移十厘米": 7062,
      "##右移五厘米": 7063,
      "##拍摄": 7064,
      "##让她": 7065,
      "##更多": 7066,
      "##严寒": 7067,
      "##巴拿马": 7068,
      "##尺度": 7069,
      "##（注": 7070,
      "##长老": 7071,
      "##左移十厘米": 7072,
      "##左移五厘米": 7073,
      "##特别": 7074,
      "##黑白": 7075,
      "##边，": 7076,
      "##清晰": 7077,
      "##两根": 7078,
      "##美国": 7079,
      "##默默": 7080,
      "##雪茄": 7081,
      "##本质": 7082,
      "##死亡": 7083,
      "##转动": 7084,
      "##做出": 7085,
      "##著名": 7086,
      "##总是": 7087,
      "##等待": 7088,
      "##交流": 7089,
      "##资料": 7090,
      "##晨光": 7091,
      "##仰望": 7092,
      "##博士": 7093,
      "##仔细": 7094,
      "##曲线": 7095,
      "##的人们": 7096,
      "##的人类": 7097,
      "##地球人": 7098,
      "##色的小球挪到": 7099,
      "##色的方块挪到": 7100,
      "##，它的": 7101,
      "##，而是": 7102,
      "##感觉到": 7103,
      "##的电磁": 7104,
      "##斯坦顿": 7105,
      "你们": 7106,
      "##神迹": 7107,
      "##是最": 7108,
      "##是不是": 7109,
      "##是为了": 7110,
      "##的感觉": 7111,
      "##的眼睛": 7112,
      "##，已经": 7113,
      "##，由于": 7114,
      "##说着，": 7115,
      "##？汪淼": 7116,
      "##军事": 7117,
      "##。大史": 7118,
      "##。然后": 7119,
      "##一天": 7120,
      "##一只": 7121,
      "##一颗": 7122,
      "##一般": 7123,
      "##在那个": 7124,
      "##可见": 7125,
      "##实际": 7126,
      "##有了": 7127,
      "##个三体时": 7128,
      "##上次": 7129,
      "##那种": 7130,
      "##联合": 7131,
      "##文化": 7132,
      "##明显": 7133,
      "##也在": 7134,
      "##分之": 7135,
      "##分析": 7136,
      "##时刻": 7137,
      "##大声": 7138,
      "##大地上": 7139,
      "##目的": 7140,
      "##年的": 7141,
      "##脸上": 7142,
      "##定位": 7143,
      "##数码": 7144,
      "##着。": 7145,
      "##几十": 7146,
      "##就在": 7147,
      "##就行": 7148,
      "##就没有": 7149,
      "##思考": 7150,
      "##生的": 7151,
      "##问：": 7152,
      "##过去，": 7153,
      "##命令": 7154,
      "##命运": 7155,
      "##同事": 7156,
      "##同步": 7157,
      "##正好": 7158,
      "##复活": 7159,
      "##起，": 7160,
      "##头发": 7161,
      "##随意": 7162,
      "##选择": 7163,
      "##光年": 7164,
      "##避免": 7165,
      "##点儿": 7166,
      "##空中": 7167,
      "##相对": 7168,
      "##相互": 7169,
      "##性的": 7170,
      "##无力": 7171,
      "##诡异": 7172,
      "##其中的": 7173,
      "##严重": 7174,
      "##围绕": 7175,
      "##丝的": 7176,
      "##打开": 7177,
      "##信号": 7178,
      "##领域": 7179,
      "##t;": 7180,
      "##印象": 7181,
      "##本身": 7182,
      "##导致": 7183,
      "##接近": 7184,
      "##巨型": 7185,
      "##固定": 7186,
      "##流逝": 7187,
      "##穿过": 7188,
      "##吃惊": 7189,
      "##图形": 7190,
      "##困难": 7191,
      "##风中": 7192,
      "##智能": 7193,
      "##轰鸣": 7194,
      "##钢柱": 7195,
      "##哪里": 7196,
      "##曙光": 7197,
      "##敏感": 7198,
      "##陷入": 7199,
      "##亮度": 7200,
      "##讨论": 7201,
      "##武器": 7202,
      "##遥远": 7203,
      "##熄灭": 7204,
      "##记者": 7205,
      "##太阳系": 7206,
      "##了一些": 7207,
      "##了一下，": 7208,
      "##后，汪淼": 7209,
      "##人类社会": 7210,
      "##，他们的": 7211,
      "##监听系统": 7212,
      "##它们的": 7213,
      "##简单的": 7214,
      "##三颗太阳": 7215,
      "##纳米材料": 7216,
      "##大量的": 7217,
      "##（注：": 7218,
      "如果": 7219,
      "红岸": 7220,
      "##体的": 7221,
      "##是由": 7222,
      "##的微": 7223,
      "##的那个": 7224,
      "##的声音": 7225,
      "##的结果": 7226,
      "##，却": 7227,
      "##，三体": 7228,
      "##，自己": 7229,
      "##，红岸": 7230,
      "##，基地": 7231,
      "##，当然": 7232,
      "##，好像": 7233,
      "##，看上去": 7234,
      "##不了": 7235,
      "##不在": 7236,
      "##不太": 7237,
      "##说明": 7238,
      "##说出": 7239,
      "##了好": 7240,
      "##了，但": 7241,
      "##。元首": 7242,
      "##。所以": 7243,
      "##。丁仪": 7244,
      "##。周文王": 7245,
      "##一位": 7246,
      "##一会儿": 7247,
      "##开的": 7248,
      "##玩意": 7249,
      "##部的": 7250,
      "##部件": 7251,
      "##这话": 7252,
      "##十几": 7253,
      "##面对": 7254,
      "##那是": 7255,
      "##那位": 7256,
      "##啊！": 7257,
      "##对象": 7258,
      "##经历": 7259,
      "##红光": 7260,
      "##攻击": 7261,
      "##主控": 7262,
      "##看来": 7263,
      "##看不到": 7264,
      "##时候": 7265,
      "##最大的": 7266,
      "##见过": 7267,
      "##令她": 7268,
      "##她那": 7269,
      "##大殿": 7270,
      "##大兴安岭": 7271,
      "##五十": 7272,
      "##后，他": 7273,
      "##方的": 7274,
      "##方式": 7275,
      "##下午": 7276,
      "##下面的": 7277,
      "##去的": 7278,
      "##几何": 7279,
      "##落下": 7280,
      "##常常": 7281,
      "##理由": 7282,
      "##间隔": 7283,
      "##探索": 7284,
      "##要做": 7285,
      "##同时，": 7286,
      "##87": 7287,
      "##身影": 7288,
      "##移动": 7289,
      "##小叶": 7290,
      "##给我": 7291,
      "##充满了": 7292,
      "##北约": 7293,
      "##包含": 7294,
      "##相同": 7295,
      "##更多的": 7296,
      "##台球桌": 7297,
      "##星系": 7298,
      "##星际": 7299,
      "##「略": 7300,
      "##边缘": 7301,
      "##紧张": 7302,
      "##两颗": 7303,
      "##哲学": 7304,
      "##细节": 7305,
      "##露出": 7306,
      "##衣服": 7307,
      "##登录": 7308,
      "##板上": 7309,
      "##破坏": 7310,
      "##屏幕": 7311,
      "##增加": 7312,
      "##波段": 7313,
      "##急剧": 7314,
      "##公司": 7315,
      "##暗室": 7316,
      "##巨轮": 7317,
      "##穿着": 7318,
      "##透过": 7319,
      "##皇帝": 7320,
      "##黎明": 7321,
      "##画面": 7322,
      "##双手": 7323,
      "##图像": 7324,
      "##休息": 7325,
      "##昨天": 7326,
      "##关于": 7327,
      "##绳索": 7328,
      "##升机": 7329,
      "##危险": 7330,
      "##批判": 7331,
      "##均匀": 7332,
      "##37": 7333,
      "##聪明": 7334,
      "##阶段": 7335,
      "##聚会": 7336,
      "##三体文明的": 7337,
      "##什么。": 7338,
      "##的一次": 7339,
      "##地球的": 7340,
      "##信息。": 7341,
      "##。这时，": 7342,
      "##发射源": 7343,
      "##，只能": 7344,
      "##，不管": 7345,
      "##，就像": 7346,
      "##存在的": 7347,
      "##告诉你": 7348,
      "##杨冬的": 7349,
      "##射电天文": 7350,
      "##办公室": 7351,
      "##玩意儿": 7352,
      "##「略」": 7353,
      "太阳": 7354,
      "杨卫宁": 7355,
      "##神秘": 7356,
      "##万年": 7357,
      "##的火": 7358,
      "##的，这": 7359,
      "##的三体": 7360,
      "##的宇宙": 7361,
      "##，上": 7362,
      "##，能": 7363,
      "##，看": 7364,
      "##，人类": 7365,
      "##，不是": 7366,
      "##，显然": 7367,
      "##，虽然": 7368,
      "##不由": 7369,
      "##不安": 7370,
      "##不远处": 7371,
      "##尽头": 7372,
      "##说，我们": 7373,
      "##了起来，": 7374,
      "##儿。": 7375,
      "##。而": 7376,
      "##一张": 7377,
      "##在三体世界": 7378,
      "##梦中": 7379,
      "##话。": 7380,
      "##笑。": 7381,
      "##这事": 7382,
      "##有的": 7383,
      "##十五": 7384,
      "##面上": 7385,
      "##还在": 7386,
      "##还要": 7387,
      "##都没": 7388,
      "##都被": 7389,
      "##道，": 7390,
      "##人列": 7391,
      "##应用": 7392,
      "##啊。": 7393,
      "##很不": 7394,
      "##也没": 7395,
      "##也有": 7396,
      "##也就": 7397,
      "##看出": 7398,
      "##政府": 7399,
      "##里面的": 7400,
      "##地说": 7401,
      "##地上，": 7402,
      "##地说，": 7403,
      "##地点点头": 7404,
      "##最多": 7405,
      "##绝望": 7406,
      "##底片": 7407,
      "##来了": 7408,
      "##来到": 7409,
      "##大多": 7410,
      "##大厦": 7411,
      "##三名": 7412,
      "##三日": 7413,
      "##三千万": 7414,
      "##后，她": 7415,
      "##方形": 7416,
      "##毕竟": 7417,
      "##马上": 7418,
      "##行，": 7419,
      "##行为": 7420,
      "##进来": 7421,
      "##进去": 7422,
      "##就这样": 7423,
      "##每天": 7424,
      "##落到": 7425,
      "##高，": 7426,
      "##汪教授": 7427,
      "##思维": 7428,
      "##外层": 7429,
      "##跟着": 7430,
      "##变形": 7431,
      "##天才": 7432,
      "##间的": 7433,
      "##恐怖": 7434,
      "##探测": 7435,
      "##安全": 7436,
      "##难以": 7437,
      "##难道": 7438,
      "##过来，": 7439,
      "##西洋": 7440,
      "##走上": 7441,
      "##视角": 7442,
      "##突破": 7443,
      "##只要": 7444,
      "##小型": 7445,
      "##给你": 7446,
      "##10": 7447,
      "##课题": 7448,
      "##电子": 7449,
      "##电脑": 7450,
      "##终端": 7451,
      "##监视": 7452,
      "##相反": 7453,
      "##机构": 7454,
      "##让我": 7455,
      "##之处": 7456,
      "##胶片": 7457,
      "##谈话": 7458,
      "##显现": 7459,
      "##运算": 7460,
      "##手中": 7461,
      "##建成": 7462,
      "##黑色的": 7463,
      "##灯光": 7464,
      "##灭绝": 7465,
      "##吸引": 7466,
      "##美好的": 7467,
      "##信封": 7468,
      "##细的": 7469,
      "##迷惑": 7470,
      "##改变": 7471,
      "##截留": 7472,
      "##消灭": 7473,
      "##、11": 7474,
      "##制止": 7475,
      "##制造": 7476,
      "##化为": 7477,
      "##找到": 7478,
      "##温暖": 7479,
      "##躯体": 7480,
      "##适应": 7481,
      "##寻找": 7482,
      "##总工程师": 7483,
      "##早已": 7484,
      "##早就": 7485,
      "##膨胀": 7486,
      "##关键": 7487,
      "##冷静": 7488,
      "##纪念": 7489,
      "##客厅": 7490,
      "##亮的": 7491,
      "##群星": 7492,
      "##保证": 7493,
      "##瞬间": 7494,
      "##qu": 7495,
      "##淹没": 7496,
      "##，这时": 7497,
      "##，这次": 7498,
      "##没有任何": 7499,
      "##，但这": 7500,
      "##的，就是": 7501,
      "##世界上": 7502,
      "##发现了": 7503,
      "##，也许": 7504,
      "##出来的": 7505,
      "##质子的": 7506,
      "##监听站": 7507,
      "##太空中": 7508,
      "##父亲的": 7509,
      "##展开的": 7510,
      "《三体》游戏": 7511,
      "##下来。": 7512,
      "##同志们": 7513,
      "##电磁辐射": 7514,
      "##作战中心": 7515,
      "##主控室": 7516,
      "丁仪": 7517,
      "其实": 7518,
      "现在": 7519,
      "这个": 7520,
      "那你": 7521,
      "##是说": 7522,
      "##的？": 7523,
      "##的文明": 7524,
      "##的行星": 7525,
      "##的思想": 7526,
      "##，想": 7527,
      "##，向": 7528,
      "##，连": 7529,
      "##，总": 7530,
      "##，竟": 7531,
      "##，可以": 7532,
      "##，发现": 7533,
      "##，开始": 7534,
      "##，大史": 7535,
      "##，于是": 7536,
      "##，后者": 7537,
      "##火焰": 7538,
      "##不上": 7539,
      "##你说": 7540,
      "##会场": 7541,
      "##爆发": 7542,
      "##了我": 7543,
      "##了半": 7544,
      "##了两": 7545,
      "##了许多": 7546,
      "##当地": 7547,
      "##军人": 7548,
      "##一台": 7549,
      "##开关": 7550,
      "##在那": 7551,
      "##真是": 7552,
      "##部队": 7553,
      "##-一": 7554,
      "##有可能": 7555,
      "##多次": 7556,
      "##上方": 7557,
      "##上的一": 7558,
      "##面临": 7559,
      "##都要": 7560,
      "##那名": 7561,
      "##设计": 7562,
      "##声。": 7563,
      "##对人类": 7564,
      "##很高": 7565,
      "##红色": 7566,
      "##红色的": 7567,
      "##主板": 7568,
      "##悬崖": 7569,
      "##前面": 7570,
      "##地问": 7571,
      "##地说：": 7572,
      "##直升机": 7573,
      "##似的。": 7574,
      "##大臣": 7575,
      "##四百": 7576,
      "##四下": 7577,
      "##百分之": 7578,
      "##使得": 7579,
      "##方阵": 7580,
      "##号文明": 7581,
      "##位，": 7582,
      "##核弹": 7583,
      "##倒是": 7584,
      "##向前": 7585,
      "##远远": 7586,
      "##调查": 7587,
      "##生物": 7588,
      "##白尼": 7589,
      "##艰难": 7590,
      "##吧！": 7591,
      "##教皇": 7592,
      "##检查": 7593,
      "##只是一": 7594,
      "##气态": 7595,
      "##得到了": 7596,
      "##放下": 7597,
      "##组成": 7598,
      "##与会": 7599,
      "##光斑": 7600,
      "##频段": 7601,
      "##空气": 7602,
      "##动和": 7603,
      "##门口": 7604,
      "##提供": 7605,
      "##让汪淼": 7606,
      "##加快": 7607,
      "##之后": 7608,
      "##怪异": 7609,
      "##再也没有": 7610,
      "##台上": 7611,
      "##日子": 7612,
      "##长长的": 7613,
      "##第三": 7614,
      "##打击": 7615,
      "##像是": 7616,
      "##ot;": 7617,
      "##树桩": 7618,
      "##附近": 7619,
      "##效应": 7620,
      "##接过": 7621,
      "##波形": 7622,
      "##背叛": 7623,
      "##具体": 7624,
      "##超级": 7625,
      "##值得": 7626,
      "##值班": 7627,
      "##闪电": 7628,
      "##投入": 7629,
      "##利用": 7630,
      "##哥白尼": 7631,
      "##寻常": 7632,
      "##摆动": 7633,
      "##八十": 7634,
      "##语言": 7635,
      "##属于": 7636,
      "##纲领": 7637,
      "##往事": 7638,
      "##纷纷": 7639,
      "##讲述": 7640,
      "##帝国": 7641,
      "##输入": 7642,
      "##举起": 7643,
      "##记载": 7644,
      "##厚的": 7645,
      "##庞大的": 7646,
      "##&qu": 7647,
      "##诞生": 7648,
      "##，这里": 7649,
      "##，但在": 7650,
      "##世界，": 7651,
      "##知道。": 7652,
      "##，那么": 7653,
      "##，那时": 7654,
      "##可能性": 7655,
      "##宇宙背景辐射": 7656,
      "##，她们": 7657,
      "##地球文明的": 7658,
      "##可以肯定": 7659,
      "##说，同时": 7660,
      "##。这种": 7661,
      "##。这时": 7662,
      "##。这些": 7663,
      "##发射功率": 7664,
      "##存在着": 7665,
      "##的那样": 7666,
      "##怎么样": 7667,
      "##实验室": 7668,
      "##在一起": 7669,
      "##生命的": 7670,
      "##消失了，": 7671,
      "##三颗飞星": 7672,
      "##不要回答": 7673,
      "##年轻人": 7674,
      "##降临派的": 7675,
      "##三体问题的": 7676,
      "##，比如": 7677,
      "##建设兵团": 7678,
      "##无意中": 7679,
      "##长长、短短": 7680,
      "三体": 7681,
      "冯。诺伊曼": 7682,
      "斯坦": 7683,
      "橙色的小球": 7684,
      "橙色的方块": 7685,
      "汪森": 7686,
      "申玉菲": 7687,
      "紫色的小球": 7688,
      "紫色的方块": 7689,
      "红色的小球": 7690,
      "红色的方块": 7691,
      "绿色的小球": 7692,
      "绿色的方块": 7693,
      "蓝色的小球": 7694,
      "蓝色的方块": 7695,
      "青色的小球": 7696,
      "青色的方块": 7697,
      "魏成": 7698,
      "黄色的小球": 7699,
      "黄色的方块": 7700,
      "##精致": 7701,
      "##我也": 7702,
      "##强度": 7703,
      "##的动": 7704,
      "##的长": 7705,
      "##的所有": 7706,
      "##的孩子": 7707,
      "##的天空": 7708,
      "##的规律": 7709,
      "##的真实": 7710,
      "##的位置": 7711,
      "##的学者": 7712,
      "##的形状": 7713,
      "##子上": 7714,
      "##，或": 7715,
      "##，飞": 7716,
      "##，世界": 7717,
      "##，还是": 7718,
      "##，能够": 7719,
      "##，除了": 7720,
      "##不想": 7721,
      "##不定": 7722,
      "##不起": 7723,
      "##不得": 7724,
      "##不存在": 7725,
      "##不规则": 7726,
      "##你在": 7727,
      "##说，他": 7728,
      "##？我": 7729,
      "##了这": 7730,
      "##战略": 7731,
      "##。它": 7732,
      "##。）": 7733,
      "##。雷政委": 7734,
      "##一人": 7735,
      "##为止": 7736,
      "##在地上": 7737,
      "##可是": 7738,
      "##可怕": 7739,
      "##玩家": 7740,
      "##实现": 7741,
      "##处理": 7742,
      "##这儿": 7743,
      "##心里": 7744,
      "##球，": 7745,
      "##有几": 7746,
      "##有效": 7747,
      "##有三个": 7748,
      "##上有": 7749,
      "##面前的": 7750,
      "##还没": 7751,
      "##级别": 7752,
      "##都能": 7753,
      "##道德": 7754,
      "##如同": 7755,
      "##人马": 7756,
      "##人民": 7757,
      "##明天": 7758,
      "##到底": 7759,
      "##到这个": 7760,
      "##对我们": 7761,
      "##经验": 7762,
      "##很大的": 7763,
      "##也能": 7764,
      "##峰顶": 7765,
      "##悬浮": 7766,
      "##惊恐": 7767,
      "##她。": 7768,
      "##来找": 7769,
      "##大。": 7770,
      "##大概": 7771,
      "##大厅": 7772,
      "##三人": 7773,
      "##目前的": 7774,
      "##后果": 7775,
      "##角度": 7776,
      "##方程": 7777,
      "##：l": 7778,
      "##：5": 7779,
      "##；而": 7780,
      "##；第": 7781,
      "##0.": 7782,
      "##9号": 7783,
      "##75": 7784,
      "##完整": 7785,
      "##下一": 7786,
      "##家里": 7787,
      "##家庭": 7788,
      "##进一步": 7789,
      "##才发现": 7790,
      "##几天": 7791,
      "##就可以": 7792,
      "##外围": 7793,
      "##外面的": 7794,
      "##表达": 7795,
      "##感受": 7796,
      "##感兴趣": 7797,
      "##自杀": 7798,
      "##过。": 7799,
      "##剩下的": 7800,
      "##走了": 7801,
      "##医生": 7802,
      "##视野": 7803,
      "##收到了": 7804,
      "##失去": 7805,
      "##失败": 7806,
      "##正是": 7807,
      "##管理": 7808,
      "##只手": 7809,
      "##只剩下": 7810,
      "##书长": 7811,
      "##怎样": 7812,
      "##小说": 7813,
      "##小时，": 7814,
      "##比我": 7815,
      "##比如": 7816,
      "##充分": 7817,
      "##连队": 7818,
      "##算法": 7819,
      "##原来": 7820,
      "##与外星文明": 7821,
      "##量子": 7822,
      "##光芒": 7823,
      "##终极": 7824,
      "##单摆": 7825,
      "##单元": 7826,
      "##机械": 7827,
      "##无关": 7828,
      "##加入": 7829,
      "##其他的": 7830,
      "##识别": 7831,
      "##手中的": 7832,
      "##海洋": 7833,
      "##第一个": 7834,
      "##车，": 7835,
      "##打算": 7836,
      "##入2": 7837,
      "##像一个": 7838,
      "##信任": 7839,
      "##极其": 7840,
      "##re": 7841,
      "##示意": 7842,
      "##林子": 7843,
      "##各种": 7844,
      "##工业": 7845,
      "##、长长": 7846,
      "##规模": 7847,
      "##论文": 7848,
      "##维修": 7849,
      "##仪器": 7850,
      "##游客": 7851,
      "##接受": 7852,
      "##笼罩": 7853,
      "##凝固": 7854,
      "##指令": 7855,
      "##利略": 7856,
      "##迹象": 7857,
      "##期待": 7858,
      "##住了": 7859,
      "##借助": 7860,
      "##准备": 7861,
      "##混乱": 7862,
      "##九十": 7863,
      "##占据": 7864,
      "##招呼": 7865,
      "##呼吸": 7866,
      "##麻木": 7867,
      "##银河": 7868,
      "##必要": 7869,
      "##3k": 7870,
      "##春天": 7871,
      "##丽的": 7872,
      "##丽华": 7873,
      "##咱们": 7874,
      "##遇到": 7875,
      "##犯罪": 7876,
      "##肉眼": 7877,
      "##秘书长": 7878,
      "##崩溃": 7879,
      "##广阔": 7880,
      "##符号": 7881,
      "##搜索": 7882,
      "##岩石": 7883,
      "##汪淼的": 7884,
      "##，但汪淼": 7885,
      "##三体舰队": 7886,
      "##三体叛军": 7887,
      "##什么呢？": 7888,
      "##了。他": 7889,
      "##了一条": 7890,
      "##的一角": 7891,
      "##的人都": 7892,
      "##后，叶文洁": 7893,
      "##这样一个": 7894,
      "##红岸系统": 7895,
      "##发射部": 7896,
      "##，只要": 7897,
      "##技术的": 7898,
      "##技术上": 7899,
      "##技术突变": 7900,
      "##有一些": 7901,
      "##进行的": 7902,
      "##进行了": 7903,
      "##物理专业": 7904,
      "##的那一": 7905,
      "##一直在": 7906,
      "##组织的": 7907,
      "##告诉我": 7908,
      "##整个宇宙": 7909,
      "##其他人": 7910,
      "##另一种": 7911,
      "##纳米丝": 7912,
      "##太阳的运行": 7913,
      "##什么都没有": 7914,
      "##最近的": 7915,
      "##2000兆赫": 7916,
      "##的波形": 7917,
      "##接地线": 7918,
      "##巴拿马运河": 7919,
      "##特别是": 7920,
      "##默默地": 7921,
      "##的电磁辐射": 7922,
      "##军事执政官": 7923,
      "##可见光": 7924,
      "##379号": 7925,
      "##人列计算机": 7926,
      "##纪念碑": 7927,
      "斯坦顿": 7928,
      "hre": 7929,
      "伊文斯": 7930,
      "叶文": 7931,
      "地球": 7932,
      "是的": 7933,
      "杨母": 7934,
      "秦始皇": 7935,
      "第二": 7936,
      "##精度": 7937,
      "##是对": 7938,
      "##是我们": 7939,
      "##是什么？": 7940,
      "##的几": 7941,
      "##的白": 7942,
      "##的教": 7943,
      "##的烟": 7944,
      "##的运行": 7945,
      "##的基础": 7946,
      "##的士兵": 7947,
      "##的目光": 7948,
      "##的内容": 7949,
      "##的引力": 7950,
      "##，真": 7951,
      "##，最": 7952,
      "##，别": 7953,
      "##，被": 7954,
      "##，两": 7955,
      "##，可能": 7956,
      "##，应该": 7957,
      "##，倒计时": 7958,
      "##，后来": 7959,
      "##，汪森": 7960,
      "##，上面": 7961,
      "##不多": 7962,
      "##不行": 7963,
      "##不久": 7964,
      "##不再": 7965,
      "##你能": 7966,
      "##说不": 7967,
      "##说出了": 7968,
      "##了他": 7969,
      "##了些": 7970,
      "##当年": 7971,
      "##军队": 7972,
      "##儿子": 7973,
      "##。-": 7974,
      "##。从": 7975,
      "##。杨卫宁": 7976,
      "##。由于": 7977,
      "##。对于": 7978,
      "##和你": 7979,
      "##和汪淼": 7980,
      "##一把": 7981,
      "##一段": 7982,
      "##一根": 7983,
      "##在他": 7984,
      "##部门": 7985,
      "##实在": 7986,
      "##状闪电": 7987,
      "##这人": 7988,
      "##这点": 7989,
      "##中间": 7990,
      "##中，他": 7991,
      "##心的": 7992,
      "##球状闪电": 7993,
      "##有多": 7994,
      "##有时": 7995,
      "##有过": 7996,
      "##多长时间": 7997,
      "##上级": 7998,
      "##上出现": 7999,
      "##都会": 8000,
      "##人在": 8001,
      "##人群": 8002,
      "##想到了": 8003,
      "##听说过": 8004,
      "##到来": 8005,
      "##啊，我": 8006,
      "##对着": 8007,
      "##对叶文洁": 8008,
      "##已是": 8009,
      "##很容易": 8010,
      "##也会": 8011,
      "##也都": 8012,
      "##也很": 8013,
      "##也就是": 8014,
      "##主要是": 8015,
      "##地，": 8016,
      "##地笑": 8017,
      "##静静": 8018,
      "##直线": 8019,
      "##深层": 8020,
      "##初始": 8021,
      "##喜欢": 8022,
      "##来说": 8023,
      "##来得": 8024,
      "##来到了": 8025,
      "##大鼎": 8026,
      "##大气层": 8027,
      "##航天": 8028,
      "##标志": 8029,
      "##使他": 8030,
      "##使自己": 8031,
      "##青铜": 8032,
      "##类似": 8033,
      "##2.": 8034,
      "##l9": 8035,
      "##f=": 8036,
      "##家屯": 8037,
      "##齐家屯": 8038,
      "##向太阳": 8039,
      "##行的": 8040,
      "##飘浮": 8041,
      "##几年": 8042,
      "##出手": 8043,
      "##轻声": 8044,
      "##表明": 8045,
      "##粗壮": 8046,
      "##警方": 8047,
      "##界的": 8048,
      "##莫测": 8049,
      "##因此": 8050,
      "##半人马": 8051,
      "##白色": 8052,
      "##白色的": 8053,
      "##间距": 8054,
      "##自身": 8055,
      "##躺在": 8056,
      "##回事": 8057,
      "##回去": 8058,
      "##回到了": 8059,
      "##夜里": 8060,
      "##走向": 8061,
      "##月亮": 8062,
      "##女儿": 8063,
      "##身于": 8064,
      "##身后": 8065,
      "##身边": 8066,
      "##用。": 8067,
      "##从未": 8068,
      "##抬起": 8069,
      "##呢。": 8070,
      "##而言": 8071,
      "##物体": 8072,
      "##比较": 8073,
      "##充满": 8074,
      "##随便": 8075,
      "##放弃": 8076,
      "##重点": 8077,
      "##山脉": 8078,
      "##空荡": 8079,
      "##摄影": 8080,
      "##无所": 8081,
      "##无规律": 8082,
      "##让你": 8083,
      "##让人": 8084,
      "##让我们": 8085,
      "##之中。": 8086,
      "##更高": 8087,
      "##沙漏": 8088,
      "##反而": 8089,
      "##古典": 8090,
      "##日出": 8091,
      "##成电路": 8092,
      "##拿着": 8093,
      "##海中": 8094,
      "##轮文明": 8095,
      "##飞船": 8096,
      "##丝毫": 8097,
      "##口号": 8098,
      "##口气": 8099,
      "##老人": 8100,
      "##学习": 8101,
      "##隐藏": 8102,
      "##细看": 8103,
      "##切割": 8104,
      "##改造": 8105,
      "##服务": 8106,
      "##望去，": 8107,
      "##喊道：": 8108,
      "##、l": 8109,
      "##维持": 8110,
      "##某些": 8111,
      "##找不到": 8112,
      "##背后": 8113,
      "##弱的": 8114,
      "##集成电路": 8115,
      "##穿透": 8116,
      "##功能": 8117,
      "##仅仅": 8118,
      "##莱卡": 8119,
      "##离开了": 8120,
      "##>《": 8121,
      "##并非": 8122,
      "##皮带": 8123,
      "##苍穹": 8124,
      "##等于": 8125,
      "##错误": 8126,
      "##昏暗": 8127,
      "##停机": 8128,
      "##拥有": 8129,
      "##愿望": 8130,
      "##乱的": 8131,
      "##哨兵": 8132,
      "##侦察": 8133,
      "##抽象": 8134,
      "##保护": 8135,
      "##'>《": 8136,
      "##it": 8137,
      "##id": 8138,
      "##m'>《": 8139,
      "##荒凉": 8140,
      "##凌晨": 8141,
      "##凌干扰": 8142,
      "##训练": 8143,
      "##伽利略": 8144,
      "##逐渐": 8145,
      "##签字": 8146,
      "##戴着": 8147,
      "##狭窄": 8148,
      "##噩梦": 8149,
      "##幸存": 8150,
      "##记得": 8151,
      "##孤独": 8152,
      "##汗淼": 8153,
      "##屋里": 8154,
      "##谢谢": 8155,
      "##靶标": 8156,
      "##没有想到": 8157,
      "##三体人": 8158,
      "##什么的": 8159,
      "##了，她": 8160,
      "##了。汪淼": 8161,
      "##的，那": 8162,
      "##了一眼": 8163,
      "##了一切": 8164,
      "##的一根": 8165,
      "##的一部分": 8166,
      "##这个世界": 8167,
      "##这个问题": 8168,
      "##的人生": 8169,
      "##吗？汪淼": 8170,
      "##可以看到": 8171,
      "##时间，": 8172,
      "##，我们就": 8173,
      "##红岸的": 8174,
      "##是一位": 8175,
      "##发射系统": 8176,
      "##，也就是": 8177,
      "##很快发现": 8178,
      "##一样的": 8179,
      "##。但这": 8180,
      "##的事。": 8181,
      "##不同的": 8182,
      "##，对于": 8183,
      "##这么多": 8184,
      "##外星文明的": 8185,
      "##天线在": 8186,
      "##，有时": 8187,
      "##点点头，": 8188,
      "##显然是": 8189,
      "##天文馆": 8190,
      "##成为一个": 8191,
      "##基础科学": 8192,
      "##状态，": 8193,
      "##的时刻": 8194,
      "##纳米中心": 8195,
      "##反射镜": 8196,
      "##口口口": 8197,
      "##摇摇头：": 8198,
      "##是什么样子": 8199,
      "##奇怪的": 8200,
      "##射电望远镜": 8201,
      "##微观粒子": 8202,
      "##熟悉的": 8203,
      "##相比，": 8204,
      "##高能加速器": 8205,
      "##从来没有": 8206,
      "##不断地": 8207,
      "##清晰地": 8208,
      "##斯坦顿上校": 8209,
      "##联合国": 8210,
      "##数码相机": 8211,
      "##同步轨道": 8212,
      "##相对论": 8213,
      "##轰鸣声": 8214,
      "##万年历": 8215,
      "href=": 8216,
      "href='": 8217,
      "他们": 8218,
      "史强": 8219,
      "周文王": 8220,
      "我是": 8221,
      "是啊，": 8222,
      "沙瑞山": 8223,
      "潘寒": 8224,
      "白沐霖": 8225,
      "监听": 8226,
      "那么": 8227,
      "##体系": 8228,
      "##！他": 8229,
      "##是谁": 8230,
      "##是想": 8231,
      "##是用": 8232,
      "##是的，": 8233,
      "##强的": 8234,
      "##强光": 8235,
      "##的这": 8236,
      "##的天": 8237,
      "##的水": 8238,
      "##的超": 8239,
      "##的科学": 8240,
      "##的计算": 8241,
      "##的部分": 8242,
      "##的方向": 8243,
      "##的运动": 8244,
      "##的第一": 8245,
      "##的生活": 8246,
      "##的机会": 8247,
      "##的阳光": 8248,
      "##的程度": 8249,
      "##的尽头": 8250,
      "##，叫": 8251,
      "##，手": 8252,
      "##，所有": 8253,
      "##，看着": 8254,
      "##，任何": 8255,
      "##，为了": 8256,
      "##火炬": 8257,
      "##不好": 8258,
      "##不解": 8259,
      "##不敢": 8260,
      "##不止": 8261,
      "##不一样": 8262,
      "##尽量": 8263,
      "##说什么？": 8264,
      "##？他": 8265,
      "##发动": 8266,
      "##了，这": 8267,
      "##了，我": 8268,
      "##军方": 8269,
      "##事。": 8270,
      "##。一": 8271,
      "##。不过": 8272,
      "##。科学执政官": 8273,
      "##和平": 8274,
      "##一块": 8275,
      "##一大": 8276,
      "##一半": 8277,
      "##一动": 8278,
      "##一旦": 8279,
      "##为你": 8280,
      "##为一": 8281,
      "##为期": 8282,
      "##为此": 8283,
      "##他将": 8284,
      "##他妈": 8285,
      "##在她": 8286,
      "##在我的": 8287,
      "##现象": 8288,
      "##实时": 8289,
      "##这场": 8290,
      "##这两": 8291,
      "##-们": 8292,
      "##-了": 8293,
      "##-个": 8294,
      "##中子": 8295,
      "##中有": 8296,
      "##中最": 8297,
      "##中断": 8298,
      "##中学": 8299,
      "##心。": 8300,
      "##心中": 8301,
      "##球壳": 8302,
      "##有意": 8303,
      "##十六": 8304,
      "##十几个": 8305,
      "##多么": 8306,
      "##多德": 8307,
      "##上是": 8308,
      "##上百": 8309,
      "##上升": 8310,
      "##上面的": 8311,
      "##那人": 8312,
      "##那条": 8313,
      "##那两个": 8314,
      "##联想到": 8315,
      "##人说": 8316,
      "##所在": 8317,
      "##想起": 8318,
      "##对她": 8319,
      "##对准": 8320,
      "##射线": 8321,
      "##很深": 8322,
      "##很远": 8323,
      "##很小": 8324,
      "##很简单": 8325,
      "##很长时间": 8326,
      "##也不会": 8327,
      "##分布": 8328,
      "##它。": 8329,
      "##主机": 8330,
      "##看清": 8331,
      "##政策": 8332,
      "##时，他": 8333,
      "##里。": 8334,
      "##基座": 8335,
      "##地址": 8336,
      "##最高": 8337,
      "##静止": 8338,
      "##绝对": 8339,
      "##深刻": 8340,
      "##令他": 8341,
      "##她，": 8342,
      "##来源": 8343,
      "##来了。": 8344,
      "##来说，": 8345,
      "##大于": 8346,
      "##大洞": 8347,
      "##大楼": 8348,
      "##大爆炸": 8349,
      "##航行": 8350,
      "##将被": 8351,
      "##将成为": 8352,
      "##五个": 8353,
      "##五次": 8354,
      "##后来的": 8355,
      "##脸色": 8356,
      "##平息": 8357,
      "##平台": 8358,
      "##角落": 8359,
      "##：你": 8360,
      "##：这": 8361,
      "##0：0": 8362,
      "##定的": 8363,
      "##位于": 8364,
      "##完毕": 8365,
      "##下。": 8366,
      "##下来的": 8367,
      "##下一步": 8368,
      "##行。": 8369,
      "##进了": 8370,
      "##才是": 8371,
      "##着她": 8372,
      "##着头": 8373,
      "##几次": 8374,
      "##几秒钟": 8375,
      "##出一个": 8376,
      "##落叶": 8377,
      "##缓慢": 8378,
      "##士多德": 8379,
      "##高级": 8380,
      "##思议": 8381,
      "##外界": 8382,
      "##外国": 8383,
      "##好好": 8384,
      "##警察": 8385,
      "##察觉": 8386,
      "##偶然": 8387,
      "##界面": 8388,
      "##变幻": 8389,
      "##半空": 8390,
      "##自我": 8391,
      "##力。": 8392,
      "##安排": 8393,
      "##回了": 8394,
      "##回忆": 8395,
      "##过滤": 8396,
      "##过一个": 8397,
      "##晚上": 8398,
      "##影子": 8399,
      "##收集": 8400,
      "##失去了": 8401,
      "##科院": 8402,
      "##起的": 8403,
      "##身上的": 8404,
      "##只有一": 8405,
      "##书网": 8406,
      "##意外": 8407,
      "##得更": 8408,
      "##小心": 8409,
      "##小小的": 8410,
      "##18": 8411,
      "##1.": 8412,
      "##周期": 8413,
      "##者，": 8414,
      "##放在": 8415,
      "##原理": 8416,
      "##与此": 8417,
      "##传递": 8418,
      "##光中": 8419,
      "##干部": 8420,
      "##监测": 8421,
      "##简短": 8422,
      "##单纯": 8423,
      "##空旷": 8424,
      "##动。": 8425,
      "##配合": 8426,
      "##提要": 8427,
      "##相关": 8428,
      "##拍完": 8429,
      "##无线": 8430,
      "##让他": 8431,
      "##让他们": 8432,
      "##异样": 8433,
      "##异常": 8434,
      "##违反": 8435,
      "##反正": 8436,
      "##反映": 8437,
      "##国防": 8438,
      "##国际": 8439,
      "##颗飞星": 8440,
      "##成一": 8441,
      "##成一个": 8442,
      "##船体": 8443,
      "##长剑": 8444,
      "##建议": 8445,
      "##未来": 8446,
      "##男人": 8447,
      "##黑，": 8448,
      "##黑箱": 8449,
      "##窗口": 8450,
      "##冰冰": 8451,
      "##快速": 8452,
      "##洞中": 8453,
      "##藏书网": 8454,
      "##细丝": 8455,
      "##网友": 8456,
      "##极端": 8457,
      "##装置": 8458,
      "##情绪": 8459,
      "##疲惫": 8460,
      "##带来": 8461,
      "##参数": 8462,
      "##挥手": 8463,
      "##登上": 8464,
      "##树林": 8465,
      "##树皮": 8466,
      "##曾经": 8467,
      "##扩大": 8468,
      "##食物": 8469,
      "##消息": 8470,
      "##工具": 8471,
      "##宏原子": 8472,
      "##否则": 8473,
      "##巨月": 8474,
      "##巨石": 8475,
      "##集中": 8476,
      "##路上": 8477,
      "##石油": 8478,
      "##具备": 8479,
      "##镜头": 8480,
      "##超自然": 8481,
      "##做出的": 8482,
      "##形态": 8483,
      "##足够": 8484,
      "##舞蹈": 8485,
      "##限于": 8486,
      "##阴影": 8487,
      "##早晨": 8488,
      "##等等": 8489,
      "##觉察": 8490,
      "##既然": 8491,
      "##停地": 8492,
      "##权威": 8493,
      "##酷热": 8494,
      "##魔术": 8495,
      "##魔鬼": 8496,
      "##陌生": 8497,
      "##资格": 8498,
      "##扭头": 8499,
      "##麻烦": 8500,
      "##抽出": 8501,
      "##保持": 8502,
      "##3.": 8503,
      "##武斗": 8504,
      "##武装": 8505,
      "##篝火": 8506,
      "##晶莹": 8507,
      "##戴上": 8508,
      "##柔和": 8509,
      "##即将": 8510,
      "##秘密": 8511,
      "##倾向": 8512,
      "##延续": 8513,
      "##旗帜": 8514,
      "##阶层": 8515,
      "##颤抖": 8516,
      "##记忆": 8517,
      "##弯曲": 8518,
      "##撕裂": 8519,
      "##顺着": 8520,
      "##抛弃": 8521,
      "##伸手": 8522,
      "##陛下，": 8523,
      "##嘛。": 8524,
      "##聚集": 8525,
      "##拒绝": 8526,
      "##抚摸": 8527,
      "##蝗虫": 8528,
      "##艘巨轮": 8529,
      "##颜色": 8530,
      "##摧毁": 8531,
      "##噪声": 8532,
      "##ｉb": 8533,
      "##犹豫": 8534,
      "##一个个": 8535,
      "##一个质子": 8536,
      "##汪淼问": 8537,
      "##，我的": 8538,
      "##，我想": 8539,
      "##，但她": 8540,
      "##三体行星": 8541,
      "##三体运动": 8542,
      "##什么东西": 8543,
      "##的，在": 8544,
      "##的，她": 8545,
      "##知道了": 8546,
      "##知道这": 8547,
      "##了一会儿": 8548,
      "##的一种": 8549,
      "##，那里": 8550,
      "##可能的": 8551,
      "##……我": 8552,
      "##……汪淼": 8553,
      "##，她就": 8554,
      "##地球上": 8555,
      "##可以在": 8556,
      "##时，汪淼": 8557,
      "##时间的": 8558,
      "##人类文明": 8559,
      "##红岸系统的": 8560,
      "##说：我": 8561,
      "##说，然后": 8562,
      "##是一片": 8563,
      "##系统，": 8564,
      "##出现的": 8565,
      "##出现了一个": 8566,
      "##基地的": 8567,
      "##存在，": 8568,
      "##出来。": 8569,
      "##质子平面": 8570,
      "##的事儿": 8571,
      "##不知道。": 8572,
      "##怎么办": 8573,
      "##产生了": 8574,
      "##只有一个": 8575,
      "##显示器": 8576,
      "##观测数据": 8577,
      "##数学家": 8578,
      "##看看。": 8579,
      "##，以至于": 8580,
      "##十分钟": 8581,
      "##基础理论": 8582,
      "##不可思议": 8583,
      "##城市的": 8584,
      "##过去了，": 8585,
      "##，它们的": 8586,
      "##年轻的": 8587,
      "##内部的": 8588,
      "##，每个": 8589,
      "##的巨大": 8590,
      "##的光芒": 8591,
      "##雷志成的": 8592,
      "##地面上": 8593,
      "##舰队的": 8594,
      "##世纪的": 8595,
      "##真正的": 8596,
      "##到达地球": 8597,
      "##疯狂的": 8598,
      "##精确地": 8599,
      "##而已。": 8600,
      "##重要的": 8601,
      "##电话，": 8602,
      "##反应黑箱": 8603,
      "##学术权威": 8604,
      "##燃烧的": 8605,
      "##范围内": 8606,
      "##二十多": 8607,
      "##科幻小说": 8608,
      "##巨摆纪念碑": 8609,
      "##寒冷的": 8610,
      "##了几秒钟": 8611,
      "##恢复了": 8612,
      "##无限的": 8613,
      "##译解系统": 8614,
      "##，一切都": 8615,
      "##，智子一号": 8616,
      "##感应服": 8617,
      "##死亡之": 8618,
      "##仰望着": 8619,
      "##色的小球挪到右边": 8620,
      "##色的小球挪到左边": 8621,
      "##色的方块挪到右边": 8622,
      "##色的方块挪到左边": 8623,
      "##接近光速": 8624,
      "##大兴安岭的": 8625,
      "##几何体": 8626,
      "##三名士兵": 8627,
      "##四百五十": 8628,
      "##八十年代": 8629,
      "##&quot;": 8630,
      "##不要回答！！": 8631,
      "##识别度": 8632,
      "##银河系": 8633,
      "##深层结构": 8634,
      "##半人马座": 8635,
      "##无线电": 8636,
      "倒计时": 8637,
      "帮我": 8638,
      "常伟思": 8639,
      "怎么": 8640,
      "智子": 8641,
      "汪教授": 8642,
      "沉默": 8643,
      "没有": 8644,
      "目标": 8645,
      "谢谢": 8646,
      "这么": 8647,
      "那个": 8648,
      "##精英": 8649,
      "##神经": 8650,
      "##万个": 8651,
      "##！我": 8652,
      "##我，": 8653,
      "##我会": 8654,
      "##是以": 8655,
      "##是：": 8656,
      "##是……": 8657,
      "##是这么": 8658,
      "##是不可能": 8659,
      "##的笑": 8660,
      "##的山": 8661,
      "##的顶": 8662,
      "##的老": 8663,
      "##的热": 8664,
      "##的黄": 8665,
      "##的《": 8666,
      "##的职": 8667,
      "##的理论": 8668,
      "##的数学": 8669,
      "##的社会": 8670,
      "##的变化": 8671,
      "##的设备": 8672,
      "##的作用": 8673,
      "##的基本": 8674,
      "##的原因": 8675,
      "##的春天": 8676,
      "##子孙": 8677,
      "##，全": 8678,
      "##，谁": 8679,
      "##，如": 8680,
      "##，三": 8681,
      "##，才": 8682,
      "##，天": 8683,
      "##，由": 8684,
      "##，同": 8685,
      "##，据": 8686,
      "##，无": 8687,
      "##，日": 8688,
      "##，取": 8689,
      "##，立刻": 8690,
      "##，目标": 8691,
      "##，看到了": 8692,
      "##，人们": 8693,
      "##，几乎": 8694,
      "##，另外": 8695,
      "##，两人": 8696,
      "##，构成": 8697,
      "##，包括": 8698,
      "##，特别是": 8699,
      "##火烧": 8700,
      "##不为": 8701,
      "##不-": 8702,
      "##不时": 8703,
      "##不出": 8704,
      "##不用": 8705,
      "##不足": 8706,
      "##不及": 8707,
      "##不堪": 8708,
      "##你对": 8709,
      "##说，我": 8710,
      "##说什么": 8711,
      "##会的": 8712,
      "##会有": 8713,
      "##会被": 8714,
      "##？叶文洁": 8715,
      "##发明": 8716,
      "##发着": 8717,
      "##了的": 8718,
      "##了-": 8719,
      "##了起来": 8720,
      "##队长": 8721,
      "##事业": 8722,
      "##。不": 8723,
      "##。那个": 8724,
      "##。那些": 8725,
      "##。潘寒": 8726,
      "##。后来": 8727,
      "##。虽然": 8728,
      "##。牛顿": 8729,
      "##。冯。诺伊曼": 8730,
      "##。说完": 8731,
      "##和一": 8732,
      "##和其他": 8733,
      "##一笑": 8734,
      "##一时": 8735,
      "##一百": 8736,
      "##一生": 8737,
      "##一件": 8738,
      "##一句": 8739,
      "##一部分": 8740,
      "##样子。": 8741,
      "##开发": 8742,
      "##以上": 8743,
      "##以后的": 8744,
      "##为一个": 8745,
      "##为基础": 8746,
      "##他把": 8747,
      "##在我": 8748,
      "##在三": 8749,
      "##在《": 8750,
      "##在太阳": 8751,
      "##在这个": 8752,
      "##在他们": 8753,
      "##在那里": 8754,
      "##真诚": 8755,
      "##现出": 8756,
      "##作家": 8757,
      "##中科院": 8758,
      "##全人类": 8759,
      "##全反射": 8760,
      "##有个": 8761,
      "##有所": 8762,
      "##有两个": 8763,
      "##有很大": 8764,
      "##二号": 8765,
      "##十多": 8766,
      "##十一维": 8767,
      "##多了。": 8768,
      "##上都": 8769,
      "##还不": 8770,
      "##那张": 8771,
      "##人洞": 8772,
      "##想知道": 8773,
      "##想起了": 8774,
      "##文章": 8775,
      "##明确": 8776,
      "##明亮": 8777,
      "##听说": 8778,
      "##听到了": 8779,
      "##到一个": 8780,
      "##声，": 8781,
      "##对你": 8782,
      "##对其": 8783,
      "##对此": 8784,
      "##很少": 8785,
      "##也被": 8786,
      "##也不是": 8787,
      "##红色的小球": 8788,
      "##红色的方块": 8789,
      "##它是": 8790,
      "##看法": 8791,
      "##看去": 8792,
      "##看过": 8793,
      "##看去，": 8794,
      "##法国": 8795,
      "##坐下，": 8796,
      "##地对": 8797,
      "##地将": 8798,
      "##地打": 8799,
      "##地上的": 8800,
      "##直到": 8801,
      "##乎乎": 8802,
      "##深渊": 8803,
      "##欢呼": 8804,
      "##欢迎": 8805,
      "##来没有": 8806,
      "##大大": 8807,
      "##目睹": 8808,
      "##目眩": 8809,
      "##四光年": 8810,
      "##五百": 8811,
      "##年后": 8812,
      "##年口": 8813,
      "##仍是": 8814,
      "##平原": 8815,
      "##平淡": 8816,
      "##使命": 8817,
      "##使汪淼": 8818,
      "##青色的小球": 8819,
      "##青色的方块": 8820,
      "##方面": 8821,
      "##方面的": 8822,
      "##号和": 8823,
      "##7.": 8824,
      "##定了": 8825,
      "##完了，": 8826,
      "##下方": 8827,
      "##家伙": 8828,
      "##向地球": 8829,
      "##去找": 8830,
      "##去做": 8831,
      "##进步": 8832,
      "##进展": 8833,
      "##才华": 8834,
      "##着那": 8835,
      "##着自己": 8836,
      "##几张": 8837,
      "##每次": 8838,
      "##慢慢": 8839,
      "##名的": 8840,
      "##轻易": 8841,
      "##把它": 8842,
      "##调试": 8843,
      "##外壳": 8844,
      "##眼中": 8845,
      "##好几个": 8846,
      "##世主": 8847,
      "##幻想": 8848,
      "##因素": 8849,
      "##半球": 8850,
      "##感光": 8851,
      "##感情": 8852,
      "##自动": 8853,
      "##低头": 8854,
      "##低维": 8855,
      "##沉重的": 8856,
      "##照耀": 8857,
      "##夜班": 8858,
      "##夜幕": 8859,
      "##要想": 8860,
      "##同意": 8861,
      "##派别": 8862,
      "##..": 8863,
      "##走了，": 8864,
      "##走了。": 8865,
      "##程代表": 8866,
      "##月口": 8867,
      "##教堂": 8868,
      "##检修": 8869,
      "##正方形": 8870,
      "##科研": 8871,
      "##复印": 8872,
      "##起伏": 8873,
      "##身份": 8874,
      "##只想": 8875,
      "##请你": 8876,
      "##从事": 8877,
      "##头。": 8878,
      "##头晕": 8879,
      "##气息": 8880,
      "##气候": 8881,
      "##救世主": 8882,
      "##称为": 8883,
      "##得了": 8884,
      "##得太": 8885,
      "##物面": 8886,
      "##物专家": 8887,
      "##给了": 8888,
      "##给他": 8889,
      "##尊敬": 8890,
      "##连续": 8891,
      "##连接": 8892,
      "##冲出": 8893,
      "##放松": 8894,
      "##承担": 8895,
      "##与他": 8896,
      "##与科学边界": 8897,
      "##干仓": 8898,
      "##简洁": 8899,
      "##单位": 8900,
      "##空白": 8901,
      "##动物": 8902,
      "##包裹": 8903,
      "##合成": 8904,
      "##轨迹": 8905,
      "##蓝色的小球": 8906,
      "##蓝色的方块": 8907,
      "##相继": 8908,
      "##机的": 8909,
      "##机，": 8910,
      "##加上": 8911,
      "##加载": 8912,
      "##之中": 8913,
      "##之后，": 8914,
      "##异己": 8915,
      "##结局": 8916,
      "##代码": 8917,
      "##代替": 8918,
      "##显得": 8919,
      "##台的": 8920,
      "##日的": 8921,
      "##颗星": 8922,
      "##颗太阳": 8923,
      "##成熟": 8924,
      "##成两": 8925,
      "##线，": 8926,
      "##紫色的小球": 8927,
      "##紫色的方块": 8928,
      "##河流": 8929,
      "##船闸": 8930,
      "##海量": 8931,
      "##），": 8932,
      "##飞机": 8933,
      "##飞刃": 8934,
      "##特殊": 8935,
      "##第三个": 8936,
      "##构图": 8937,
      "##解密": 8938,
      "##密密": 8939,
      "##短暂": 8940,
      "##短的时间": 8941,
      "##赶紧": 8942,
      "##男红卫兵": 8943,
      "##黑的": 8944,
      "##黑夜": 8945,
      "##窗外": 8946,
      "##打印": 8947,
      "##站起来，": 8948,
      "##边的": 8949,
      "##紧急": 8950,
      "##张：1": 8951,
      "##场主": 8952,
      "##封信": 8953,
      "##入1": 8954,
      "##口，": 8955,
      "##口年口": 8956,
      "##洞门": 8957,
      "##扫了一眼": 8958,
      "##两岸": 8959,
      "##两年": 8960,
      "##两天": 8961,
      "##两部分": 8962,
      "##引起": 8963,
      "##美的": 8964,
      "##隐约": 8965,
      "##凑近": 8966,
      "##桌上的": 8967,
      "##杂志": 8968,
      "##望的": 8969,
      "##ti": 8970,
      "##官员": 8971,
      "##挥动": 8972,
      "##积分": 8973,
      "##砍伐": 8974,
      "##朝歌": 8975,
      "##各位": 8976,
      "##绿色": 8977,
      "##绿色的小球": 8978,
      "##绿色的方块": 8979,
      "##宏伟": 8980,
      "##受到了": 8981,
      "##维护": 8982,
      "##漫长": 8983,
      "##虚弱": 8984,
      "##导师": 8985,
      "##波动": 8986,
      "##公里": 8987,
      "##死了。": 8988,
      "##巨人": 8989,
      "##指挥": 8990,
      "##首都": 8991,
      "##首长": 8992,
      "##阈值": 8993,
      "##仅凭": 8994,
      "##转移": 8995,
      "##转换": 8996,
      "##做到": 8997,
      "##形象": 8998,
      "##预料": 8999,
      "##离奇": 9000,
      "##扔到": 9001,
      "##图景": 9002,
      "##永恒": 9003,
      "##限制": 9004,
      "##恶劣": 9005,
      "##并不是": 9006,
      "##弥漫": 9007,
      "##元件": 9008,
      "##风中的": 9009,
      "##懒得": 9010,
      "##叠加": 9011,
      "##黄色的小球": 9012,
      "##黄色的方块": 9013,
      "##团团": 9014,
      "##推开": 9015,
      "##串数字": 9016,
      "##睁开": 9017,
      "##钢铁": 9018,
      "##关注": 9019,
      "##共产": 9020,
      "##宣布": 9021,
      "##竟然": 9022,
      "##愿意": 9023,
      "##升到": 9024,
      "##co": 9025,
      "##cp": 9026,
      "##贡献": 9027,
      "##残酷": 9028,
      "##报》": 9029,
      "##杀死": 9030,
      "##阅读": 9031,
      "##郑重": 9032,
      "##忘记": 9033,
      "##银色的": 9034,
      "##kb": 9035,
      "##冬冬": 9036,
      "##必然": 9037,
      "##保密": 9038,
      "##保佑": 9039,
      "##/i": 9040,
      "##遇到了": 9041,
      "##剧烈": 9042,
      "##惩罚": 9043,
      "##退休": 9044,
      "##减速": 9045,
      "##母星": 9046,
      "##仰头": 9047,
      "##输出": 9048,
      "##嫌疑": 9049,
      "##an": 9050,
      "##尘埃": 9051,
      "##阻力": 9052,
      "##阻止": 9053,
      "##威胁": 9054,
      "##姓名": 9055,
      "##携带": 9056,
      "##末日": 9057,
      "##爱情": 9058,
      "##抛物面": 9059,
      "##欲望": 9060,
      "##凭借": 9061,
      "##箱子": 9062,
      "##眸子": 9063,
      "##惨死": 9064,
      "##暂时": 9065,
      "##采取": 9066,
      "##庄严": 9067,
      "##宫殿": 9068,
      "##辈子": 9069,
      "##夕阳": 9070,
      "##云层": 9071,
      "##橙色的小球": 9072,
      "##橙色的方块": 9073,
      "##妹妹": 9074,
      "##丰富": 9075,
      "##欺骗": 9076,
      "##薄片": 9077,
      "##垄断": 9078,
      "##，这就": 9079,
      "##，这不是": 9080,
      "##没有什么": 9081,
      "##什么时候": 9082,
      "##了。这": 9083,
      "##了。大史": 9084,
      "##叶文洁，": 9085,
      "##知道那": 9086,
      "##了一种": 9087,
      "##看到它": 9088,
      "##看到过": 9089,
      "##的一名": 9090,
      "##的一只": 9091,
      "##，在这": 9092,
      "##，在这个": 9093,
      "##的。在": 9094,
      "##这个游戏": 9095,
      "##我们的世界": 9096,
      "##，那人": 9097,
      "##，那是一": 9098,
      "##的人群": 9099,
      "##的人都是": 9100,
      "##宇宙间": 9101,
      "##宇宙中的": 9102,
      "##，你就": 9103,
      "##，你知道": 9104,
      "##地球上的": 9105,
      "##科学和": 9106,
      "##人类历史": 9107,
      "##这样，": 9108,
      "##这样的人": 9109,
      "##，我们的": 9110,
      "##研究生": 9111,
      "##那个方向": 9112,
      "##是一次": 9113,
      "##问题，": 9114,
      "##问题。": 9115,
      "##问题：": 9116,
      "##。这次": 9117,
      "##。这就是": 9118,
      "##发射系统的": 9119,
      "##，一名": 9120,
      "##出现，": 9121,
      "##，不知": 9122,
      "##，也是": 9123,
      "##的大地": 9124,
      "##你们的": 9125,
      "##所有人": 9126,
      "##所有人的": 9127,
      "##出来的。": 9128,
      "##发出的": 9129,
      "##长的时间": 9130,
      "##的那种": 9131,
      "##怎么会": 9132,
      "##需要的": 9133,
      "##的地狱": 9134,
      "##的地平线": 9135,
      "##告诉他": 9136,
      "##，有些": 9137,
      "##展开成": 9138,
      "##巨大的金属": 9139,
      "##想象的": 9140,
      "##，这个世界": 9141,
      "##短短长长、短短": 9142,
      "##实验和": 9143,
      "##另一位": 9144,
      "##天文观测": 9145,
      "##199": 9146,
      "##完全不同": 9147,
      "##消失了。": 9148,
      "##简单地": 9149,
      "##无法想象": 9150,
      "##一下子": 9151,
      "##只能在": 9152,
      "##控制室": 9153,
      "##的电波": 9154,
      "##物质深层结构": 9155,
      "##之间的": 9156,
      "##，每次": 9157,
      "##变成了一": 9158,
      "##接着说：": 9159,
      "##口口口口": 9160,
      "##像一只": 9161,
      "叶文洁：我": 9162,
      "##空间的": 9163,
      "##空间中": 9164,
      "##，让我": 9165,
      "##不过是": 9166,
      "##收到的": 9167,
      "##再次登录": 9168,
      "##的高能": 9169,
      "##的高度": 9170,
      "##摇摇头。": 9171,
      "##恒星的": 9172,
      "##有什么关系": 9173,
      "##知识分子": 9174,
      "##二维展开": 9175,
      "##主义者": 9176,
      "##启动了": 9177,
      "##结束了，": 9178,
      "##的最终": 9179,
      "##句话：": 9180,
      "##地球三体运动": 9181,
      "##意识到": 9182,
      "##解决三体问题的": 9183,
      "##大家都": 9184,
      "##房间里": 9185,
      "##巨摆的": 9186,
      "##的问题。": 9187,
      "##：27": 9188,
      "##的地方。": 9189,
      "##证明了": 9190,
      "##太阳运行的规律": 9191,
      "##接地电": 9192,
      "##掌握了": 9193,
      "##196口年口": 9194,
      "##强烈的": 9195,
      "##，直到": 9196,
      "##两根钢柱": 9197,
      "##杨冬的母亲": 9198,
      "##在三体世界中": 9199,
      "##大多数": 9200,
      "##、1187": 9201,
      "##艰难地": 9202,
      "##气态层": 9203,
      "##、长长短短长长、短短": 9204,
      "##期待着": 9205,
      "叶文治": 9206,
      "##、ll": 9207,
      "##过滤嘴": 9208,
      "##怎么办？": 9209,
      "##月口日": 9210,
      "##共产主义": 9211,
      "##cpu": 9212,
      "##/im'>《": 9213,
      "##196口年口月口日": 9214,
      "不是": 9215,
      "不要": 9216,
      "为什么？": 9217,
      "于是": 9218,
      "人类": 9219,
      "你在": 9220,
      "停下来": 9221,
      "叶老师": 9222,
      "回到": 9223,
      "墨子": 9224,
      "我知道": 9225,
      "教授": 9226,
      "有人": 9227,
      "系统": 9228,
      "还是": 9229,
      "这样": 9230,
      "这些": 9231,
      "首先": 9232,
      "##！这": 9233,
      "##！一名": 9234,
      "##我说": 9235,
      "##我能": 9236,
      "##我就": 9237,
      "##我觉得": 9238,
      "##是没有": 9239,
      "##是真实": 9240,
      "##是那么": 9241,
      "##的主": 9242,
      "##的目": 9243,
      "##的女": 9244,
      "##的内": 9245,
      "##的蓝": 9246,
      "##的沙": 9247,
      "##的反": 9248,
      "##的星": 9249,
      "##的村": 9250,
      "##的总": 9251,
      "##的草": 9252,
      "##的湖": 9253,
      "##的吗？": 9254,
      "##的发射": 9255,
      "##的关系": 9256,
      "##的胶卷": 9257,
      "##的了解": 9258,
      "##的环境": 9259,
      "##的学术": 9260,
      "##的面积": 9261,
      "##的表情": 9262,
      "##的红光": 9263,
      "##的后果": 9264,
      "##，出": 9265,
      "##，好": 9266,
      "##，因": 9267,
      "##，问": 9268,
      "##，长": 9269,
      "##，水": 9270,
      "##，老": 9271,
      "##，三体世界": 9272,
      "##，计算机": 9273,
      "##，感觉": 9274,
      "##，怎么": 9275,
      "##，三个": 9276,
      "##，肯定": 9277,
      "##，申玉菲": 9278,
      "##，渐渐": 9279,
      "##，刚才": 9280,
      "##，科学执政官": 9281,
      "##，参加": 9282,
      "##，转身": 9283,
      "##，试图": 9284,
      "##，变成了": 9285,
      "##，终于": 9286,
      "##，至少": 9287,
      "##，居然": 9288,
      "##，拯救派": 9289,
      "##，天边": 9290,
      "##，到现在": 9291,
      "##火柱": 9292,
      "##火刑": 9293,
      "##不绝": 9294,
      "##不见": 9295,
      "##不屑": 9296,
      "##不少": 9297,
      "##不适": 9298,
      "##不下去": 9299,
      "##不明白": 9300,
      "##不均匀": 9301,
      "##不停地": 9302,
      "##你要": 9303,
      "##说我": 9304,
      "##说是": 9305,
      "##说这": 9306,
      "##说，但": 9307,
      "##说，你": 9308,
      "##说，他们": 9309,
      "##会上": 9310,
      "##会将": 9311,
      "##？这": 9312,
      "##？那": 9313,
      "##？大史": 9314,
      "##？元首": 9315,
      "##发出了": 9316,
      "##了三": 9317,
      "##了：": 9318,
      "##了近": 9319,
      "##了指": 9320,
      "##了，我们": 9321,
      "##了自己的": 9322,
      "##了申玉菲": 9323,
      "##了下来，": 9324,
      "##战国": 9325,
      "##军装": 9326,
      "##队列": 9327,
      "##事，": 9328,
      "##儿，": 9329,
      "##。二": 9330,
      "##。最": 9331,
      "##。为了": 9332,
      "##。即使": 9333,
      "##。伊文斯": 9334,
      "##。一名": 9335,
      "##。秦始皇": 9336,
      "##和他": 9337,
      "##和大": 9338,
      "##和一个": 9339,
      "##和孩子": 9340,
      "##和杨卫宁": 9341,
      "##和牛顿": 9342,
      "##和雷志成": 9343,
      "##一处": 9344,
      "##一年": 9345,
      "##一脸": 9346,
      "##一排": 9347,
      "##一堆": 9348,
      "##一座": 9349,
      "##一遍": 9350,
      "##一群": 9351,
      "##一千": 9352,
      "##一下，": 9353,
      "##一般的": 9354,
      "##开着": 9355,
      "##以来": 9356,
      "##以下": 9357,
      "##以后，": 9358,
      "##以前的": 9359,
      "##为背景": 9360,
      "##他在": 9361,
      "##他对": 9362,
      "##在对": 9363,
      "##在五": 9364,
      "##在西": 9365,
      "##在胸": 9366,
      "##在政治": 9367,
      "##话题": 9368,
      "##没人": 9369,
      "##没想到": 9370,
      "##笑，": 9371,
      "##这号": 9372,
      "##这份": 9373,
      "##这本书": 9374,
      "##这件事": 9375,
      "##-是": 9376,
      "##-到": 9377,
      "##-时": 9378,
      "##-来": 9379,
      "##作者": 9380,
      "##中又": 9381,
      "##中毁灭": 9382,
      "##中世纪": 9383,
      "##心灵": 9384,
      "##心不在": 9385,
      "##全球": 9386,
      "##全面": 9387,
      "##全身": 9388,
      "##有三": 9389,
      "##有力": 9390,
      "##有很多": 9391,
      "##十万": 9392,
      "##十字": 9393,
      "##多，": 9394,
      "##多个": 9395,
      "##多远": 9396,
      "##上班": 9397,
      "##上没有": 9398,
      "##上显示": 9399,
      "##面上，": 9400,
      "##还真": 9401,
      "##谁都": 9402,
      "##都-": 9403,
      "##都已": 9404,
      "##知青": 9405,
      "##道的": 9406,
      "##道上": 9407,
      "##果然": 9408,
      "##那片": 9409,
      "##那座": 9410,
      "##苏联": 9411,
      "##苏醒": 9412,
      "##人数": 9413,
      "##所说的": 9414,
      "##设想": 9415,
      "##想了": 9416,
      "##想找": 9417,
      "##型文明": 9418,
      "##文包": 9419,
      "##文学": 9420,
      "##明的": 9421,
      "##该文明": 9422,
      "##听着": 9423,
      "##到这里": 9424,
      "##到东方": 9425,
      "##声地": 9426,
      "##声色": 9427,
      "##对方": 9428,
      "##对自己": 9429,
      "##对地球": 9430,
      "##射到": 9431,
      "##射手": 9432,
      "##系列": 9433,
      "##已成为": 9434,
      "##很奇怪": 9435,
      "##很熟悉": 9436,
      "##很吃惊": 9437,
      "##熟练": 9438,
      "##也可以": 9439,
      "##也不可能": 9440,
      "##看来，": 9441,
      "##时期": 9442,
      "##坐标": 9443,
      "##达。": 9444,
      "##达到了": 9445,
      "##前方": 9446,
      "##地看了": 9447,
      "##最大": 9448,
      "##直径": 9449,
      "##似的，": 9450,
      "##见的": 9451,
      "##见面": 9452,
      "##初升": 9453,
      "##令叶文洁": 9454,
      "##来对": 9455,
      "##来的，": 9456,
      "##大片": 9457,
      "##大王": 9458,
      "##大衣": 9459,
      "##大约": 9460,
      "##大了。": 9461,
      "##大规模": 9462,
      "##大撕裂": 9463,
      "##三台": 9464,
      "##启航": 9465,
      "##将在": 9466,
      "##将其": 9467,
      "##将继续": 9468,
      "##四维": 9469,
      "##四。二": 9470,
      "##年纪": 9471,
      "##后才": 9472,
      "##后半": 9473,
      "##后，在": 9474,
      "##使其": 9475,
      "##色，": 9476,
      "##：4": 9477,
      "##：如果": 9478,
      "##；但": 9479,
      "##；现在": 9480,
      "##号码": 9481,
      "##bo": 9482,
      "##22": 9483,
      "##2）": 9484,
      "##7年": 9485,
      "##74": 9486,
      "##完了": 9487,
      "##5.": 9488,
      "##倒数": 9489,
      "##数值": 9490,
      "##下落": 9491,
      "##齐猎": 9492,
      "##向下": 9493,
      "##向汪淼": 9494,
      "##向大史": 9495,
      "##字幕": 9496,
      "##进人": 9497,
      "##远征": 9498,
      "##远些": 9499,
      "##着这": 9500,
      "##着自己的": 9501,
      "##着天空": 9502,
      "##又是": 9503,
      "##又用": 9504,
      "##几只": 9505,
      "##几句": 9506,
      "##奔向": 9507,
      "##奔跑": 9508,
      "##就有": 9509,
      "##就算": 9510,
      "##就在这": 9511,
      "##出那": 9512,
      "##出身": 9513,
      "##出地平线": 9514,
      "##每一个": 9515,
      "##轻蔑": 9516,
      "##高大的": 9517,
      "##度过": 9518,
      "##常识": 9519,
      "##伟大": 9520,
      "##把这": 9521,
      "##把她": 9522,
      "##把叶文洁": 9523,
      "##调节": 9524,
      "##表示": 9525,
      "##表面的": 9526,
      "##粗暴": 9527,
      "##眼中的": 9528,
      "##眼中，": 9529,
      "##眼前的": 9530,
      "##好多": 9531,
      "##警觉": 9532,
      "##莫尔": 9533,
      "##故意": 9534,
      "##半径": 9535,
      "##天地": 9536,
      "##白球": 9537,
      "##感激": 9538,
      "##感到了": 9539,
      "##己经": 9540,
      "##沉的": 9541,
      "##被截留": 9542,
      "##安慰": 9543,
      "##回来": 9544,
      "##回头": 9545,
      "##回波": 9546,
      "##过分": 9547,
      "##过得": 9548,
      "##越过": 9549,
      "##厉声": 9550,
      "##厉害": 9551,
      "##要在": 9552,
      "##负责任": 9553,
      "##任务": 9554,
      "##走。": 9555,
      "##走下": 9556,
      "##走去": 9557,
      "##走得": 9558,
      "##走去。": 9559,
      "##医院": 9560,
      "##程丽华": 9561,
      "##月光": 9562,
      "##六万": 9563,
      "##教学": 9564,
      "##正中": 9565,
      "##正空": 9566,
      "##身上，": 9567,
      "##只好": 9568,
      "##只需": 9569,
      "##只是一个": 9570,
      "##通信": 9571,
      "##移动的": 9572,
      "##头儿": 9573,
      "##头盔": 9574,
      "##斯电": 9575,
      "##而是": 9576,
      "##而来的": 9577,
      "##小片": 9578,
      "##小汪": 9579,
      "##给她": 9580,
      "##14": 9581,
      "##12000兆赫": 9582,
      "##1379号": 9583,
      "##随时": 9584,
      "##者。": 9585,
      "##冲洗": 9586,
      "##冲出来": 9587,
      "##佛祖": 9588,
      "##承受": 9589,
      "##重力": 9590,
      "##电站": 9591,
      "##光晕": 9592,
      "##光锥": 9593,
      "##干什么？": 9594,
      "##避开": 9595,
      "##环保": 9596,
      "##点上一": 9597,
      "##区别": 9598,
      "##空的": 9599,
      "##门部件": 9600,
      "##合法": 9601,
      "##锁死": 9602,
      "##供给": 9603,
      "##相撞": 9604,
      "##或者": 9605,
      "##无知": 9606,
      "##无际": 9607,
      "##之前，": 9608,
      "##结论": 9609,
      "##代号": 9610,
      "##沙发": 9611,
      "##日核": 9612,
      "##日志": 9613,
      "##日期": 9614,
      "##颗恒星": 9615,
      "##星球": 9616,
      "##星期": 9617,
      "##手里": 9618,
      "##手指": 9619,
      "##判断": 9620,
      "##拿来": 9621,
      "##海鸟": 9622,
      "##长达": 9623,
      "##距琴": 9624,
      "##拉德": 9625,
      "##操场": 9626,
      "##4.": 9627,
      "##「未": 9628,
      "##短长长": 9629,
      "##黑旗": 9630,
      "##汽车": 9631,
      "##徐冰冰": 9632,
      "##冰冷": 9633,
      "##站起身": 9634,
      "##张主任": 9635,
      "##场的": 9636,
      "##场景": 9637,
      "##快些": 9638,
      "##脑海中": 9639,
      "##哲学家": 9640,
      "##学会": 9641,
      "##烟，": 9642,
      "##美洲": 9643,
      "##美丽的": 9644,
      "##细菌": 9645,
      "##装上": 9646,
      "##扯淡": 9647,
      "##露出了": 9648,
      "##桌子": 9649,
      "##桌上": 9650,
      "##情报": 9651,
      "##带有": 9652,
      "##少女": 9653,
      "##介入": 9654,
      "##参与": 9655,
      "##嘴里": 9656,
      "##袋中": 9657,
      "##留下": 9658,
      "##留下了": 9659,
      "##各自": 9660,
      "##各国": 9661,
      "##食堂": 9662,
      "##消耗": 9663,
      "##附加": 9664,
      "##激烈": 9665,
      "##宁静": 9666,
      "##化的": 9667,
      "##化了，": 9668,
      "##屏蔽": 9669,
      "##茫然": 9670,
      "##展示": 9671,
      "##局限于": 9672,
      "##根据": 9673,
      "##景象": 9674,
      "##效率": 9675,
      "##导员": 9676,
      "##杨总工程师": 9677,
      "##公文包": 9678,
      "##脱离": 9679,
      "##死死": 9680,
      "##死去的": 9681,
      "##微微": 9682,
      "##微积分": 9683,
      "##尔摩": 9684,
      "##路上，": 9685,
      "##石块": 9686,
      "##亚历": 9687,
      "##指引": 9688,
      "##指了指": 9689,
      "##指导员": 9690,
      "##镜面，": 9691,
      "##沸腾": 9692,
      "##粒子，": 9693,
      "##睡不": 9694,
      "##转化为": 9695,
      "##咔嚓": 9696,
      "##闪光": 9697,
      "##闪亮": 9698,
      "##利的": 9699,
      "##福尔摩": 9700,
      "##蒙古": 9701,
      "##做成": 9702,
      "##形式": 9703,
      "##形势": 9704,
      "##形成的": 9705,
      "##办法": 9706,
      "##模样": 9707,
      "##模块": 9708,
      "##扔下": 9709,
      "##坚定": 9710,
      "##坚持": 9711,
      "##摆手": 9712,
      "##总觉得": 9713,
      "##期间": 9714,
      "##住在": 9715,
      "##住处": 9716,
      "##认出了": 9717,
      "##花板": 9718,
      "##兽皮": 9719,
      "##皮卷": 9720,
      "##阴阳": 9721,
      "##造成的": 9722,
      "##送到": 9723,
      "##价值": 9724,
      "##风景": 9725,
      "##6：3": 9726,
      "##推测": 9727,
      "##午夜": 9728,
      "##串联": 9729,
      "##关闭": 9730,
      "##关切": 9731,
      "##停下来": 9732,
      "##布满": 9733,
      "##抱有": 9734,
      "##占领": 9735,
      "##典型": 9736,
      "##胳膊": 9737,
      "##良久": 9738,
      "##哈哈": 9739,
      "##滚滚": 9740,
      "##升到了": 9741,
      "##暖和": 9742,
      "##纸上": 9743,
      "##取得": 9744,
      "##归宿": 9745,
      "##晨曦": 9746,
      "##批斗": 9747,
      "##银光": 9748,
      "##邪恶": 9749,
      "##邪招": 9750,
      "##企图": 9751,
      "##享受": 9752,
      "##途径": 9753,
      "##按照": 9754,
      "##痛苦": 9755,
      "##朦胧": 9756,
      "##戴眼镜": 9757,
      "##油灯": 9758,
      "##油锯": 9759,
      "##油画": 9760,
      "##油污": 9761,
      "##母女": 9762,
      "##抑制": 9763,
      "##帮助": 9764,
      "##稍微": 9765,
      "##阔的": 9766,
      "##呆呆": 9767,
      "##旋转": 9768,
      "##旋即": 9769,
      "##举！": 9770,
      "##麦克": 9771,
      "##阶级": 9772,
      "##千个": 9773,
      "##农场主": 9774,
      "##修正": 9775,
      "##盖拉德": 9776,
      "##孤寂": 9777,
      "##顺利": 9778,
      "##厚厚的": 9779,
      "##忍受": 9780,
      "##擅自": 9781,
      "##汗水": 9782,
      "##耳边": 9783,
      "##陛下": 9784,
      "##舒服": 9785,
      "##聚变": 9786,
      "##聚焦": 9787,
      "##叹息": 9788,
      "##演化": 9789,
      "##南半球": 9790,
      "##竖立": 9791,
      "##瞄准": 9792,
      "##岗亭": 9793,
      "##浑身": 9794,
      "##抓住": 9795,
      "##掠过": 9796,
      "##捂着": 9797,
      "##艺术": 9798,
      "##忏悔": 9799,
      "##邮件": 9800,
      "##憎恨": 9801,
      "##匆匆": 9802,
      "##牺牲": 9803,
      "##９9": 9804,
      "##删除": 9805,
      "##隧道": 9806,
      "##ｂ?": 9807,
      "##伪科学": 9808,
      "##汪淼问。": 9809,
      "##，这是一个": 9810,
      "##，这声音": 9811,
      "##，这也是": 9812,
      "##，这使得": 9813,
      "##，我将": 9814,
      "##，我还是": 9815,
      "##，我给你": 9816,
      "##没有回答": 9817,
      "##，但叶文洁": 9818,
      "##，但由于": 9819,
      "##，但这次": 9820,
      "##，他就": 9821,
      "##，他看到": 9822,
      "##三体教": 9823,
      "##三体人的": 9824,
      "##三体组织": 9825,
      "##的，是": 9826,
      "##的，它": 9827,
      "##的，只有": 9828,
      "##知道你": 9829,
      "##知道了，": 9830,
      "##了一段": 9831,
      "##了一阵": 9832,
      "##的一生": 9833,
      "##的一些": 9834,
      "##，在他的": 9835,
      "##的。但": 9836,
      "##的。汪淼": 9837,
      "##我们是": 9838,
      "##，那种": 9839,
      "##可能存在的": 9840,
      "##现在的": 9841,
      "##的人在": 9842,
      "##，你在": 9843,
      "##，她那": 9844,
      "##地球年": 9845,
      "##信息量": 9846,
      "##人类世界": 9847,
      "##人类文明的": 9848,
      "##上的一个": 9849,
      "##，我们需要": 9850,
      "##研究的": 9851,
      "##说：你": 9852,
      "##是一名": 9853,
      "##发现自己": 9854,
      "##，一副": 9855,
      "##出现了一": 9856,
      "##两个人": 9857,
      "##，是一个": 9858,
      "##，不要": 9859,
      "##。汪淼说。": 9860,
      "##大史的": 9861,
      "##，也不可能": 9862,
      "##的大门": 9863,
      "##的大部分": 9864,
      "##的大地上，": 9865,
      "##很快，": 9866,
      "##所有人都": 9867,
      "##。在这个": 9868,
      "##他的手": 9869,
      "##监听部": 9870,
      "##工作，": 9871,
      "##工作中": 9872,
      "##，其他": 9873,
      "##，其余": 9874,
      "##，其中的": 9875,
      "##起来了，": 9876,
      "##智子的": 9877,
      "##还有一个": 9878,
      "##观测基地": 9879,
      "##仿佛是": 9880,
      "##这一点": 9881,
      "##的地址": 9882,
      "##不能再": 9883,
      "##发生过": 9884,
      "##告诉她": 9885,
      "《三体》的": 9886,
      "##点点头。": 9887,
      "##的信息。": 9888,
      "##短短短": 9889,
      "##中心的": 9890,
      "##197": 9891,
      "##191": 9892,
      "##，使得": 9893,
      "##十分之一": 9894,
      "##三颗卫星": 9895,
      "##的话题": 9896,
      "##的时代": 9897,
      "##生活的": 9898,
      "##生活。": 9899,
      "##那样的": 9900,
      "##正常！": 9901,
      "##外星文明探索": 9902,
      "##出一种": 9903,
      "##审判日号的": 9904,
      "##的巨月": 9905,
      "##学者们": 9906,
      "##明白了": 9907,
      "##清楚，": 9908,
      "##作为一个": 9909,
      "##世纪八十年代": 9910,
      "##自然的": 9911,
      "##旁边的": 9912,
      "##说话。": 9913,
      "##一切都": 9914,
      "##成功地": 9915,
      "##能量镜面": 9916,
      "##相当于": 9917,
      "##缓缓转动": 9918,
      "##普通的": 9919,
      "##一阵儿": 9920,
      "##中的一部分": 9921,
      "##叶哲泰的": 9922,
      "##的心理": 9923,
      "##的心灵": 9924,
      "##联系，": 9925,
      "##精确的": 9926,
      "##，比起": 9927,
      "##，仿佛是": 9928,
      "##事情的": 9929,
      "##使用的": 9930,
      "##维度收缩": 9931,
      "##数量级": 9932,
      "##责任心": 9933,
      "##地球三体组织": 9934,
      "##地球三体叛军": 9935,
      "##根本没有": 9936,
      "##。现在，": 9937,
      "##大学的": 9938,
      "##不动声色": 9939,
      "##爆炸物专家": 9940,
      "##反动学术权威": 9941,
      "##走进了": 9942,
      "##我们的行星": 9943,
      "##接收到的信息": 9944,
      "##物理学家们": 9945,
      "元首，": 9946,
      "##在大地上": 9947,
      "##：21": 9948,
      "##之外的": 9949,
      "##黑暗的": 9950,
      "##黑暗中": 9951,
      "##创造了": 9952,
      "##警告信息": 9953,
      "##各个方向": 9954,
      "##寂静的春天": 9955,
      "##递给汪淼": 9956,
      "##事实上，": 9957,
      "##尺度上": 9958,
      "##著名学者": 9959,
      "##的人类文明": 9960,
      "##围绕着": 9961,
      "##遥远的": 9962,
      "##经历过": 9963,
      "##应用研究": 9964,
      "##三日凌": 9965,
      "##了半个": 9966,
      "##当地人": 9967,
      "##号文明在": 9968,
      "##第三次": 9969,
      "##往事》": 9970,
      "##凝固了，": 9971,
      "##指令。": 9972,
      "##最近的恒星": 9973,
      "第二天": 9974,
      "##静静地": 9975,
      "##类似于": 9976,
      "##粗壮女人": 9977,
      "##抬起头": 9978,
      "##空荡荡": 9979,
      "##无所谓": 9980,
      "##服务器": 9981,
      "##凌晨一点": 9982,
      "##靶标粒子": 9983,
      "##为一体": 9984,
      "##完毕，": 9985,
      "目标距琴": 9986,
      "##人洞内": 9987,
      "##照耀着": 9988,
      "##解密」": 9989,
      "##公里！": 9990,
      "##再次登录。": 9991,
      "不要回答": 9992,
      "##心不在焉": 9993,
      "##四。二八": 9994,
      "##齐猎头儿": 9995,
      "##莫尔斯电": 9996,
      "##「未解密」": 9997,
      "##亚历士多德": 9998,
      "##福尔摩斯": 9999
    }
  }
}